{
  "version": "1.0",
  "truncation": null,
  "padding": null,
  "added_tokens": [],
  "normalizer": null,
  "pre_tokenizer": {
    "type": "ByteLevel",
    "add_prefix_space": false,
    "trim_offsets": true,
    "use_regex": true
  },
  "post_processor": {
    "type": "ByteLevel",
    "add_prefix_space": true,
    "trim_offsets": false,
    "use_regex": true
  },
  "decoder": {
    "type": "ByteLevel",
    "add_prefix_space": true,
    "trim_offsets": true,
    "use_regex": true
  },
  "model": {
    "type": "BPE",
    "dropout": null,
    "unk_token": null,
    "continuing_subword_prefix": null,
    "end_of_word_suffix": null,
    "fuse_unk": false,
    "byte_fallback": false,
    "ignore_merges": false,
    "vocab": {
      "\u0000": 0,
      "\u0001": 1,
      "\u0002": 2,
      "\u0003": 3,
      "\u0004": 4,
      "\u0005": 5,
      "\u0006": 6,
      "\u0007": 7,
      "\b": 8,
      "\t": 9,
      "\n": 10,
      "\u000b": 11,
      "\f": 12,
      "\r": 13,
      "\u000e": 14,
      "\u000f": 15,
      "\u0010": 16,
      "\u0011": 17,
      "\u0012": 18,
      "\u0013": 19,
      "\u0014": 20,
      "\u0015": 21,
      "\u0016": 22,
      "\u0017": 23,
      "\u0018": 24,
      "\u0019": 25,
      "\u001a": 26,
      "\u001b": 27,
      "\u001c": 28,
      "\u001d": 29,
      "\u001e": 30,
      "\u001f": 31,
      " ": 32,
      "!": 33,
      "\"": 34,
      "#": 35,
      "$": 36,
      "%": 37,
      "&": 38,
      "'": 39,
      "(": 40,
      ")": 41,
      "*": 42,
      "+": 43,
      ",": 44,
      "-": 45,
      ".": 46,
      "/": 47,
      "0": 48,
      "1": 49,
      "2": 50,
      "3": 51,
      "4": 52,
      "5": 53,
      "6": 54,
      "7": 55,
      "8": 56,
      "Ā": 57,
      "ā": 58,
      "Ă": 59,
      "ă": 60,
      "Ą": 61,
      "ą": 62,
      "Ć": 63,
      "ć": 64,
      "Ĉ": 65,
      "ĉ": 66,
      "Ċ": 67,
      "ċ": 68,
      "Č": 69,
      "č": 70,
      "Ď": 71,
      "ď": 72,
      "Đ": 73,
      "đ": 74,
      "Ē": 75,
      "ē": 76,
      "Ĕ": 77,
      "ĕ": 78,
      "Ė": 79,
      "ė": 80,
      "Ę": 81,
      "ę": 82,
      "Ě": 83,
      "ě": 84,
      "Ĝ": 85,
      "ĝ": 86,
      "Ğ": 87,
      "ğ": 88,
      "Ġ": 89,
      "ĜĜ": 90,
      "ĜĜĜĜ": 91,
      "ĜĜĜĜĜĜĜĜ": 92,
      "ĜĜĜĜĜĜĜĜĜĜĜĜĜĜĜĜ": 93,
      "Ĝě": 94,
      "Ĝĝ": 95,
      "ĜĜĜĜĜĜ": 96,
      "ĜĜĜĜĜĜĜĜĜĜĜĜĜĜĜĜĜĜĜĜĜĜĜĜĜĜĜĜĜĜĜĜ": 97,
      "ĝě": 98,
      "ĜĜě": 99,
      "ĜĜĝ": 100,
      "ĜĜĜĜĜĜĜĜĜĜĜĜĜĜĜĜĜĜĜĜĜĜĜĜ": 101,
      "ěě": 102,
      "ĜĜĜ": 103,
      "ĝĝ": 104,
      "ĜĜĜě": 105,
      "ĜĜĜĝ": 106,
      "ĜĚ": 107,
      "ĜĞ": 108,
      "ĜĜĜĜĜ": 109,
      "ěĝ": 110,
      "ĜĜĜĜĜĜĜ": 111,
      "ĜĜĜĜě": 112,
      "ĜĜĜĜĝ": 113,
      "ĜĜĜĜĜĜě": 114,
      "ěĀ": 115,
      "ĜĜĜĜĜĜĝ": 116,
      "ĜĜĜĜĜě": 117,
      "ĜĜĜĜĜĜĜĜĜĜĜĜĜĜĜĜĜĜĜĜĜĜĜĜĜĜĜĜĜĜĜĜĜĜĜĜĜĜĜĜ": 118,
      "ĜĜĜĜĜĝ": 119,
      "Ğě": 120,
      "Ěě": 121,
      "Ěĝ": 122,
      "Ĝę": 123,
      "Ĝğ": 124,
      "Ğĝ": 125,
      "ĜĜĜĜĜĜĜĜĜĜĜĜĜĜĜĜĜĜĜĜĜĜĜĜĜĜĜĜĜĜĜ": 126,
      "Ĝĝĝ": 127,
      "Ĝěĝ": 128,
      "ĜĜĜĜĜĜĜĜĜĜĜĜĜĜĜĜĜĜĜĜĜĜĜĜĜĜĜĜĜĜĜĜĜĜĜĜĜ": 129,
      "Ĝěě": 130,
      "Ĝĝě": 131,
      "ĜĜĜĜĜĜĜĜĜĜĜĜĜ": 132,
      "ĜĜĜĜĜĜĜĜĜĜĜĜĜĜĜĜĜĜĜĜĜĜĜĜĜĜĜĜĜĜ": 133,
      "ğě": 134,
      "ęě": 135,
      "ĠĜĜĜĜĜĜ": 136,
      "ĜĘ": 137,
      "ęĝ": 138,
      "ĜĜĜĜĜĜĜĜĜĜĜĜĜĜĜĜĜĜĜĜĜĜĜĜĜĜĜĜĜĜĜĜĜĜĜĜĜĜĜ": 139,
      "ĞĚ": 140,
      "ĜĜĜĜĜĜĜĜĜĜĜĜĜĜĜĜĜĜĜĜĜĜĜĜĜĜĜĜĜĜĜĜĜĜĜĜĜĜ": 141,
      "ĜĜĜĜĜĜĘ": 142,
      "ĜĀ": 143,
      "ĜĜĜĜĜĜĜĜĜĜĜĜĜĜĜĜĜĜĜĜĜĜĜĜĜĜĜĜĜĜĜĜĜĜ": 144,
      "ĜĜĜĜĜĜĜĜĜĜĜĜĜĜĜĜĜĜĜĜĜĜĜĜĜ": 145,
      "ĜĜĜĜĜĜĜĜĜĜĜĜĜĜĜĜĜĜĜĜĜĜĜĜĜĜĜ": 146,
      "ĚĚ": 147,
      "ğĝ": 148,
      "ĜĜĞ": 149,
      "ĜěĜě": 150,
      "Ġě": 151,
      "ĜĜĜĜĜĜĜĜĜĜĜĜĜĜĜĜĜ": 152,
      "ĜĝĜĝ": 153,
      "ĜĜĜĜĜĜĜĜĜĜĜĜĜĜĜĜĜĜĜĜĜĜĜĜĜĜĜĜĜĜĜĜĜ": 154,
      "ĜĜĚ": 155,
      "ĞĞ": 156,
      "ĜĜĝě": 157,
      "ěĚ": 158,
      "ĝĚ": 159,
      "ěĞ": 160,
      "Ĝė": 161,
      "ěĜě": 162,
      "ĝĜĝ": 163,
      "ĝěĀ": 164,
      "ĝĞ": 165,
      "Ęě": 166,
      "ĚĞ": 167,
      "ĜĜĜĜĜĜĘĜĜĜĜĜĜ": 168,
      "ĕĜĜĜĜĜĜ": 169,
      "ĜĜěě": 170,
      "#ĜĜĜĜĜĜ": 171,
      "ĜĖ": 172,
      "Ęĝ": 173,
      "ĜĜĝĝ": 174,
      "ğĚ": 175,
      "ĜĜĜĜĜĜĜĜĜĜĜĜĜĜĜĜĜĜĜĜĜĜĜĜĜĜĜĜĜĜĜĜĜĜĜĜĜĜĜĜĜĜĜĜĜĜĜĜĜ": 176,
      "ęĞ": 177,
      "ĜĜĜĜĜĜĜĜĜĜĜĜĜĜĜĜĜĜĜĜĜĜĜĜĜĜĜĜĜĜĜĜĜĜĜĜĜĜĜĜĜĜĜĜ": 178,
      "Ĝē": 179,
      "Ĝ!": 180,
      "ĜĜĜĜĜĜĜĜĜĜĜĜĜĜĜĜĜĜĜĜĜĜĜĜĜĜĜĜĜĜĜĜĜĜĜĜ": 181,
      "ĜĝĜě": 182,
      "ĜĜĜĜĜĜĜĜĜĜĜĜĜĜĜĜĜĜĜĜĜĜĜ": 183,
      "ęĚ": 184,
      "Ġĝ": 185,
      "ĜĜĜĜĜĜĜĜĜĜĜĜĜĜĜĜĜĜĜĜĜĜĜĜĜĜ": 186,
      "ęĀ": 187,
      "ĜĜěĜĜĜ": 188,
      "ĝĜě": 189,
      "ğĞ": 190,
      "ĜĜĜĜĜĜĜĜĜĜĜĜĜĜĜĜĜĜĜĜ": 191,
      "ĝěě": 192,
      "ėě": 193,
      "Ĝĕ": 194,
      "!ě": 195,
      "ĜĜěĜě": 196,
      "ĘĀ": 197,
      "ĜĜĜĜĜĜĜĜĜĜĜĜĜĜĜĜĜĜ": 198,
      "Ĝ\"": 199,
      "ĜĜěĝ": 200,
      "ĠĚ": 201,
      "Ĝ%": 202,
      "ěěĝ": 203,
      "ėĝ": 204,
      "ĘĞ": 205,
      "ĜĜĝĜĝ": 206,
      "ěĜĝ": 207,
      "ĜĜĜĜĜĜ#ĜĜĜĜĜĜ": 208,
      "ĝěĝ": 209,
      "ĜĜĜĜĜĜĜĝ": 210,
      "ĜĜĜĜĜĜĕĜĜĜĜĜĜ": 211,
      "ĚĀ": 212,
      "ĜĚĝ": 213,
      "\"ě": 214,
      "ėĀ": 215,
      "ĜĜĜĜĜĜĜě": 216,
      "ĜĜĜĜĜĜĜĜĜĜĜĜĜĜĜĜĜĜĜĜĜĜĜĜĜĜĜĜĜĜĜĜĜĜĜĜĜĜĜĜĜĜĜ": 217,
      "ĚĜě": 218,
      "ĠĜĜĜĜĜĜė": 219,
      "Ėě": 220,
      "ĖĜĜĜĜĜĜĜĜĜĜĜĜĜ": 221,
      "ĝĝĝ": 222,
      "ğę": 223,
      "ĠĞ": 224,
      "ĜĔ": 225,
      "#ě": 226,
      "ĞĜĝ": 227,
      "ĖĀ": 228,
      "ĜĞĝ": 229,
      "ĜĜĝĜě": 230,
      "ĜĜĜĜěĜě": 231,
      "ĘĜĜĜĜĜĜ": 232,
      "ĜĚě": 233,
      "ĜĜĜĜĜĜĜĜĜĜĜĜĜĜĜĜĜĜĜĜĜĜĜĜĜĜĜĜĜĜĜĜĜĜĜĜĜĜĜĜĜ": 234,
      "ĜĞě": 235,
      "ĞĜě": 236,
      "Ėĝ": 237,
      "ěěě": 238,
      "ĠĜĜĜĜĜĜ!": 239,
      "ĜĜĜěě": 240,
      "ĜĜĜĝĝ": 241,
      "ĘĚ": 242,
      "ĕě": 243,
      "ęę": 244,
      "ĜĒ": 245,
      "ĜĜĜĜĝĜĝ": 246,
      "ğğ": 247,
      "ĜĜĝĜĜĜĝ": 248,
      "ĜĜĜĜĜĜĜĜĜĜĜĜĜĜĜĜĜĜĜĜĜĜĜĜĜĜĜĜĜĜĜĜĜĜĜĜĜĜĜĜĜĜĜĜĜĜ": 249,
      "ĜĜĜĚ": 250,
      "ĜĜğ": 251,
      "!ĝ": 252,
      "Ġę": 253,
      "ĜĜĜĜĜĜĜĜĜĜĜĜĜĝ": 254,
      "ĜĜĜĜĜĜĜĜĜĜ": 255,
      "ĜĜę": 256,
      "ěę": 257,
      "ĚĜĝ": 258,
      "ėĞ": 259,
      "ĜěĜĝ": 260,
      "ĜĜěĜĝ": 261,
      "ěğ": 262,
      "ĜĜěĜĜĜě": 263,
      "ĕĝ": 264,
      "\"ĝ": 265,
      "Ěę": 266,
      "ĜĜĜĜĜĜĜĜĝ": 267,
      "Ğę": 268,
      "Ĝ#": 269,
      "ĜĜĜĜěě": 270,
      "%ě": 271,
      "!Ě": 272,
      "Ġğ": 273,
      "ĜĜĜĜĝě": 274,
      "$ě": 275,
      "ĜĜĝĜĜĜ": 276,
      "ĜĜĜĜĜĜĜĜĜĜĜĜĜě": 277,
      "Ęę": 278,
      "ĜĜĜěĝ": 279,
      "ĕĀ": 280,
      "ĜĜĜĜĜĜĜĜě": 281,
      "Ęğ": 282,
      "Ěğ": 283,
      "ĜĜĜĝě": 284,
      "ēě": 285,
      "\"ĜĜĜĜĜĜĜĜĜĜĜĜĜ": 286,
      "ĜĜĜĜĜěĝ": 287,
      "ĜĜĜĜĜěě": 288,
      "ĜĜĜĜĝĝ": 289,
      "ĜĜĜĜĜĜĝĜĜĜĜĜĜĜĜĜĜĜĜĜĜĜĜĜĜĜĜĜĜĜĜĜĜĜĜĜĜĜĜ": 290,
      "ĜĜĜĜĝĜĜĜĜĜĜĜĜĜĜĜĜĜĜĜĜĜĜĜĜĜĜĜĜĜĜĜĜĜĜĜĜ": 291,
      "ĜĜĜĜĜĜĜĜĜĜĜĜĜĜĜĜĜĜĜĜĜĜĜĜĜĜĜĜĜĜĜĜĜĜĜĜĜĜĜĜĜĜĜĜĜ": 292,
      "ĖĞ": 293,
      "ėĚ": 294,
      "ĜĜĜĜěĝ": 295,
      "ĜĜĜěĜě": 296,
      "ĜĜĜĜěĜĝ": 297,
      "Ĝ&": 298,
      "ĜĄ": 299,
      "ĝğ": 300,
      "Ĝ$": 301,
      "ĜĜĜĞ": 302,
      "Āě": 303,
      "Ĝď": 304,
      "ĜĜĜĜĜĜĜĜĜĜĜĜĜĜĜĜĜĜĜĜĜĜĜĜĜĜĜĜĜ": 305,
      "ęğ": 306,
      "Ğğ": 307,
      "ĜĜĜĜĝĜě": 308,
      "ĜĝĜĜě": 309,
      "Ĕě": 310,
      "ĜĚĜě": 311,
      "#ĝ": 312,
      "ĠĘ": 313,
      "Ĕĝ": 314,
      "ĜĜĜĜĜĜĜĜĜĜĜ": 315,
      "ĜĜĜĜĜĝě": 316,
      "!Ğ": 317,
      "Āĝ": 318,
      "ĜĞĜĝ": 319,
      "ĜĜĜěĜĝ": 320,
      "ĜĜĜĜĜĜĜĜĜĜĜĝ": 321,
      "ĜĜĜĜĜĝĝ": 322,
      "ĜĜĜĜĜĜĜĜĜě": 323,
      "ĠĜĜĜĜĜĜĚ": 324,
      "ĝĝĜě": 325,
      "ĜĜĜĜĜĜĜĜĜĝ": 326,
      "ĖĜĜĜĜĜĜ": 327,
      "ĘěĀ": 328,
      "ĜĜ%": 329,
      "ĜĜĜĜĜĜĜĜĜĜĜĜ": 330,
      "&ě": 331,
      "ĜĜĜĜĜĜĜĜĜĜĝ": 332,
      "ĜĜĜĜĜĜĜĜĜĜĜĜĜĜĜĜĜĜĜ": 333,
      "ĜĝĞ": 334,
      "ĜĜĜĜĜĜĜĜĜĜĜě": 335,
      "Ěĝě": 336,
      "ĜĜěĜĜĜĝ": 337,
      "!ğ": 338,
      "Ĝ)": 339,
      "ĠĜĜĜĜĜĜėĜĜĜĜĜĜ": 340,
      "ĞĜĜĜĜĜĜ": 341,
      "ĜĜĜĜěĜĜĜĜĜĜĜĜĜĜĜĜĜĜĜĜĜĜĜĜĜĜĜĜĜĜĜĜĜĜĜĜ": 342,
      "ĜĜĝĜĜĜě": 343,
      "ĜĜĜĝĜĝ": 344,
      "ĜĜĜĜĜĜĘĜĜĜĜĜĜĚ": 345,
      "ĝę": 346,
      "ĖĜĜĜĜĜĜĘĜĜĜĜĜĜĚ": 347,
      "ĕĚ": 348,
      "ĖĚ": 349,
      "!ę": 350,
      "ėę": 351,
      "ėğ": 352,
      "\"Ě": 353,
      "ĜĜĜĜĜĜĘĜĜĜĜĜĜė": 354,
      "ĠĜĜĜĜĜĜ!ĜĜĜĜĜĜ": 355,
      "ĠĀ": 356,
      "ĜĜĜĜĜĝĜĜĜĜĜĜĜĜĜĜĜĜĜĜĜĜĜĜĜĜĜĜĜĜĜĜĜĜĜĜĜĜ": 357,
      "#Ě": 358,
      "ĠĜĜĜĜĜĜĞ": 359,
      "Ēě": 360,
      "ĝěĜě": 361,
      "ĜĜē": 362,
      "ęĜě": 363,
      "ĜĜĜĝĜě": 364,
      "ĠĜ": 365,
      "ĔĀ": 366,
      "ĖĜĜĜĜĜĜĜĜĜĜĜĜĜ!": 367,
      "ĜĜĜĜĜĜĜĜĜĜě": 368,
      "'ě": 369,
      "ĜĜĚě": 370,
      "ĜĜĝĜĜě": 371,
      "ĜĜĜĜĜĜěĜĜĜĜĜĜĜĜĜĜĜĜĜĜĜĜĜĜĜĜĜĜĜĜĜ": 372,
      "ĞĜĜĜĜĜĜĘĜĜĜĜĜĜė": 373,
      "ěĜěĜĜĜ": 374,
      "ěĜ": 375,
      "ĜĜĜĜĜĜěĜĜĜĜĜĜĜĜĜĜĜĜĜĜĜĜĜĜĜĜĜĜĜĜĜĜĜĜĜĜĜĜ": 376,
      "!ĜĜĜĜĜĜĘ": 377,
      "Ġ8": 378,
      "Ğěĝ": 379,
      "ĘĘ": 380,
      "ĜěĚ": 381,
      "ėěĀ": 382,
      "\"ĜĜĜĜĜĜ": 383,
      "ĜĜĝĜĜĜĜĜĜĜĜĜĜĜĜĜĜĜĜĜĜĜĜĜĜĜĜĜĜĜĜĜĜĜĜĜĜ": 384,
      "ĞĀ": 385,
      "ěěĀ": 386,
      "\"ę": 387,
      "ēĝ": 388,
      "Ĝğě": 389,
      "ğĀ": 390,
      "ĜĜĜĜĜĜĘĜĜĜĜĜĜĞ": 391,
      "ĜěĞ": 392,
      "$ĝ": 393,
      "Ĝęĝ": 394,
      "\"ĜĜĜĜĜĜĘĜĜĜĜĜĜĞ": 395,
      "ĝĝĜĝ": 396,
      "ėĜĜĜĜĜĜĘ": 397,
      "ĜĜĞĝ": 398,
      "ĜĜĝĜĜĜĜĜĜĝ": 399,
      "ĜĜĜĜĜĜĜĜĜ": 400,
      "ěĘ": 401,
      "Ĝğĝ": 402,
      "ĜĂ": 403,
      "\"Ğ": 404,
      "ğĜě": 405,
      "Ġė": 406,
      "%ĝ": 407,
      "ĜĜĜĜĜĜĜĜĜĜĜĜě": 408,
      "!Ę": 409,
      "#ę": 410,
      "ĝěĜĝ": 411,
      "ĠĜĝ": 412,
      "ĜĜĞě": 413,
      "ĕĞ": 414,
      "đě": 415,
      "ĚĜĜĜĜĜĜ": 416,
      "ĜĜĜĜĜĜĜĜĜĜĜĜĝ": 417,
      "Ėę": 418,
      "ĜĜěĜĜĝ": 419,
      "ĝĜ": 420,
      "ğĘ": 421,
      "ĀĞ": 422,
      "ěĀě": 423,
      ")ě": 424,
      "ĜĜěěě": 425,
      "ĜĜĘ": 426,
      "(ě": 427,
      "ĜĜĜěĜĜĝ": 428,
      "ĜĝĜĜĜĝ": 429,
      "ĜĜĜĜĜĜěĜĜĜĜĜĜě": 430,
      "#Ğ": 431,
      "Ěěĝ": 432,
      "ĚĘ": 433,
      "ĜĞĞ": 434,
      "ĕę": 435,
      "ďě": 436,
      "ĜĜĜĜĜĜĘĜĜĜĜĜĜ!": 437,
      "$Ě": 438,
      "ğĜĝ": 439,
      "ĜĜĜĜĜĜĜĜĜĜĜĜĜĖĜĜĜĜĜĜĜĜĜĜĜĜĜ!": 440,
      "Đě": 441,
      "ĘĜĜĜĜĜĜ!ĜĜĜĜĜĜĘ": 442,
      "ĜĚĞ": 443,
      "ĜĜĜĜĜĜĝĜĜĜĜĜĜĝ": 444,
      "ĞĜ": 445,
      "ğĜ": 446,
      "ēĀ": 447,
      "ĚĜ": 448,
      "ĜĜĚĝ": 449,
      "Ēĝ": 450,
      "ĜĜĜĜĜĜ#ĜĜĜĜĜĜĖĜĜĜĜĜĜ": 451,
      "ěĝĚ": 452,
      "#Ę": 453,
      "Ġ!": 454,
      "ĜěĜĜě": 455,
      "ĜĝĜĜĜĜ": 456,
      "ĜĜĜĜĜĜ#ĜĜĜĜĜĜĞĜĜĜĜĜĜĘĜĜĜĜĜĜė": 457,
      "ĜĜĜĜĜĜĕĜĜĜĜĜĜĖĜĜĜĜĜĜĘĜĜĜĜĜĜĚ": 458,
      "\"ğ": 459,
      "ėĘ": 460,
      "\"Ę": 461,
      "Ĝęě": 462,
      "ĘĜĜĜĜĜĜėĜĜĜĜĜĜĘ": 463,
      "Ďě": 464,
      "ĜĜĜĜĜěĜĜĜĜĜĜĜĜĜĜĜĜĜĜĜĜĜĜĜĜĜĜĜĜĜĜĜĜĜĜĜĜ": 465,
      "ęĘ": 466,
      "ĜĜĜĜĜĜĕĜĜĜĜĜĜĞĜĜĜĜĜĜ": 467,
      "\"ĜĜĜĜĜĜĜĜĜĜĜĜĜė": 468,
      "!Ĝ": 469,
      "Ėğ": 470,
      "ĝĘ": 471,
      "ĜĜĝĝě": 472,
      "ĜĜĜĜěĜĜĜĜĜĜĜĜĜĜĜĜĜĜĜĜĜĜĜĜĜĜĜĜĜĜĜĜĜĜĜĜĜĜĜĜĜĜĜ": 473,
      "ćě": 474,
      "Ğěě": 475,
      "ĜĜĜ%": 476,
      "ĜěĜĜĜě": 477,
      "ēĜĜĜĜĜĜ": 478,
      "ĔĜĜĜĜĜĜ#ĜĜĜĜĜĜĖĜĜĜĜĜĜ": 479,
      "Ěěě": 480,
      "Ĝđ": 481,
      "ĔĞ": 482,
      "ĔĜĜĜĜĜĜĕĜĜĜĜĜĜĖĜĜĜĜĜĜĘĜĜĜĜĜĜĚ": 483,
      "ĔĚ": 484,
      "ĜĞĜě": 485,
      "#ğ": 486,
      "ĜĜĝĜĝĜĝ": 487,
      "ĕğ": 488,
      "ĖĘ": 489,
      "ĚĜĚ": 490,
      "Ĝ.": 491,
      "ĜĜĜĝĜĜě": 492,
      "ĝěĜĜĜě": 493,
      "ĜĜĀ": 494,
      "ĖěĀ": 495,
      "ĠĜě": 496,
      "ĜĜĝĜĜĜĜĜĜě": 497,
      "Ġěĝ": 498,
      "ĝĝĀ": 499,
      "ĜĜěĜěĜě": 500,
      "ĜĜĝĜĜĜĜĜĜĜĜĜĜĜĜĜĜĜĜĜĜĜĜĜĜĜĜĜĜĜĜĜĜĜĜĜĜĜĜĜĜĜĜĜĜĜĜĜĜ": 501,
      "ĜĜĜĜĜěĜĜĜĜĜĜĜĜĜĜĜĜĜĜĜĜĜĜĜĜĜĜĜĜĜ": 502,
      "!Ā": 503,
      "*ě": 504,
      "ĞĘ": 505,
      "ĜĜĜĝĜĜ": 506,
      "ęĝě": 507,
      "ĚĜĜĜĜĜĜĘĜĜĜĜĜĜ!": 508,
      "Ĕę": 509,
      "ėė": 510,
      "ĠěĀ": 511,
      "Ěĝĝ": 512,
      "ĝĜĜĜĜĜ": 513,
      "ĜĝĝĜě": 514,
      "ĜĜěĜĜě": 515,
      "ĠĖ": 516,
      "ĕĘ": 517,
      "ėĜ": 518,
      "ĚĜę": 519,
      "ĠĜĞ": 520,
      "\"Ĝ": 521,
      ".ě": 522,
      "ĜĜĜĜĝĜĜĜĜĜĜĜĜĜĜĜĜĜĜĜĜĜĜĜĜĜĜĜĜĜĜĜĜĜĜĜĜĜĜ": 523,
      "ĜĜĝĜĜĝ": 524,
      "ĜĜĜĜĞ": 525,
      "ĒĀ": 526,
      "ĝ!": 527,
      "ĝĜĝĜĜĜ": 528,
      "ĚĜĞ": 529,
      "ĜĝĜĜĜě": 530,
      "ĜĜĜĜĜĜĖĜĜĜĜĜĜĜĜĜĜĜĜĜ": 531,
      "Ġ\"": 532,
      "ĜĜĜěĜĜ": 533,
      "ěĝĞ": 534,
      "!ė": 535,
      "Ĝĝĝě": 536,
      "%Ě": 537,
      "$Ğ": 538,
      "ĜĜĜĜĜĜěĜĜĜĜĜĜĜĜĜĜĜĜĜĜĜĜĜĜĜĜĜĜĜĜĜĜĜĜĜĜĜ": 539,
      "Ąě": 540,
      "ĜěĀ": 541,
      "ĜĜĜĜĜĜĝĜĜĜĜĜĜĜĜĜĜĜĜĜĜĜĜĜĜĜĜĜĜĜĜĜ": 542,
      "ĜěĜĜĜĜ": 543,
      "ēĚ": 544,
      "ĜĜĜĜĝĜĜĜĜĜĜĜĜĜĜĜĜĜĜĜĜĜĜĜĜĜĜĜĜĜĜĜĜĜĜĜĜĜĜĜĜĜĜĜ": 545,
      "ĜĜĜĜĜĚ": 546,
      "Ĕğ": 547,
      "ęĜ": 548,
      "Ĉě": 549,
      "ĞĜĞ": 550,
      "Ĝěěě": 551,
      "ĜĜĜĜĜĜĝĜĜĜĜĜĜĜĜĜĜĜĜĜĜĜĜĜĜĜĜĜĜĜĜ": 552,
      "ğĜĜĜĜĜĜ#ĜĜĜĜĜĜĞĜĜĜĜĜĜĘĜĜĜĜĜĜė": 553,
      "ĜĜěĜĜĜĜĜĜĜĜĜĜĜĜĜĜĜĜĜĜĜĜĜĜĜĜĜĜĜĜĜĜĜĜĜĜ": 554,
      "ĝĜĞ": 555,
      "ĜĜ\"": 556,
      "ĜĚĝě": 557,
      "ĒĚ": 558,
      "Ğĝĝ": 559,
      "ĜĝĚ": 560,
      "ĖĜ": 561,
      "Ġĕ": 562,
      "ĜĜěěĝ": 563,
      "ěĝę": 564,
      "#Ĝ": 565,
      "ĜěĜĜĝ": 566,
      "ěĝě": 567,
      "ğ!": 568,
      "ĜĚĚ": 569,
      "ĜĜ)": 570,
      "%ĜĜĜĜĜĜ": 571,
      "Ğĝě": 572,
      "ğěĝ": 573,
      "ĜĜĜĜěĜĜĜĜĜĜĜĜĜĜĜĜĜĜĜĜĜĜĜĜĜĜĜĜĜĜĜ": 574,
      "ğĜĜĜĜĜĜĕĜĜĜĜĜĜĞĜĜĜĜĜĜ": 575,
      "ēę": 576,
      "Ě!": 577,
      "đĀ": 578,
      "ĜĜĜĜĚ": 579,
      "$ę": 580,
      "ĜĜĜĜĜĜěĜĜĜĜĜĜĜĜĜĜĜĜĜĜĜĜĜĜĜĜĜĜĜĜ": 581,
      "ğĜĞ": 582,
      "#ė": 583,
      "ĜĜĜěĜĜě": 584,
      "ěĜę": 585,
      "Ğ!": 586,
      "ĜěĜĜĜĝ": 587,
      "ĜĝĜĜĝ": 588,
      "ĜĜĜĜĜĜĕĜĜĜĜĜĜ\"ĜĜĜĜĜĜĘĜĜĜĜĜĜĞ": 589,
      "\"!": 590,
      "ĒĞ": 591,
      "ĠĔ": 592,
      "ĜĜ$": 593,
      "Ĝĝěě": 594,
      "ĜĚěě": 595,
      "ĝĝĚ": 596,
      "ěĜĞ": 597,
      "$ğ": 598,
      "ĜĜĜĜĜĜ#ĜĜĜĜĜĜ\"ĜĜĜĜĜĜ": 599,
      "ĝěĜĜĜĜĜĜĜĜĜĜĜĜĜĜĜĜĜĜĜĜĜĜĜĜĜĜĜĜĜĜĜ": 600,
      "ĜĜĜĝĜĜĝ": 601,
      "&Ě": 602,
      "ĜĜĜĜĜĜěĝ": 603,
      "ę!": 604,
      "ěĕ": 605,
      "ĜĜĜę": 606,
      "ĜĜĜĜěĜĜĜĜĜĜĜĜĜĜĜĜĜĜĜĜĜĜĜĜĜĜĜĜĜ": 607,
      "ĚĝĚ": 608,
      "Ĝěę": 609,
      "ĘĜ": 610,
      "ĝěĜĜĝ": 611,
      "Ėė": 612,
      "ěĜĘ": 613,
      "ĜĜė": 614,
      "ĜĜĜĜěěĝ": 615,
      "+ě": 616,
      "đĝ": 617,
      "ĚĜĘ": 618,
      "Ğė": 619,
      "ğěě": 620,
      "ĜĜĜĜĜĜěĜĜĜĜĜĜĜĜĜĜĜĜĜĜĜĜĜĜĜĜĜĜĜĜĜĜĜ": 621,
      "#Ā": 622,
      "ěĜğ": 623,
      "ĜĜĜĜĜĜĝĜĜĜĜĜĜĜĜĜĜĜĜĜĜĜĜĜĜĜĜĜĜĜĜĜĜĜĜĜĜĜĜĜĜĜĜĜ": 624,
      "%ę": 625,
      "&ę": 626,
      "ĝĝĜĜě": 627,
      "ĜĚĜĝ": 628,
      "ĜĜĜĜĜĜĝĜĜĜĜĜĜĜĜĜĜĜĜĜĜĜĜĜĜĜĜĜĜĜĜĜĜĜĜĜĜ": 629,
      "ĜĜĜĜĜĝĜĜĜĜĜĜĜĜĜĜĜĜĜĜĜĜĜĜĜĜĜĜĜĜĜĜĜĜĜĜĜ": 630,
      "ěĖ": 631,
      "ěė": 632,
      "ĜĜĜĜĜĞ": 633,
      "ĜěĝĜě": 634,
      "$Ę": 635,
      "$Ĝ": 636,
      "ĝĜğ": 637,
      "ěĝĘ": 638,
      "ĝ\"": 639,
      "!!": 640,
      "ĜĜĜĜĜĜĜĜĜĜĜĜĜĜĜĜĜĜĜĜĝ": 641,
      "ĝěĚ": 642,
      "ĜĜĜĜĜĜěĜĜĜĜĜĜĜĜĜĜĜĜĜĜĜĜĜĜĜĜĜĜĜĜĜĜĜĜĜĜ": 643,
      "ĔĘ": 644,
      "ěěĞ": 645,
      "đĚ": 646,
      "ęė": 647,
      "ěĜĚ": 648,
      "ĜĎ": 649,
      "ğė": 650,
      "ĜĜĜĜĜĜěĜĜĜĜĜĜĜĜĜĜĜĜĜĜĜĜĜĜĜĜĜĜĜĜĜĜĜĜĜĜĜĜĜĜĜĜĜ": 651,
      "ĜĜĞĜĝ": 652,
      "&ĝ": 653,
      "ĞĝĚ": 654,
      "ĜĜĝěě": 655,
      "ě\"": 656,
      "Ġěě": 657,
      "ĝěĞ": 658,
      "ĜĜĜĜĜĜĝĜĜĜĜĜĜĜĜĜĜĜĜĜĜĜĜĜĜĜĜĜĜĜĜĜĜĜĜĜĜĜ": 659,
      "!Ė": 660,
      "ĞěĜě": 661,
      "ēĞ": 662,
      "ĜĜď": 663,
      "ĜĜĜĜĜĜĝĜĜĜĜĜĜĜĜĜĜĜĜĜĜĜĜĜĜĜĜĜĜĜĜĜĜĜ": 664,
      "&Ę": 665,
      "ĀĜĜĜĜĜĜĜĜĜĜĜĜĜĜĜĜĜĜĜĜĜĜĜĜĜĜĜĜĜĜĜĜĜĜĜĜĜĜĜĜĜĜĜĜĜĜĜĜĜ": 666,
      "ęĜĝ": 667,
      "Ěė": 668,
      "Ĝěěĝ": 669,
      "ĝĝĞ": 670,
      "#Ė": 671,
      "ĜĜĜĜěĜĜĜĜĜĜĜĜĜĜĜĜĜĜĜĜĜĜĜĜĜĜĜĜĜĜĜĜĜĜĜĜĜĜ": 672,
      "ĜĘĝ": 673,
      "$ė": 674,
      "%Ę": 675,
      "ěěĚ": 676,
      "ĜĞĚ": 677,
      "ąě": 678,
      "Ğ\"": 679,
      "ĝěĜĜĜĝ": 680,
      "ěĝė": 681,
      "ĜĝĜĝĜĝ": 682,
      "ĜĜĜĜĜĜĕĜĜĜĜĜĜĚĜĜĜĜĜĜ": 683,
      "#!": 684,
      "ĜĜĜěĜĜĜĜĜĜĜĜĜĜĜĜĜĜĜĜĜĜĜĜĜĜĜĜĜĜĜĜĜĜĜĜĜĜĜĜĜĜĜ": 685,
      "ĜĜĜĜĜěĜĜĜĜĜĜĜĜĜĜĜĜĜĜĜĜĜĜĜĜĜĜĜĜĜĜĜĜĜĜĜ": 686,
      "%Ĝ": 687,
      "Ġĝě": 688,
      "ĜĜĜē": 689,
      "ĜĜĜĜĜĜěĜĜĜĜĜĜĝ": 690,
      "%ė": 691,
      "ĜĜĖ": 692,
      "ĜĜěĝě": 693,
      "ĜĜĝĜĝě": 694,
      "ĜĚĜĚ": 695,
      "%Ğ": 696,
      "'Ě": 697,
      "Ġ#": 698,
      "ĜĜĝĝĝ": 699,
      "ĜĜĜĜĝĜĜĜĜĜĜĜĜĜĜĜĜĜĜĜĜĜĜĜĜĜĜĜĜĜĜĜĜĜĜĜĜĜ": 700,
      "ĜęĞ": 701,
      "ĜĜĝěĝ": 702,
      "ě!": 703,
      "ĜĜĜĜĜĜĜĜĜĜĜĜĜĜĜĜĜĜĜĜě": 704,
      "ĜĜĜĜĜĜěě": 705,
      "ĜĜĜĜĝĜĜĜĜĜĜĜĜĜĜĜĜĜĜĜĜĜĜĜĜĜĜĜĜĜĜĜ": 706,
      "ĜěěĜĝ": 707,
      "\"ė": 708,
      "ĠĚĝ": 709,
      "ĜĜ!": 710,
      "ĜĜĚĚ": 711,
      "ĜĜĜĚě": 712,
      "'Ę": 713,
      "'ĝ": 714,
      "Ďĝ": 715,
      "\"Ė": 716,
      "Ēğ": 717,
      "ęěě": 718,
      "ĜĜěĜĜĜĜĜĜĜĜĜĜĜĜĜĜĜĜĜĜĜĜĜĜĜĜĜĜĜ": 719,
      "ĜĜĜĜĜĜĜĜĜĜĜĜĜ\"ĜĜĜĜĜĜĜĜĜĜĜĜĜė": 720,
      "ĎĚ": 721,
      "Ĝć": 722,
      "ĜĜěĚ": 723,
      "\"ĜĜĜĜĜĜĜĜĜĜĜĜĜĘĜĜĜĜĜĜ!ĜĜĜĜĜĜĘ": 724,
      "$ĜĜĜĜĜĜĕĜĜĜĜĜĜ\"ĜĜĜĜĜĜĘĜĜĜĜĜĜĞ": 725,
      "&Ğ": 726,
      "ĕė": 727,
      "ĜĐ": 728,
      "Ġĝĝ": 729,
      "ĜĜĜĜĜěĜě": 730,
      "ĜĝěĜĝ": 731,
      "ďĝ": 732,
      "ĜĜĝĚ": 733,
      "$Ė": 734,
      "-ě": 735,
      "ēğ": 736,
      "ĔěĀ": 737,
      "Ęė": 738,
      "ğĝě": 739,
      "ĜĜěĜĜĜĜĜĜě": 740,
      "ěĝĜě": 741,
      "ĞěĞ": 742,
      "ĜĜĜĜĜĜ#ĜĜĜĜĜĜĚĜĜĜĜĜĜĘĜĜĜĜĜĜ!": 743,
      "$ĜĜĜĜĜĜ#ĜĜĜĜĜĜ\"ĜĜĜĜĜĜ": 744,
      "/ě": 745,
      "ĕěĀ": 746,
      "ęĜĚ": 747,
      ",ě": 748,
      "ĠĜğ": 749,
      "ĝěĜĜĜĜĜĜĜĜĜĜĜĜĜĜĜĜĜĜĜĜĜĜĜĜĜĜĜĜĜĜĜĜĜĜĜĜĜĜ": 750,
      "ĜĜĝĞ": 751,
      "ěĝĜĝ": 752,
      "ĜĜĜĝĜĜĜĜĜĜĜĜĜĜĜĜĜĜĜĜĜĜĜĜĜĜĜĜĜĜĜĜĜĜĜĜĜĜ": 753,
      "#ĜĜĜĜĜĜĖĜĜĜĜĜĜ": 754,
      "\"Ā": 755,
      "*Ě": 756,
      "ĚĝĜě": 757,
      "\"ĕ": 758,
      "Ę!": 759,
      "Ġ$": 760,
      "Ġē": 761,
      "ĜĜğě": 762,
      "ĜĜěĜěĝ": 763,
      "ĚĝĞ": 764,
      "\"ĜĜĜĜĜĜĜĜĜĜĜĜĜĘĜĜĜĜĜĜėĜĜĜĜĜĜĘ": 765,
      "ĜĜĜĜĝĜĜĜĜĜĜĜĜĜĜĜĜĜĜĜĜĜĜĜĜĜĜĜĜĜ": 766,
      "ěĜĜĜĜĜ": 767,
      "ěěĜĝ": 768,
      "ĜĜĜĜĜĜěĜĜĜĜĜĜĜĜĜĜĜĜĜĜĜĜĜĜ": 769,
      "%Ā": 770,
      "Ė!": 771,
      "ĘĜě": 772,
      "ĜĜĜĜĜĜĝĝ": 773,
      "ěĚěĀ": 774,
      "%ĜĜĜĜĜĜĜĜĜĜĜĜĜĖĜĜĜĜĜĜĜĜĜĜĜĜĜ!": 775,
      "ęĕ": 776,
      "ĝė": 777,
      "ĠĜĚ": 778,
      "āě": 779,
      "ĖĖ": 780,
      "Ęĝě": 781,
      "ęĜę": 782,
      "ĠĒ": 783,
      "#ĕ": 784,
      "Ĝĝğ": 785,
      "ĜĞěĝ": 786,
      "ĞěĚ": 787,
      "ĞĝĞ": 788,
      "ĜěĜěĜě": 789,
      "Ĝėĝ": 790,
      "ďĚ": 791,
      "Ęěě": 792,
      "ĜĜěĝĝ": 793,
      "ěĝĖ": 794,
      "ĜĜĜĜĜěĜĜĜĜĜĜĜĜĜĜĜĜĜĜĜĜĜĜĜĜĜĜĜĜĜĜĜ": 795,
      "ĜĜĜĜĜĝĜĜĜĜĜĜĜĜĜĜĜĜĜĜĜĜĜĜĜĜĜĜĜĜĜ": 796,
      "Ăě": 797,
      "ğ\"": 798,
      "ĜĜĜĜĜĜĝĜĜĜĜĜĜĜĜĜĜĜĜĜĜĜĜĜĜĜĜ": 799,
      "ĜğĚ": 800,
      "ěĜěĀ": 801,
      "#\"": 802,
      "'ę": 803,
      "Ĕė": 804,
      "ĜĜĜĜĜĜĜĜĜĜĜĜĜĜĜĜĜĜĜĜĜĜĜĜĜĜĜĜĜĜĜĜĜĜĜĜĜĜĜĜĜĜĜĜĜĜĜĜ": 805,
      "ĜĜěĜĜĜĜĜĜĜĜĜĜĜĜĜĜĜĜĜĜĜĜĜĜĜĜĜĜĜĜĜĜĜĜĜĜĜĜĜĜĜĜĜ": 806,
      "ĜĜĜĝĜĜĜĜĜĜĜĜĜĜĜĜĜĜĜĜĜĜĜĜĜĜĜĜĜĜĜ": 807,
      "ĚěĚ": 808,
      "ĚěĞ": 809,
      "ĜĜěěĜĝ": 810,
      "Ćě": 811,
      "Đĝ": 812,
      "ĜĜĜĜĜĜĜĜĜĜĜĜĜĜĜĜĜĜĜĜĜĜ": 813,
      "ěěĜě": 814,
      "$Ā": 815,
      "ăě": 816,
      "ēĘ": 817,
      "ĜĜĜĝĜĜĜĜĜĜĜĜĜĜĜĜĜĜĜĜĜĜĜĜĜĜĜĜĜĜĜĜĜĜĜĜ": 818,
      "ěĀĜĜĜĜĜĜĜĜĜĜĜĜĜĜĜĜĜĜĜĜĜĜĜĜĜĜĜĜĜĜĜĜĜĜĜĜĜĜĜĜĜĜĜĜĜĜĜĜĜ": 819,
      "ĜĘě": 820,
      "(ĝ": 821,
      "đĞ": 822,
      "ĜĜĜĜĝĝĝ": 823,
      "Ĝěğ": 824,
      "ĜěĝĜĝ": 825,
      "ĘĜĚ": 826,
      "ĜĜĜĜěěě": 827,
      "ĜĜĜěĜĜĜĜĜĜĜĜĜĜĜĜĜĜĜĜĜĜĜĜĜĜĜĜĜĜĜĜĜĜĜĜĜ": 828,
      "Ĝĝę": 829,
      "ĜĜĜĜĜĜěĜĜĜĜĜĜĜĜĜĜĜĜĜĜĜĜĜĜĜĜĜĜĜ": 830,
      "ěĞěĀ": 831,
      "ĕĜĜĜĜĜĜĞĜĜĜĜĜĜ": 832,
      "Ĝ%ĜĜĜĜĜĜ": 833,
      "ĞĖ": 834,
      "ĜĜĝĜĜĜĜĜĜĜĜĜĜ": 835,
      "ĝĝĝě": 836,
      "ĜĜĜěěĝ": 837,
      "ěĝĜĜě": 838,
      "ĜēĜĜĜĜĜĜ": 839,
      "ĜĜęě": 840,
      "ĜĜğĝ": 841,
      "ĜĜĝĜĜĜĜĜĜĜĜĜĜĜĜĜĜĜĜĜĜĜĜĜĜĜĜĜĜĜĜĜĜĜĜĜĜĜĜ": 842,
      "ěěěĀ": 843,
      "ĜĜĜĜĝĝě": 844,
      "#ē": 845,
      "ĕ!": 846,
      "ğĖ": 847,
      "ĜĜĜĜěĜĜĜĜĜĜĜĜĜĜĜĜĜĜĜĜĜĜĜĜĜĜĜĜĜĜ": 848,
      "ėĀĜĜĜĜĜĜĜĜĜĜĜĜĜĜĜĜĜĜĜĜĜĜĜĜĜĜĜĜĜĜĜĜĜĜĜĜĜĜĜĜĜĜĜĜĜĜĜĜĜ": 849,
      "\"\"": 850,
      "ėĝě": 851,
      "Ġ5": 852,
      "ĜĜĜĜĜĜĝĜĜĜĜĜĜĜĜĜĜĜĜĜĜĜĜĜĜĜĜĜĜĜ": 853,
      "ĜĜĜĜĜĝĜĜĜĜĜĜĜĜĜĜĜĜĜĜĜĜĜĜĜĜĜĜĜĜĜĜĜĜĜĜĜĜĜĜĜĜĜĜ": 854,
      "ĞĝĜě": 855,
      "!ĜĞ": 856,
      "ēĜ": 857,
      "ĜĜĜĜĝěĝ": 858,
      "ĜĜěĜĝĝ": 859,
      "ĜĜĜěĜĜĜĜĜĜĜĜĜĜĜĜĜĜĜĜĜĜĜĜĜĜĜĜĜĜĜĜĜĜĜĜ": 860,
      "ĞěĜĝ": 861,
      "\"Ĕ": 862,
      "&Ĝ": 863,
      "ĐĚ": 864,
      "ĕĜ": 865,
      "Ėĝě": 866,
      "ĚĜğ": 867,
      "ĜĜĜĜĜĜěĜě": 868,
      "Ā!": 869,
      "ĒĜ": 870,
      "ęĝĝ": 871,
      "ĕĜĜĜĜĜĜĖĜĜĜĜĜĜĘĜĜĜĜĜĜĚ": 872,
      "ĒĘ": 873,
      "ęěĀ": 874,
      "ğĝĝ": 875,
      "ĜĜĜĜĜěĜĜĜĜĜĜĜĜĜĜĜĜĜĜĜĜĜĜĜĜĜĜĜĜĜĜĜĜĜĜĜĜĜ": 876,
      "#Ĕ": 877,
      "ęĜĞ": 878,
      "ĜĜĜěĜĜĜĜĜĜĜĜĜĜĜĜĜĜĜĜĜĜĜĜĜĜĜĜĜĜĜĜĜĜĜĜĜĜ": 879,
      "ĜĜĜĜěĝĝ": 880,
      "ĜĜĜĜĜĝĜĜĜĜĜĜĜĜĜĜĜĜĜĜĜĜĜĜĜĜĜĜĜĜĜĜĜĜĜĜĜĜĜĜ": 881,
      "ĜĀě": 882,
      "ęěĝ": 883,
      "ĚĜė": 884,
      "ĝĝě": 885,
      "ĜĜĜĝĝě": 886,
      "ĚěĜĝ": 887,
      "!ĕ": 888,
      "(Ě": 889,
      "ēė": 890,
      "ĔĜ": 891,
      "ęĜĖ": 892,
      "ĜĜĜĜĜĜěĜĜĜĜĜĜĜĜĜĜĜĜĜĜĜĜĜĜĜĜĜĜĜĜĜĜ": 893,
      "ĜĜĜĜĜěĜĜĜĜĜĜĜĜĜĜĜĜĜĜĜĜĜĜĜĜĜĜĜĜĜĜĜĜĜĜĜĜĜĜĜĜĜĜĜ": 894,
      "ĜĜĝĜĝĜĜĜĜĜĜĜĜĜĜĜĜĜĜĜĜĜĜĜĜĜĜĜĜĜĜĜĜĜĜĜĜ": 895,
      "$ĕ": 896,
      "ęĞě": 897,
      "ĝ#": 898,
      "ĞĜğ": 899,
      "ĜĜĞĚ": 900,
      "ĜĜĜĜěĜĜĜĜĜĜĜĜĜĜĜĜĜĜĜĜĜĜĜĜĜĜĜĜĜĜĜĜĜĜĜ": 901,
      "ĜĜĜĜĜěĜĜĜĜĜĜĜĜĜĜĜĜĜĜĜĜĜĜĜĜĜĜĜĜĜĜĜĜĜĜĜĜĜĜĜĜĜĜ": 902,
      "ĜĜĜĜĜĝĜĝ": 903,
      "ĕĜĜĜĜĜĜ\"ĜĜĜĜĜĜĘĜĜĜĜĜĜĞ": 904,
      "$!": 905,
      "'ė": 906,
      "ĝĖ": 907,
      "ĜĜ#": 908,
      "ĜĜĜĜĜĜĝě": 909,
      "ĜĜĜĜĜĜĝĜĜĜĜĜĜĜĜĜĜĜĜĜĜĜĜĜĜĜĜĜĜĜĜĜĜĜĜĜĜĜĜĜĜ": 910,
      "ĜęĜě": 911,
      "Ĝ%ě": 912,
      "!Ĝĝ": 913,
      "'Ğ": 914,
      "Āğ": 915,
      "ĜĜĜĜĜĜĜĜĜĜĜĜĜĜĝ": 916,
      "ĜĜĜĝĜĜĜĜĜĜĜĜĜĜĜĜĜĜĜĜĜĜĜĜĜĜĜĜĜĜĜĜĜĜĜĜĜ": 917,
      "ĞĝĜĝ": 918,
      "ęĝĚ": 919,
      "ĝěĀĜĞ": 920,
      "ĎĘ": 921,
      "đę": 922,
      "Ēė": 923,
      "Ėĕ": 924,
      "ęĜĜĜĜĜĜĕĜĜĜĜĜĜĚĜĜĜĜĜĜ": 925,
      "ĜĜĜĝĜěě": 926,
      "ĜĜĜĜĜĜěĜĜĜĜĜĜĜĜĜĜĜĜĜĜĜĜĜ": 927,
      "ĞĚĞ": 928,
      "ĜĜěĜěĜĜĜĜĜĜĜĜĜĜĜĜĜĜĜĜĜĜĜĜĜĜĜĜĜĜĜĜĜĜĜĜ": 929,
      "ĜĜĜěěě": 930,
      "ĜĜĜěĜĜĜĜĜĜĜĜĜĜĜĜĜĜĜĜĜĜĜĜĜĜĜĜĜĜĜ": 931,
      "ĜĚĜĜĝ": 932,
      "ĜĜĜĜĜĝĜĜĜĜĜĜĜĜĜĜĜĜĜĜĜĜĜĜĜĜĜĜĜĜĜĜĜĜĜĜĜĜĜ": 933,
      "ĜĝěĜě": 934,
      "ęĀĜĜĜĜĜĜĜĜĜĜĜĜĜĜĜĜĜĜĜĜĜĜĜĜĜĜĜĜĜĜĜĜĜĜĜĜĜĜĜĜĜĜĜĜĜĜĜĜĜ": 935,
      "!ěĀ": 936,
      "\"Ĝĝ": 937,
      "&ė": 938,
      "ěĜė": 939,
      "ěĜ!": 940,
      "ĠĜĜě": 941,
      "ĜĜĜĜĜĜĜĜĜĜĜĜĜĜĜĜĜĜě": 942,
      "ĜĜĜěěĜĝ": 943,
      "ĜĜĜĜěĜĜĜĜĜĜĜĜĜĜĜĜĜĜĜĜĜĜĜĜĜĜĜĜĜĜĜĜĜĜĜĜĜ": 944,
      "ĜĜĜĜĜĜěĜĜĜĜĜĜĜĜĜĜĜĜĜĜĜĜĜĜĜĜĜĜĜĜĜĜĜĜĜĜĜĜĜĜĜĜĜĜ": 945,
      "#ĜĜĜĜĜĜ\"ĜĜĜĜĜĜ": 946,
      "ĖĀĜĜĜĜĜĜĜĜĜĜĜĜĜĜĜĜĜĜĜĜĜĜĜĜĜĜĜĜĜĜĜĜĜĜĜĜĜĜĜĜĜĜĜĜĜĜĜĜĜ": 947,
      "ĝĕ": 948,
      "Ġđ": 949,
      "ĜĜĜĜĝěě": 950,
      "ĜĜĜĞĝ": 951,
      "ĜĜĜĝĜĜĜĜĜĜĜĜĜĜĜĜĜĜĜĜĜĜĜĜĜĜĜĜĜĜĜĜĜĜĜĜĜĜĜĜĜĜĜ": 952,
      "ĜĜĜĝĝĜě": 953,
      "ĜĜĝĝĜě": 954,
      "$Ĕ": 955,
      "ğěĀ": 956,
      "Ěĝę": 957,
      "&ğ": 958,
      "ěĝĜ": 959,
      "ěĝĜĀ": 960,
      "ĜĜĞĜě": 961,
      "(ę": 962,
      "Ĕ!": 963,
      "ĞĜĚ": 964,
      "ĠĚě": 965,
      "ĜĝěĀ": 966,
      "ĜĜĜĜĜĜěĜĜĜĜĜĜĜĜĜĜĜĜĜĜĜĜĜĜĜĜĜĜĜĜĜĜĜĜĜĜĜĜĜĜĜĜĜĜĜ": 967,
      "ĕĜĜĜĜĜĜĚĜĜĜĜĜĜ": 968,
      "%ĕ": 969,
      "đğ": 970,
      "ēěĀ": 971,
      "ė\"": 972,
      "ėĕ": 973,
      "Ĝ*": 974,
      "Ġ4": 975,
      "ĜĜĝĜěě": 976,
      "ĜĜĜĜĜĜĝĜĜĜĜĜĜĜĜĜĜĜĜĜĜĜĜĜĜĜĜĜĜĜĜĜĜĜĜĜĜĜĜĜĜĜĜĜĜ": 977,
      "ĜĜĜĜĜĝĜě": 978,
      "ĜĜĚĜě": 979,
      "%ğ": 980,
      "Ēę": 981,
      "ĜĜĝĜĜĜĜĜĜĜĜĜĜĜĜĜĜĜĜĜĜĜĜĜĜĜĜĜĜĜ": 982,
      "ĜĜĜĚĝ": 983,
      "ĜĜĜĜĜĜěĜĜĜĜĜĜĜĜĜĜĜĜĜĜĜĜ": 984,
      "Ĝĝĝĝě": 985,
      "ē!": 986,
      "ėĜĚ": 987,
      "Ęĕ": 988,
      "ęĜĘ": 989,
      "ĜĜěĞ": 990,
      "ĜĜĜĜĜĜĝĜĝ": 991,
      "ĘĀĜĜĜĜĜĜĜĜĜĜĜĜĜĜĜĜĜĜĜĜĜĜĜĜĜĜĜĜĜĜĜĜĜĜĜĜĜĜĜĜĜĜĜĜĜĜĜĜĜ": 992,
      "ĐĞ": 993,
      "ğĜĚ": 994,
      "ĜğĞ": 995,
      "!\"": 996,
      "##": 997,
      ".Ě": 998,
      "ęĜė": 999,
      "ĜĜĜěĜěĝ": 1000,
      "ĜĞĝĝ": 1001,
      "ĜĜĜĜĜěĜĝ": 1002,
      "ĕĖ": 1003,
      "ĘĖ": 1004,
      "ĘĜę": 1005,
      "ęĜĜĜĜĜĜ#ĜĜĜĜĜĜĚĜĜĜĜĜĜĘĜĜĜĜĜĜ!": 1006,
      "ğĚĝ": 1007,
      "ĠĝĞ": 1008,
      "ĜĜĕ": 1009,
      "ĜĜĝĜĜĜĜĜĜĜĜĜĜĜĜĜĜĜĜĜĜĜĜĜĜĜĜĜĜĜĜĜĜ": 1010,
      "ĜĜĜĝĜĝě": 1011,
      "ĜĜĜĜěĝě": 1012,
      "ĜĜĜĜĝĜĜĜĜĜĜĜĜĜĜĜĜĜĜĜĜĜĜĜĜĜĜĜĜĜĜ": 1013,
      "ĚěĜĜě": 1014,
      "ęěĚ": 1015,
      "ćĝ": 1016,
      "ēĝě": 1017,
      "ėĖ": 1018,
      "ĠĝĚ": 1019,
      "ĜĜĝĜěĜě": 1020,
      "ĜĜĜĜĜĜĝĜĜĜĜĜĜĜĜĜĜĜĜĜĜĜĜĜĜĜĜĜĜĜĜĜĜĜĜĜĜĜĜĜĜĜĜĜĜĜ": 1021,
      "ĜĜĜĜĜĜĝĜĜĜĜĜĜĜĜĜĜĜĜĜĜĜĜĜĜĜĜĜĜĜĜĜĜ": 1022,
      "ĜĘĜĜĜĜĜĜ": 1023,
      "'Ĝ": 1024,
      ")Ě": 1025,
      ")ĝ": 1026,
      "ĜĜĔ": 1027,
      "ĜĜĝĜĜĜĜĜĜĜĜĜĜĜĜĜĜĜĜĜĜĜĜĜĜĜĜĜĜĜĜĜĜĜĜĜĜĜĜĜ": 1028,
      "ĜĜĜĝěĜĝ": 1029,
      "ĜĜĜĜĜěĜĜĜĜĜĜĜĜĜĜĜĜĜĜĜĜĜĜĜĜĜĜĜĜĜĜ": 1030,
      "ĜĜĜĜĜĝĜĜĜĜĜĜĜĜĜĜĜĜĜĜĜĜĜĜĜĜĜĜĜĜĜĜĜĜĜĜĜĜĜĜĜĜĜ": 1031,
      "ĚĝĜĝ": 1032,
      "Đė": 1033,
      "đĜ": 1034,
      "ęĖ": 1035,
      "ĜĜĜĜĜĜĜĜĜĜĜĜĜĜĜě": 1036,
      "ĝěĜĜě": 1037,
      "ĜĜĝĜĜĜĜĜĜĜĜĜĜĜĜĜĜĜĜĜĜĜĜĜĜĜĜĜĜĜĜĜĜĜĜĜ": 1038,
      "ĜĜĜĜĜĝĜĜĜĜĜĜĜĜĜĜĜĜĜĜĜĜĜĜĜĜĜĜĜĜĜĜĜ": 1039,
      "ĐĜ": 1040,
      "ěĜĖ": 1041,
      "ĠĞě": 1042,
      "ĜĜĜĞě": 1043,
      "ĜğĜĝ": 1044,
      "ĜěĝĚ": 1045,
      "ĜĜěěĜĜě": 1046,
      "ĜĜĜĜěĜěĜĜĜĜĜĜĜĜĜĜĜĜĜĜĜĜĜĜĜĜĜĜĜĜĜĜĜĜĜĜ": 1047,
      "ĜĜĜĜĝěĜĜĜĜĜĜĜĜĜĜĜĜĜĜĜĜĜĜĜĜĜĜĜĜĜĜĜĜĜĜĜ": 1048,
      "ĜĜĜĜĜĝěĜĜĜĜĜĜĜĜĜĜĜĜĜĜĜĜĜĜĜĜĜĜĜĜĜĜĜĜĜĜĜ": 1049,
      "ĀĚ": 1050,
      "ě$": 1051,
      "ĝ$": 1052,
      "ĝĜ!": 1053,
      "Ğĕ": 1054,
      "ğĕ": 1055,
      "Ġ&": 1056,
      "ĜĜĜĜĜĜ#": 1057,
      "ĜĜĜğ": 1058,
      "ĜĞĜĜě": 1059,
      "ĜĜĜĜĝĜĜĜĜĜĜĜĜĜĜĜĜĜĜĜĜĜĜĜĜĜĜĜĜĜĜĜĜĜĜĜĜĜĜĜĜĜĜ": 1060,
      "ĜĜĜĜĜĜĝĜĜĜĜĜĜĜĜĜĜĜĜĜĜĜĜĜĜĜĜĜĜĜĜĜĜĜĜĜĜĜĜĜ": 1061,
      "ĚĝĘ": 1062,
      "\"ē": 1063,
      "(ė": 1064,
      "(Ę": 1065,
      "+ę": 1066,
      ",Ě": 1067,
      "ė!": 1068,
      "ėĜě": 1069,
      "ğĔ": 1070,
      "ĜĜĜĜĜĜĜĜĜĜĜĜĜĜĜĜĜĝ": 1071,
      "ĝěěě": 1072,
      "ĜĜĜěĜĝĝ": 1073,
      "ĜĜĜĝĝĝ": 1074,
      "ĜĜĜĜĜĝĜĜĜĜĜĜĜĜĜĜĜĜĜĜĜĜĜĜĜĜĜĜĜĜ": 1075,
      "ĚĚĞ": 1076,
      "(ĕ": 1077,
      "*Ę": 1078,
      "ĚĖ": 1079,
      "ě#": 1080,
      "Ġ%": 1081,
      "ĜĜĜĜĜĜĜĜĜĜĜĜĜĜĜĝ": 1082,
      "ĜĜĝĜĜĜĜĜĜĜĜĜĜĜĜĜĜĜĜĜĜĜĜĜĜĜĜĜĜĜĜĜĜĜĜĜĜĜĜĜĜĜĜĜ": 1083,
      "ĜĜĜď": 1084,
      "ĜĜĜĜěĜĜĜĜĜĜĜĜĜĜĜĜĜĜĜĜĜĜĜĜĜĜĜĜĜĜĜĜĜĜĜĜĜĜĜĜĜĜ": 1085,
      "ĜĜĜĜĜĜĝĜĜĜĜĜĜĜĜĜĜĜĜĜĜĜĜĜĜ": 1086,
      "ĜęĚ": 1087,
      "ĜĝĝĜĝ": 1088,
      "ĜĜĝěĜĝ": 1089,
      "'Ā": 1090,
      "00": 1091,
      "ďĀ": 1092,
      "Ē!": 1093,
      "ĜĜĜĜĜĝĜĜĜĜĜĜĜĜĜĜĜĜĜĜĜĜĜĜĜĜĜĜĜĜĜĜ": 1094,
      "%Ė": 1095,
      "-/": 1096,
      "./": 1097,
      "ĕĕ": 1098,
      "ĘĞě": 1099,
      "Ğ#": 1100,
      "ğ#": 1101,
      "Ġğě": 1102,
      "ĜĜ&": 1103,
      "ĜĝĘ": 1104,
      "ĜĜĝĜĚ": 1105,
      "ĜĜĜĝĜĜĜĜĜĜĜĜĜĜĜĜĜĜĜĜĜĜĜĜĜĜĜĜĜĜĜĜĜĜ": 1106,
      "ĚěĜě": 1107,
      "ĜĜĚĜĝ": 1108,
      "ĘĜĜĜĜĜĜ!": 1109,
      "\"#": 1110,
      "Ė#": 1111,
      "Ġęě": 1112,
      "ĜĜĜĜĜĜĜĜĜĜĜĜĜĜĜĜě": 1113,
      "ěěĜĜě": 1114,
      "ĝĝĜĜĝ": 1115,
      "ĝĜĝĜě": 1116,
      "ěęěĀ": 1117,
      "ĕĀĜĜĜĜĜĜĜĜĜĜĜĜĜĜĜĜĜĜĜĜĜĜĜĜĜĜĜĜĜĜĜĜĜĜĜĜĜĜĜĜĜĜĜĜĜĜĜĜĜ": 1118,
      "ĜĜĜĜĜĜĜĜĜĜĜĝĜĜĜĜĜĜĜĜĜĜĜĜĜĜĜĜĜĜĜĜĜĜĜĜĜĜĜĜĜĜĜĜ": 1119,
      "\"ĜĞ": 1120,
      "(Ā": 1121,
      "ĐĀ": 1122,
      "ğĜğ": 1123,
      "Ġęĝ": 1124,
      "ĜĜęĝ": 1125,
      "ĜĜĜĝěě": 1126,
      "ĜĜĜĜĜĝĜĜĜĜĜĜĜĜĜĜĜĜĜĜĜĜĜĜĜĜĜĜĜĜĜĜĜĜĜĜĜĜĜĜĜĜĜĜĜ": 1127,
      "ĞĚĀ": 1128,
      "#ĜĜĜĜĜĜĞĜĜĜĜĜĜĘĜĜĜĜĜĜė": 1129,
      "ĜĜěĜĜĜĖĜĜĜĜĜĜĜĜĜĜĜĜĜ": 1130,
      "*ę": 1131,
      "*ĝ": 1132,
      ",/": 1133,
      "Ĉĝ": 1134,
      "ĒěĀ": 1135,
      "ĔĖ": 1136,
      "ĚĜĖ": 1137,
      "ĜĝĜĚ": 1138,
      "ĜĜĜĜĜĜĕ": 1139,
      "ĜĜĝĜĜĜĜĜĜĜĜĜĜĜĜĜĜĜĜĜĜĜĜĜĜĜĜĜĜĜĜĜĜĜ": 1140,
      "ĜĜĜĜĜěĜĜĜĜĜĜĜĜĜĜĜĜĜĜĜĜĜĜĜĜĜĜĜĜĜĜĜĜĜĜĜĜĜĜ": 1141,
      "ĠěĞ": 1142,
      "Ĝ\"ě": 1143,
      "Ďę": 1144,
      "ĜĜĜĜĜĜĜĜĜĜĜĜĜĜĜĜĜě": 1145,
      "ĜĜěĜĚ": 1146,
      "ĜĜĜěĝĝ": 1147,
      "ĜĚĀ": 1148,
      "ĜĜĜĜĜěĜĜĜĜĜĜĜĜĜĜĜĜĜĜĜĜĜĜĜĜĜĜĜĜ": 1149,
      "ğěĞ": 1150,
      "Ĝēě": 1151,
      "Ĕ#": 1152,
      "ĝĜĝĜĝ": 1153,
      "ĜĜĜĜĜĜĜĜĜĜĜĜĜĜĜĜĜĜĝ": 1154,
      "ĜĜěĜĜĜĜĜĜĜĜĜĜĜĜĜĜĜĜĜĜĜĜĜĜĜĜĜĜĜĜĜĜĜĜĜĜĜĜĜĜĜĜĜĜĜ": 1155,
      "ĜĜĜĘ": 1156,
      "ĜĜĜĝěĜě": 1157,
      "ěĚĞ": 1158,
      "Ĝėě": 1159,
      ")Ę": 1160,
      "ďę": 1161,
      "ďĜ": 1162,
      "Đğ": 1163,
      "ę#": 1164,
      "ĚĞě": 1165,
      "ĜĜěĜĜĜĜĜĜĜĜĜĜĜĜĜĜĜĜĜĜĜĜĜĜĜĜĜĜĜĜĜĜ": 1166,
      "ĜĜĝĜĞ": 1167,
      "ěěĜĜĜĜ": 1168,
      "ĜĜĜĞĜĝ": 1169,
      "ĜĜĜĜĝĜĜĜĜĜĜĜĜĜĜĜĜĜĜĜĜĜĜĜĜĜĜĜĜĜĜĜĜĜĜĜ": 1170,
      "ğĝĞ": 1171,
      "#ĜĜĜĜĜĜĚĜĜĜĜĜĜĘĜĜĜĜĜĜ!": 1172,
      "ĜĜĜĜĝĜĝĜĜĜĜĜĜĜĜĜĜĜĜĜĜĜĜĜĜĜĜĜĜĜĜĜĜĜĜĜĜ": 1173,
      "!Ĕ": 1174,
      "(Ğ": 1175,
      "ĖĜě": 1176,
      "Ę#": 1177,
      "ęĜğ": 1178,
      "ĜĝĜěě": 1179,
      "ĜĜĜĝěĝ": 1180,
      "ĜĜĜĜĜĜěĜĜĜĜĜĜĜĜĜĜĜĜĜĜĜĜĜĜĜĜ": 1181,
      "ęěĞ": 1182,
      "ĜĖĜĜĜĜĜĜĜĜĜĜĜĜĜ": 1183,
      "!ěĝ": 1184,
      "%Ĕ": 1185,
      "'Ė": 1186,
      "'ğ": 1187,
      "*Ė": 1188,
      ".ĝ": 1189,
      "ēĜĜĜĜĜĜĜĜĜĜĜĜĜ\"ĜĜĜĜĜĜĜĜĜĜĜĜĜė": 1190,
      "ĠĜę": 1191,
      "Ĝĝė": 1192,
      "ĝěğ": 1193,
      "ěěěĝ": 1194,
      "ĜĜĜ)": 1195,
      "ĜĜĜěĝě": 1196,
      "ěĝĚĀ": 1197,
      "ĜĜĜĜěĜĜĜě": 1198,
      "ĜĜĜĜĜĜěĜĝ": 1199,
      "Ĝ\"ĜĜĜĜĜĜĜĜĜĜĜĜĜ": 1200,
      "ĜĜĜĜĜĜĜĝĜĜĜĜĜĜĜĜĜĜĜĜĜĜĜĜĜĜĜĜĜĜĜĜĜĜĜĜĜĜĜĜ": 1201,
      "ĜĜĜĜĜĜĜĝĜĜĜĜĜĜĜĜĜĜĜĜĜĜĜĜĜĜĜĜĜĜĜĜ": 1202,
      "ĜĜĜĜĜĜĜĜĜĜĜĜĜěĜĜĜĜĜĜĜĜĜĜĜĜĜĜĜĜĜĜ": 1203,
      "&Ā": 1204,
      "'ĕ": 1205,
      "ĎĜ": 1206,
      "ĎĞ": 1207,
      "ďĞ": 1208,
      "ĕ#": 1209,
      "Ęěĝ": 1210,
      "ĜĜĒ": 1211,
      "ĜĜěĜĜĜĜĜĜĜĜĜĜĜĜĜĜĜĜĜĜĜĜĜĜĜĜĜĜĜĜĜĜĜĜĜĜĜĜĜ": 1212,
      "ĜĜĝĜĜĜĜĜĜĜĜĜĜĜĜĜĜĜĜĜĜĜĜĜĜĜĜĜĜĜĜĜĜĜĜĜĜĜĜĜĜĜĜĜĜĜ": 1213,
      "ĜĜĜĜĜĜěĜĜĜ": 1214,
      "ĚĝĀ": 1215,
      "Ĝĕě": 1216,
      "ĜĜĜĜěĜěĜĜĜĜĜĜĜĜĜĜĜĜĜĜĜĜĜĜĜĜĜĜĜĜĜĜĜĜĜĜĜĜĜĜĜĜĜ": 1217,
      "ĜĜĝĜĜĜĝĜĜĜĜĜĜĜĜĜĜĜĜĜĜĜĜĜĜĜĜĜĜĜĜĜĜĜĜĜĜ": 1218,
      "!#": 1219,
      "&Ė": 1220,
      "'Ĕ": 1221,
      "Ąĝ": 1222,
      "Đę": 1223,
      "ēĜĜěĜĜĜ": 1224,
      "Ğ$": 1225,
      "ĜĜĜĜĜĜĜĜĜĜĜĜĜĜĜĜĝ": 1226,
      "ĝĝę": 1227,
      "ĜĞğ": 1228,
      "ĜĜĜĜĜĜěĜĜĜĜĜĜĜĜĜĜĜĜĜĜĜĜĜĜĜĜĜĜĜĜĜĜĜĜĜĜĜĜĜĜ": 1229,
      "ĜĜĜĜĜĜěĜĜĜĜĜĜĜĜĜĜĜĜĜĜĜĜĜĜĜĜĜĜĜĜĜĜĜĜĜĜĜĜĜ": 1230,
      "Ěěğ": 1231,
      "ĜĖĝ": 1232,
      "ĜĜěĝĜĜ": 1233,
      "ĜĜĝĜěĜĝ": 1234,
      "*Ā": 1235,
      "Ďė": 1236,
      "ė#": 1237,
      "Ěĕ": 1238,
      "ğ$": 1239,
      "ĜěĜĚ": 1240,
      "ĜĞĝě": 1241,
      "ĜĞěě": 1242,
      "ĜĜĜĜěĜĜĜĜĜĜĜĜĜĜĜĜĜĜĜĜĜĜĜĜĜĜĜĜĜĜĜĜĜĜĜĜĜĜĜĜĜĜĜĜĜĜĜĜ": 1243,
      "ĜĜĜĜĜěĜĜĜĜĜĜĜĜĜĜĜĜĜĜĜĜĜĜĜĜĜĜĜĜĜĜĜĜĜĜĜĜĜĜĜĜĜ": 1244,
      "ğĝĚ": 1245,
      "ĝĚĀ": 1246,
      "ěĜěĜĝ": 1247,
      "ĜĜěěĜĜĜĜĜĜĜĜĜĜĜĜĜĜĜĜĜĜĜĜĜĜĜĜĜĜĜĜĜĜĜĜĜ": 1248,
      "ĜĜĜĜĝĜĝĜĜĜĜĜĜĜĜĜĜĜĜĜĜĜĜĜĜĜĜĜĜĜĜĜĜĜĜĜĜĜĜĜĜĜĜĜ": 1249,
      "ĜĜĜĜĜĜĜĜĜĜĜĜĜĝĜĜĜĜĜĜĜĜĜĜĜĜĜĜĜĜĜĜ": 1250,
      "ĜĜĜĜĜĜĜĜĜěĜĜĜ": 1251,
      "ĜĜĜĜĜĜĜĜĜĜĜěĜĜĜĜĜĜĜĜĜĜĜĜĜĜĜĜĜĜĜĜĜĜĜĜĜ": 1252,
      ")ė": 1253,
      "ę\"": 1254,
      "ĠĞĚ": 1255,
      "Ĝěĝĝ": 1256,
      "ĜĜěĜĝĜě": 1257,
      "ĜĜěĝĜě": 1258,
      "ĜĜĝĜěĝ": 1259,
      "ěĝĘĀ": 1260,
      "ĜĜĜĜĜĜĝĜě": 1261,
      "ğěĚ": 1262,
      "ĝěĀĜĝ": 1263,
      "ĜĜĜĜĝĜěĜĜĜĜĜĜĜĜĜĜĜĜĜĜĜĜĜĜĜĜĜĜĜĜĜĜĜĜĜĜĜ": 1264,
      "ēĜĜĜĜĜĜĔĜĜĜĜĜĜĕĜĜĜĜĜĜĖĜĜĜĜĜĜĘĜĜĜĜĜĜĚ": 1265,
      "ēĜĜĜĜĜĜğĜĜĜĜĜĜ#ĜĜĜĜĜĜĞĜĜĜĜĜĜĘĜĜĜĜĜĜė": 1266,
      "!$": 1267,
      "&ĕ": 1268,
      "20": 1269,
      "ćĞ": 1270,
      "ĠĞĝ": 1271,
      "ĜĜĜĜĜĜĜĜĜĜĜĜĜĜĜĜĜĜĜĝ": 1272,
      "ĜĜĝĜĜĜĜĜĜĜĜĜĜĜĜĜĜĜĜĜĜĜĜĜĜĜĜ": 1273,
      "ĜĜĝĜĜĝĝ": 1274,
      "ĜĜĜĝĜĝĝ": 1275,
      "ĜĜĜĜĜĘ": 1276,
      "ěĝğ": 1277,
      "ěĀĝ": 1278,
      "ĝěĀĜĜĜĜĜĜĜĜĜĜĜĜĜĜĜĜĜĜĜĜĜĜĜĜĜĜĜĜĜĜĜĜĜĜĜĜĜĜĜĜĜĜĜĜĜĜĜĜĜ": 1279,
      "ĜĜĜĜĜĜĜĜĜĝĜĜĜĜĜĜĜĜĜĜĜĜĜĜĜĜĜĜĜĜĜĜĜĜĜĜĜ": 1280,
      "%ĜĜěĜĜĜ": 1281,
      "(Ĝ": 1282,
      ")Ĝ": 1283,
      "*ė": 1284,
      "-Ě": 1285,
      "Ďğ": 1286,
      "ĘĜĕ": 1287,
      "ě%": 1288,
      "Ġ6": 1289,
      "ĠĜĝě": 1290,
      "ĜĜĜĜĜĜĜĜĜĜĜĜĜĜĜĜĜĜĜě": 1291,
      "ĜěĖ": 1292,
      "ĜěĘ": 1293,
      "ěěĝě": 1294,
      "ĝěĀĜğ": 1295,
      "ĜĝĜěĜĝ": 1296,
      "ĜĜĜĜĜĜĜĝĜĜĜĜĜĜĜĜĜĜĜĜĜĜĜĜĜĜĜĜĜĜĜĜĜĜĜĜĜĜĜ": 1297,
      "ĜĜĜĜĝĜĝĜĜĜĜĜĜĜĜĜĜĜĜĜĜĜĜĜĜĜĜĜĜĜĜĜĜĜĜĜĜĜĜ": 1298,
      "ĜĜĜ%ĜĜĜĜĜĜĜĜĜĜĜĜĜĖĜĜĜĜĜĜĜĜĜĜĜĜĜ!": 1299,
      ")ę": 1300,
      "*Ğ": 1301,
      ".ę": 1302,
      "ďĜĜĜĜĜĜĖĜĜĜĜĜĜĜĜĜĜĜĜĜ": 1303,
      "đěĀ": 1304,
      "Ĕĕ": 1305,
      "Ĕĝě": 1306,
      "ĘĜĝ": 1307,
      "ĚĜĕ": 1308,
      "ĜĜěĝĜĝ": 1309,
      "ĝĝĜĜĜĜ": 1310,
      "ĝĝĜĜĜĜĜĜĜĜĜĜĜĜĜĜĜĜĜĜĜĜĜĜĜĜĜĜĜĜĜĜĜĜĜĜĜĜĜ": 1311,
      "ĜĜĜěĜěě": 1312,
      "ĜĜĜěĜĝě": 1313,
      "ĜĜĜĜĜĜĜĜĜĜĜĜĜĜĜĜĜĜĜĜĜĜĜĜĜĜĜĜĜĜĜĜĜĜĜĜĜĜĜĜĜĜĜĜĜĜĜ": 1314,
      "ĜĜĞĜĝĜĝ": 1315,
      "ĜĜĞĜĜĜĜĜĜĜĜĜĜĜĜĜĜĜĜĜĜĜĜĜĜĜĜĜĜĜĜĜĜĜĜĜĜĜĜĜĜĜĜĜĜĜĜĜĜ": 1316,
      "ĜĜĜĜĜĜĜěĜĜĜĜĜĜĜĜĜĜĜĜĜĜĜĜĜĜĜĜĜĜĜĜ": 1317,
      "!ē": 1318,
      "+Ě": 1319,
      "ĕ\"": 1320,
      "Ę\"": 1321,
      "ĠĞĞ": 1322,
      "ĜĜěĜĝě": 1323,
      "ĜĜěĜĝĜĝ": 1324,
      "ěěę": 1325,
      "ĜĞĜĚ": 1326,
      "ĜĜĜĜĜĜěĜĜĜĜĜĜĜĜĜĜĜĜĜ": 1327,
      "ĞĚĚ": 1328,
      "ěĞę": 1329,
      "Ě\"": 1330,
      "Ġ(": 1331,
      "ĜĜĜĜĚĜě": 1332,
      "ĜĜĜĜĜĜ\"ĜĜĜĜĜĜĜĜĜĜĜĜĜĘĜĜĜĜĜĜėĜĜĜĜĜĜĘ": 1333,
      "ĜĜěĜĜĝĝ": 1334,
      "ĜĜěĜĜĜĜĜĜĜĜĜĜĜĜĜĜĜĜĜĜĜĜĜĜĜĜĜĜĜĜĜĜĜĜĜĜĜĜ": 1335,
      "ĜĜĜĝĜĜĜĜĜĜĜĜ": 1336,
      "ĜĜĜĝĜĜĜĜĜĜĜĜĜĜĜĜĜĜĜĜĜĜĜĜĜĜĜĜĜĜĜĜĜĜĜĜĜĜĜĜĜĜĜĜ": 1337,
      "ĜĞĜĞ": 1338,
      "ěĝĕ": 1339,
      "ĜĜĜĜĜĜĝĜĜĜĜĜĜĜĜĜĜĜĜĜĜĜĜĜ": 1340,
      "ĜěěĜě": 1341,
      "ĜĀĝ": 1342,
      "ĜĜěĜěĝě": 1343,
      "ĜĜĜĜĜĜĜĜĜĜĜĜĜĝĜĜĜĜĜĜĜĜĜĜĜĜĜĜĜĜĜĜĜĜ": 1344,
      "!Ĝğ": 1345,
      "*Ĝ": 1346,
      ",Ę": 1347,
      "Ė\"": 1348,
      "ğ%": 1349,
      "Ġ1": 1350,
      "ĜĜěĜĜĝě": 1351,
      "ĜĜĝĜĝĝ": 1352,
      "ĜĜĜĝĝĜĝ": 1353,
      "ĜĜĜĜěĜĜĜĜĜĜĜĜĝ": 1354,
      "ěĀĜĝ": 1355,
      "Ěěĝĝ": 1356,
      "ęĝĞ": 1357,
      "ĜĀĜĝ": 1358,
      "ĜĜĞěě": 1359,
      "ĜĜĝĝĝě": 1360,
      "ğĚĀ": 1361,
      "ĝěěĜĝ": 1362,
      "ĜĜĜĜĜĜĜĜĜĝĜĜĜĜĜĜĜĜĜĜĜĜĜĜĜĜĜĜĜĜ": 1363,
      "ĜĜ%ĜĜĜĜĜĜ": 1364,
      ",ĝ": 1365,
      "đĘ": 1366,
      "Ē\"": 1367,
      "ğ&": 1368,
      "ğē": 1369,
      "ĠĚĞ": 1370,
      "ĜĜěĜĜĜĜĜĜĜĜĜĜĜĜĜĜĜĜĜĜĜĜĜĜĜĜĜĜĜĜĜĜĜ": 1371,
      "ěěĖ": 1372,
      "ĜĜĜĚĚ": 1373,
      "ĜěĝĜĜĜĝ": 1374,
      "ĜěěĚ": 1375,
      "ęĝĜĝ": 1376,
      "Ĝ!ě": 1377,
      "ĘĀĝ": 1378,
      "ĜĜĝĜĝěĝ": 1379,
      "ĜĜĝĜěĜĜĜĜĜĜĜĜĜĜĜĜĜĜĜĜĜĜĜĜĜĜĜĜĜĜĜĜĜĜĜĜĜĜĜĜĜĜĜĜĜĜĜĜ": 1380,
      "ĜĜēĜĜĜĜĜĜ": 1381,
      "ĔĀĜĜĜĜĜĜĜĜĜĜĜĜĜĜĜĜĜĜĜĜĜĜĜĜĜĜĜĜĜĜĜĜĜĜĜĜĜĜĜĜĜĜĜĜĜĜĜĜĜ": 1382,
      "ďğ": 1383,
      "ĐĘ": 1384,
      "ē\"": 1385,
      "ĘĝĚ": 1386,
      "Ě#": 1387,
      "Ĝěĝě": 1388,
      "Ěěę": 1389,
      "Ěĝė": 1390,
      "ĜęĀ": 1391,
      "ĜĀĜĜĜĜĜĜĜĜĜĜĜĜĜĜĜĜĜĜĜĜĜĜĜĜĜĜĜĜĜĜĜĜĜĜĜĜĜĜĜĜĜĜĜĜĜĜĜĜĜ": 1392,
      "ĜĜĞěĝ": 1393,
      "ĜĜĚěě": 1394,
      "ĜĖě": 1395,
      "ĜēĜĜěĜĜĜ": 1396,
      "ĜĜĜěěĜĜĜĜĜĜĜĜĜĜĜĜĜĜĜĜĜĜĜĜĜĜĜĜĜĜĜĜĜĜĜĜ": 1397,
      "ĔĝĜĜĜĜĜ": 1398,
      "(Ė": 1399,
      "*ĕ": 1400,
      "10": 1401,
      "ĄĚ": 1402,
      "Đ!": 1403,
      "đė": 1404,
      "ĘĜĘ": 1405,
      "ĠĂ": 1406,
      "ĜĜ%ě": 1407,
      "ĜĜĜ\"": 1408,
      "ĜĜĜĚĜě": 1409,
      "ĜĜĜěĜĜĜě": 1410,
      "ĜĜĜěĝĜĝ": 1411,
      "ĜĜĜĜĜĝĜĜĜĜĜĜĜĜĜĜĜĜĜĜĜĜĜĜĜĜĜĜĜĜĜĜĜĜĜĜ": 1412,
      "Ěěĝě": 1413,
      "Ĝęĝě": 1414,
      "Ğĝę": 1415,
      "ěĞĘ": 1416,
      "ĝěĀě": 1417,
      "ĜĜĜ%ĜĜĜĜĜĜ": 1418,
      "+ĝ": 1419,
      "//": 1420,
      "ćĚ": 1421,
      "ĖĜĚ": 1422,
      "ĝ%": 1423,
      "Ġ'": 1424,
      "Ġ)": 1425,
      "ĠĐ": 1426,
      "ĠĜĜěĜĜĜ": 1427,
      "ĜĜĜĜĞĜĝ": 1428,
      "ĜĜěĜĜĜĜĜĜĜĜĜĜ": 1429,
      "ĝĝğ": 1430,
      "ĝĝĜĚ": 1431,
      "ĜĜĜěěěĝ": 1432,
      "ĜĜĜĜĜĜěĜĜĜĜĜĜĜĜĜĜĜ": 1433,
      "ĜęĜĚ": 1434,
      "ĜĝĝĞ": 1435,
      "ĜĝěĜĜĝ": 1436,
      "ğĝĜě": 1437,
      "ĞĞĜě": 1438,
      "Ĝ%ĜĜĜĜĜĜĜĜĜĜĜĜĜĖĜĜĜĜĜĜĜĜĜĜĜĜĜ!": 1439,
      "ĜĜĜĜĜĜĜěĜĜĜĜĜĜĜĜĜĜĜĜĜĜĜĜĜĜĜĜĜĜĜĜĜĜĜĜĜĜĜ": 1440,
      "ĘĜĜĜĜĜĜė": 1441,
      "*ē": 1442,
      ",ę": 1443,
      "-.": 1444,
      "đ!": 1445,
      "Ĕ\"": 1446,
      "ĘĜė": 1447,
      "Ě$": 1448,
      "Ĝ+": 1449,
      "Ğ%": 1450,
      "ğĒ": 1451,
      "ĜĜěĜĜ": 1452,
      "ĜĜĜĜěĜĜĜĜĜĜĜĜ": 1453,
      "ĜĘĞ": 1454,
      "ĜĜğĜĝ": 1455,
      "ĜĜĜĜĜĜĜĜěĜĜĜĜĜĜĜĜĜĜĜĜĜĜĜĜĜĜĜĜĜĜĜĜĜĜĜĜĜĜ": 1456,
      "ĜĜĜĜĜĜĜĜěĜĜĜĜĜĜĜĜĜĜĜĜĜĜĜĜĜĜĜĜĜĜĜ": 1457,
      "ĜĜĜĜĜěĝĜĜĜĜĜĜĜĜĜĜĜĜĜĜĜĜĜĜĜĜĜĜĜĜĜĜĜĜĜĜĜ": 1458,
      "&Ē": 1459,
      ",Ē": 1460,
      "/ę": 1461,
      "ăĚ": 1462,
      "ćę": 1463,
      "ĕĔ": 1464,
      "ĕĝě": 1465,
      "ĠĜĜĚ": 1466,
      "ěěė": 1467,
      "ěěĘ": 1468,
      "ĜĜĜěěĜě": 1469,
      "ĜĞĜĝě": 1470,
      "ĜĜĜĜĝĜĜĜĜĜĜĜĜĜĜĜĜĜĜĜĜĜĜĜĜĜĜĜĜĜĜĜĜĜĜĜĜĜĜĜĜĜĜĜĜĜĜĜĜ": 1471,
      "Ğĝğ": 1472,
      "ĚĚĀ": 1473,
      "ĜĝĜĝĜĜĜĜĜĜĜĜĜĜĜĜĜĜĜĜĜĜĜĜĜĜĜĜĜĜĜĜĜĜĜĜĜĜĜĜĜĜĜ": 1474,
      "ěĞğ": 1475,
      "Ĝēĝ": 1476,
      "Ĝ!ĝ": 1477,
      "ĜĜĝĜĝĜĜĜĜĜĜĜĜĜĜĜĜĜĜĜĜĜĜĜĜĜĜĜĜĜĜĜĜĜĜĜĜĜĜĜĜĜĜĜ": 1478,
      "ĜĜĜĜĜĜĜĜĜĜĝĜĜĜĜĜĜĜĜĜĜĜĜĜĜĜĜĜĜĜĜĜĜĜĜĜĜĜĜĜĜĜĜ": 1479,
      "!ĝě": 1480,
      "&!": 1481,
      "(!": 1482,
      "đ\"": 1483,
      "ē#": 1484,
      "ĘĜĞ": 1485,
      "ĠĜĝĝ": 1486,
      "ĜĜĝĜĜĜĜĜĜĜĜĜĜĜĜĜĜĜĜĜĜĜĜĜĜĜĜĜĜĜĜĜĜĜĜĜĜĜĜĜĜĜĜ": 1487,
      "ěěğ": 1488,
      "ĜĜĜĝĜĜĜĝ": 1489,
      "ĜĜĜĜĝĜĜĜĜĜĜĜĜĜĜĜĜĜĜĜĜĜĜĜĜ": 1490,
      "ĜĜĜĜĜĜĝĜĜĜĜĜĜ": 1491,
      "ęĝę": 1492,
      "ĚĜěĀ": 1493,
      "!ěĞ": 1494,
      "\"$": 1495,
      "\"%": 1496,
      "#Ĝğ": 1497,
      "Ćĝ": 1498,
      "ĎĖ": 1499,
      "ďė": 1500,
      "ę$": 1501,
      "Ĝ'": 1502,
      "ĠğĚ": 1503,
      "ĜĝĜĜĜĜě": 1504,
      "ĜĜĜĜĜĜ\"ĜĜĜĜĜĜĜĜĜĜĜĜĜĘĜĜĜĜĜĜ!ĜĜĜĜĜĜĘ": 1505,
      "ĜĜěĀ": 1506,
      "ĜĜĜěĜĜĜĜĜĜĜĜ": 1507,
      "ĜĚę": 1508,
      "ĜĚĝĜě": 1509,
      "ěĝėĀ": 1510,
      "ĜĝĝĚ": 1511,
      "ĚĚĚ": 1512,
      "ĘĝĘ": 1513,
      "Ęĝę": 1514,
      "ęĀĝ": 1515,
      "ĜĜĜĜĜĜĜěĜĜĜĜĜĜĜĜĜĜĜĜĜĜĜĜĜĜĜĜĜĜĜĜĜ": 1516,
      "ĜĜĜĜěĜěĜĜĜĜĜĜĜĜĜĜĜĜĜĜĜĜĜĜĜĜĜĜĜĜĜĜĜĜĜĜĜĜ": 1517,
      "ĜĜĜěĜěĜĜĜĜĜĜĜĜĜĜĜĜĜĜĜĜĜĜĜĜĜĜĜĜĜĜĜĜĜĜĜĜ": 1518,
      "ĜĜĜĝĜĝĜĜĜĜĜĜĜĜĜĜĜĜĜĜĜĜĜĜĜĜĜĜĜĜĜĜĜĜĜĜĜĜ": 1519,
      "%ē": 1520,
      ")Ğ": 1521,
      ",.": 1522,
      "ąĝ": 1523,
      "ĘěĚ": 1524,
      "ęĚĝ": 1525,
      "ěĝěĀ": 1526,
      "Ġ+": 1527,
      "Ġ-": 1528,
      "ĜěĜĝĝ": 1529,
      "ĜĜĜĜĜĜĞ": 1530,
      "ĝěĝĝ": 1531,
      "ĜĜěěĜě": 1532,
      "ĜĜĜěĝĜě": 1533,
      "ĜĜĜĜěĜĚ": 1534,
      "ĜĜĜĜěĜĜĜĜĜĜĜĜĜĜĜĜĜĜĜĜĜĜ": 1535,
      "ĜĜĜĜĜĜĝĜĜĜĜĜĜĜĜĜĜĜĜĜĜĜĜ": 1536,
      "ğěĜĝ": 1537,
      "ĠěĜě": 1538,
      "ĜĜĝěĝĜĝ": 1539,
      "ĝĚĞ": 1540,
      "ĜĜĜĝĝĝě": 1541,
      "ĜĜĜĜěĝĜĜĜĜĜĜĜĜĜĜĜĜĜĜĜĜĜĜĜĜĜĜĜĜĜĜĜĜĜĜĜ": 1542,
      "ĜĜĝĜĜĜĜĜĜĝĜĜĜĜĜĜĜĜĜĜĜĜĜĜĜĜĜĜĜĜĜĜĜĜĜĜĜ": 1543,
      "&Đ": 1544,
      "&đ": 1545,
      "*Ĕ": 1546,
      "+Ğ": 1547,
      "..": 1548,
      "đ#": 1549,
      "Ěē": 1550,
      "ĠĜĜĜĝ": 1551,
      "ĝěěĝ": 1552,
      "ĜĜěĜĜĜĜĜĜĜĜĜĜĜĜĜĜĜĜĜĜĜĜĜĜĜĜĜĜĜĜĜĜĜĜĜĜĜĜĜĜĜĜ": 1553,
      "ĜĜěĜěě": 1554,
      "ĜĜěĜĜĜĜĜĜĜĜĜĜĜĜĜĜĜĜĜĜĜĜĜĜĜĜĜĜĜĜĜĜĜĜĜ": 1555,
      "ĜĜĝĜĜĜĜĜĜĜĜĜĜĜĜĜĜĜĜĜĜĜĜĜĜĜĜĜĜĜĜĜĜĜĜĜĜĜĜĜĜ": 1556,
      "ěěĝĜě": 1557,
      "ĜĜĜěĜĜĜĜĜĜĜĜĜĜĜĜĜĜĜĜĜĜĜĜĜĜĜĜĜĜĜĜĜĜĜĜĜĜĜĜĜĜĜĜ": 1558,
      "ĜĜĜĜěĜ": 1559,
      "ĜĜĜĜĜĜěĜĜĜĜĜĜĜĜĜĜĜĜĜĜĜĜĜĜĜ": 1560,
      "ĜĜĞĞ": 1561,
      "ĜĜĞĝĝ": 1562,
      "ĜĜĞĜĜĜĝ": 1563,
      "ĜĝĜĝĜĜĜĜĜĜĜĜĜĜĜĜĜĜĜĜĜĜĜĜĜĜĜĜĜĜĜĜĜĜ": 1564,
      "Ĝ%ĜĜěĜĜĜ": 1565,
      "ĖĝĜĜĜĜĜĜĜĜĜĜĜĜ": 1566,
      "ĜĜĜĜĜěěĜĜĜĜĜĜĜĜĜĜĜĜĜĜĜĜĜĜĜĜĜĜĜĜĜĜĜĜĜĜĜĜĜ": 1567,
      "'Ē": 1568,
      "ďĖ": 1569,
      "ďĘ": 1570,
      "ēĕ": 1571,
      "ėĜę": 1572,
      "ĘĜĖ": 1573,
      "ęĜĕ": 1574,
      "ĚĔ": 1575,
      "ěĔ": 1576,
      "ěĜĕ": 1577,
      "Ĝ(": 1578,
      "ĞĔ": 1579,
      "ĜĜěěĚ": 1580,
      "ĜĜĜěĚ": 1581,
      "ĜĜĜěĞ": 1582,
      "ĜĜĜěĜĜĜĜĜĜĜĜĜĜĜĜĜĜĜĜĜĜĜĜĜĜĜĜĜĜ": 1583,
      "ĜĞĝĜě": 1584,
      "ěĝĔ": 1585,
      "Ğěĝĝ": 1586,
      "ęěĜĝ": 1587,
      "ěĜěĜĜĝ": 1588,
      "ĜĜěěĝĝ": 1589,
      "ĜĜěĜĜĜěĜĜĜĜĜĜĜĜĜĜĜĜĜĜĜĜĜĜĜĜĜĜĜĜĜĜĜĜĜĜ": 1590,
      "ĜĜĜĜĜĜĜĜĝĜĜĜĜĜĜĜĜĜĜĜĜĜĜĜĜĜĜĜĜĜĜĜ": 1591,
      "ēěĜĜĜĜĜ": 1592,
      "ĜĜĜĜĜĜĜĜĜĜĝĜĜĜĜĜĜĜĜĜĜĜĜĜĜĜĜĜĜĜĜ": 1593,
      "$\"": 1594,
      "$#": 1595,
      "$ē": 1596,
      "%$": 1597,
      ")Ė": 1598,
      "ĈĞ": 1599,
      "ęĜĜĝ": 1600,
      "ĝĔ": 1601,
      "ğĞĞ": 1602,
      "ĠĄ": 1603,
      "ĠęĞ": 1604,
      "ĜĜęĚ": 1605,
      "ĝěĝě": 1606,
      "ĜĜěĜĜĜĜĜĜĝ": 1607,
      "ĜĜěĜĜěě": 1608,
      "ĜĜĜĝĜěĝ": 1609,
      "ĜĜĜĝĜĜĜĜĜĜĜĜĜĜĜĜĜĜĜĜĜĜĜĜĜĜĜĜĜĜĜĜĜĜĜĜĜĜĜĜĜĜĜĜĜĜĜĜ": 1610,
      "ĜĚěĜĝ": 1611,
      "ĜĞĀ": 1612,
      "ĜĜĜĜĜĜěĜĜĜĜĜĜĜĜĜĜ": 1613,
      "ĜĜĜĜĜěĜĜĜĜĜĜĜĜĜĜĜĜĜĜĜĜĜĜ": 1614,
      "ĜĜĜĜĜĝĜĜĜĜĜĜĜĜĜĜĜĜĜĜĜĜĜĜ": 1615,
      "ĚĝĖ": 1616,
      "Ĝęěě": 1617,
      "ĜęěĀ": 1618,
      "ĜěěĜĜĜ": 1619,
      "ĜĝěĞ": 1620,
      "ĜĘĀ": 1621,
      "ĠĚĀ": 1622,
      "ėĝĀ": 1623,
      "ĜĜĝĜĝĜĜĜĜĜĜĜĜĜĜĜĜĜĜĜĜĜĜĜĜĜĜĜĜĜĜĜĜĜĜĜĜĜĜĜĜĜĜĜĜĜĜĜĜ": 1624,
      "ĜĜĜĜěĜĝĜĜĜĜĜĜĜĜĜĜĜĜĜĜĜĜĜĜĜĜĜĜĜĜĜĜĜĜĜĜĜ": 1625,
      "ĜĜĜĜĜĜĜĜĜěĜĜĜĜĜĜĜĜĜĜĜĜĜĜĜĜĜĜĜĜĜĜĜĜĜĜĜ": 1626,
      "!ěě": 1627,
      "\"ěĞ": 1628,
      ")Ā": 1629,
      ",ė": 1630,
      "/.": 1631,
      "Ēĝě": 1632,
      "ėĜė": 1633,
      "ğĞě": 1634,
      "ğĞĝ": 1635,
      "Ġć": 1636,
      "ĠĎ": 1637,
      "ĠĜĜĝ": 1638,
      "ĜĜ.": 1639,
      "Ĝě!": 1640,
      "Ĝěĕ": 1641,
      "ĜěĜ": 1642,
      "ĜĜĝĜĜěĝ": 1643,
      "ĜĜĝĜĜĜĜĜĜĜĜĜĜĜĜĜĜĜĜĜĜĜĜĜĜĜĜĜĜĜĜĜ": 1644,
      "ěěĚĝ": 1645,
      "ĜĜĜė": 1646,
      "ĜĚğ": 1647,
      "ěĝĞĀ": 1648,
      "ĜĜĜĜěĜĜĜĜĜĜĜĜĜĜĜĜĜĜĜĜĜĜĜĜĜĜĜĜĜĜĜĜĜĜĜĜĜĜĜĜĜĜĜĜĜ": 1649,
      "ĜĜĜĜĝĜĜĜĜĜĜĜĜĜĜĜĜĜĜĜĜĜĜĜĜĜĜĜĜĜĜĜĜĜĜĜĜĜĜĜĜĜĜĜĜĜ": 1650,
      "ĜĜĜĜĝĜĜĜĜĜĜĝĜĜĜĜĜĜĜĜĜĜĜĜĜĜĜĜĜĜĜĜĜĜĜĜĜĜĜĜĜĜĜĜ": 1651,
      "ęěĘ": 1652,
      "ĠěĚ": 1653,
      "ĘĝĀ": 1654,
      "ęĚĀ": 1655,
      "ĜĜĜĝĝĜĜĜĜĜĜĜĜĜĜĜĜĜĜĜĜĜĜĜĜĜĜĜĜĜĜĜĜĜĜĜĜ": 1656,
      "ĜĜĜĜĝĜĝĜĜĜĜĜĜĜĜĜĜĜĜĜĜĜĜĜĜĜĜĜĜĜĜĜ": 1657,
      "ĜĜĜĜĜĜĜĜĜĜĜĜĜĝĜĜĜĜĜĜĜĜĜĜĜĜĜĜĜĜĜĜĜĜĜĜĜĜĜĜĜĜĜĜĜĜ": 1658,
      "ĜĜĜĜĜĜĜĜĝĜĜĜĜĜĜĜĜĜĜĜĜĜĜĜĜĜĜĜĜĜĜĜĜĜĜĜĜĜĜĜĜ": 1659,
      "ĜĜĜĜĜěĝĜĜĜĜĜĜĜĜĜĜĜĜĜĜĜĜĜĜĜĜĜĜĜĜ": 1660,
      "ĜĜĜĜěĝĜĜĜĜĜĜĜĜĜĜĜĜĜĜĜĜĜĜĜĜĜĜĜĜĜĜĜĜĜĜĜĜĜĜĜĜĜĜ": 1661,
      "#ěĝ": 1662,
      "(đ": 1663,
      ")đ": 1664,
      "-ė": 1665,
      "ąĚ": 1666,
      "ĒĖ": 1667,
      "ĖĞě": 1668,
      "ėĜĀ": 1669,
      "ěĞě": 1670,
      "ěĞĚ": 1671,
      "Ġ.": 1672,
      "Ġă": 1673,
      "ĠĚĚ": 1674,
      "ĠĝĜĝ": 1675,
      "ĜĜĝĝĜĝ": 1676,
      "ĜĜĜĜĜĜĝĜĜĜĜĜĜĜĜĜĜ": 1677,
      "ĞěĜĞ": 1678,
      "Ĝěěĝĝ": 1679,
      "ĜĝěĜĜĜ": 1680,
      "ĜĝěĜĜĜĜĜĜĜĜĜĜĜĜĜĜĜĜĜĜĜĜĜĜĜĜĜĜĜĜĜĜĜ": 1681,
      "ęěę": 1682,
      "ĜĘěĀ": 1683,
      "ĜĜĜĜĜĜĜĜěĜĜĜĜĜĜĜĜĜĜĜĜĜĜĜĜĜĜĜĜĜĜĜĜ": 1684,
      "ĜĜĜĜĜĜĜĜĜĜĜěĜĜĜĜĜĜĜĜĜĜĜĜĜĜĜĜĜĜ": 1685,
      "$Ē": 1686,
      ",ē": 1687,
      "-ę": 1688,
      "Ăĝ": 1689,
      "Đ\"": 1690,
      "ėĞě": 1691,
      "ĘĔ": 1692,
      "ęĔ": 1693,
      "ĝĜ\"": 1694,
      "ĠĜĜ": 1695,
      "Ġğĝ": 1696,
      "ĠĜĜĝĜĜĜ": 1697,
      "ĜĜĜĜĜĜ%ĜĜĜĜĜĜ": 1698,
      "ĜĜĝĜĜĜĜĜĜĜĜĜĜĜĜĜĜĜĜĜĜĜĜ": 1699,
      "ĜĜĜěĜěĜě": 1700,
      "ĜĜĜĝĞ": 1701,
      "ĜĜĜĝĜĜĜĜĜĜĜĜĜĜĜĜĜĜĜĜĜĜĜĜĜĜĜĜĜĜ": 1702,
      "ěĝĝě": 1703,
      "ĜĜĜĜĜĜĝĜĜĜĜĜĜĜĜĜĜĜĜĜ": 1704,
      "ĜĜĜĜĜěĜĜĜĜĜĜĜĜĜĜĜĜĜĜĜĜĜĜĜĜĜĜĜĜĜĜĜĜĜĜ": 1705,
      "ĜĘĚ": 1706,
      "ĞĚĜě": 1707,
      "ěĜěĝě": 1708,
      "ĜĜĜĜĜĜĜĝĜĜĜĜĜĜĜĜĜĜĜĜĜĜĜĜĜĜĜĜĜĜĜĜĜĜĜĜĜĜ": 1709,
      "ĘĜĜĜĜĜĜĞ": 1710,
      "ĜĜĜĝĝĜĜĜĜĜĜĜĜĜĜĜĜĜĜĜĜĜĜĜĜĜĜĜĜĜĜĜĜĜĜĜĜĜ": 1711,
      "ĜĜĜĜĜĜĜĜĜĜĜĜĜĝĜĜĜĜĜĜĜĜĜĜĜĜĜ": 1712,
      "ĜĜĜĜĝěĜĜĜĜĜĜĜĜĜĜĜĜĜĜĜĜĜĜĜĜĜĜĜĜĜĜĜĜĜĜĜĜĜĜĜĜĜĜ": 1713,
      "Ĝďě": 1714,
      "ĜĜĜĜĜĝĝĜĜĜĜĜĜĜĜĜĜĜĜĜĜĜĜĜĜĜĜĜĜĜĜĜĜĜĜĜĜĜĜ": 1715,
      "!Ē": 1716,
      "!ęĝ": 1717,
      "#ĝĝ": 1718,
      "(ğ": 1719,
      "+Ĝ": 1720,
      "-ĝ": 1721,
      "/Ě": 1722,
      "ĈĚ": 1723,
      "đĖ": 1724,
      "ėğě": 1725,
      "ĘĒ": 1726,
      "ĘĝĞ": 1727,
      "ęĜ!": 1728,
      "ęĜĔ": 1729,
      "ĚĜ!": 1730,
      "Ġ*": 1731,
      "Ġā": 1732,
      "ĜĜĝĜĜĝě": 1733,
      "ěěĜĀ": 1734,
      "ĜĚĝĜĝ": 1735,
      "ĜĜĜĜĝĜĜĜĜĜĜĜĜĜĜĜĜĜĜĜĜĜĜĜĜĜĜĜĜĜĜĜĜĜĜĜĜĜĜĜĜ": 1736,
      "ĜĜĜĜĝĜĜĜĜĜĜĜĜĜĜĜĜĜĜĜĜĜĜ": 1737,
      "ĜğĜě": 1738,
      "ĜěěĜĜĜě": 1739,
      "ĞĚĜĝ": 1740,
      "ĜěĜěĜĝ": 1741,
      "ĞĞę": 1742,
      "ěĞĖ": 1743,
      "ĝĜěĜĜĜ": 1744,
      "ĜĜĜĜĜĜĜĝĜĜĜĜĜĜĜĜĜĜĜĜĜĜĜĜĜĜĜĜĜĜĜ": 1745,
      "ĜĒě": 1746,
      "ĜĜĜĜĜěĝĜĜĜĜĜĜĜĜĜĜĜĜĜĜĜĜĜĜĜĜĜĜĜĜĜĜĜĜĜĜĜĜĜĜĜĜĜĜ": 1747,
      "ĜĜĜĜěĜĝĜĜĜĜĜĜĜĜĜĜĜĜĜĜĜĜĜĜĜĜĜĜĜĜĜĜĜĜĜĜĜĜĜĜĜĜĜ": 1748,
      "ĜĜĝĜĜĜĜĜĜěĜĜĜĜĜĜĜĜĜĜĜĜĜĜĜĜĜĜĜĜĜĜĜĜĜĜĜ": 1749,
      "#Ē": 1750,
      "$ěĀ": 1751,
      "&ē": 1752,
      ",Ė": 1753,
      "-Ĝ": 1754,
      ".Ğ": 1755,
      "Ēĕ": 1756,
      "ĚĜ\"": 1757,
      "ěē": 1758,
      "ěĜ\"": 1759,
      "Ğ&": 1760,
      "Ġ3": 1761,
      "ĠĜĘ": 1762,
      "ĜĜěĜĞ": 1763,
      "ĜĜĝĜĜ": 1764,
      "ĜĜĝĜĜĜĜĜĜĜĜĜĜě": 1765,
      "ěĝĜĜĜĜ": 1766,
      "ĜĜĜĜĝĜĜĜĜĜĜĜĜ": 1767,
      "Ĝğğ": 1768,
      "ĞĝĜĜĝ": 1769,
      "ĜěĝĜĜĜě": 1770,
      "ĜĝěĚ": 1771,
      "ęĝė": 1772,
      "ęĝĜě": 1773,
      "ěĞė": 1774,
      "ĜėĀ": 1775,
      "ĜĜĝĝĜĜĜĜĜĜĜĜĜĜĜĜĜĜĜĜĜĜĜĜĜĜĜĜĜĜĜĜĜĜĜĜĜ": 1776,
      "ĜĜĜĝěĜĜĜĜĜĜĜĜĜĜĜĜĜĜĜĜĜĜĜĜĜĜĜĜĜĜĜĜĜĜĜ": 1777,
      "ĜĜĜĝĜěĜĜĜĜĜĜĜĜĜĜĜĜĜĜĜĜĜĜĜĜĜĜĜĜĜĜĜĜĜĜĜ": 1778,
      "ĜĜĝĜĜĜĜĜĜĝĜĜĜĜĜĜĜĜĜĜĜĜĜĜĜĜĜĜĜĜĜĜĜĜĜĜĜĜĜĜĜĜĜĜĜĜĜĜĜ": 1779,
      "!ĝĝ": 1780,
      "!Ěĝ": 1781,
      "\"ěĀ": 1782,
      "#$": 1783,
      "#ĜĞ": 1784,
      "%!": 1785,
      "(Ĕ": 1786,
      "+ė": 1787,
      "01": 1788,
      "ăĝ": 1789,
      "ćğ": 1790,
      "ĐĖ": 1791,
      "ěĜ#": 1792,
      "Ĝ/": 1793,
      "ğĜę": 1794,
      "ĠĜĜĞ": 1795,
      "ĜĜĄ": 1796,
      "ĝěĜĜĜĜĜĜĜĜĜĜĜĜĜĜĜĜĜĜĜĜĜĜĜĜĜĜĜĜĜĜĜĜĜĜĜĜĜ": 1797,
      "ěěĕ": 1798,
      "ĜĚĜĜĜě": 1799,
      "ĜĞĜĜĜĜě": 1800,
      "ĜĜĜĜĜ!": 1801,
      "ěĝē": 1802,
      "Ğěę": 1803,
      "Ěěė": 1804,
      "Ĝĝěĝĝ": 1805,
      "ęĝĀ": 1806,
      "ĜĜěěĜĝĝ": 1807,
      "ĜĜěĜěĜĝ": 1808,
      "ĜĜĜěĜěĜĜĜĜĜĜĜĜĜĜĜĜĜĜĜĜĜĜĜĜĜĜĜĜĜĜĜĜĜĜĜĜĜĜĜĜĜ": 1809,
      "ĜĜĜĜĜĜĜĜĜĜĜĜĝĜĜĜĜĜĜĜĜĜĜĜĜĜĜĜĜĜĜ": 1810,
      "!ĝĞ": 1811,
      "#'": 1812,
      "$đ": 1813,
      "%\"": 1814,
      ")ĜĜĜĜĜĜĖĜĜĜĜĜĜĜĜĜĜĜĜĜ": 1815,
      "+Ę": 1816,
      "ēĖ": 1817,
      "Ęĝĝ": 1818,
      "ěĚě": 1819,
      "ěğě": 1820,
      "ĝ&": 1821,
      "ĠĈ": 1822,
      "ĜĜěĜĜĜĜĜĜĜĜĜĜĜĜĜĜĜĜĜĜĜĜĜĜĜĜ": 1823,
      "ĝĝĝĜĝ": 1824,
      "ĜĜĜěĜĜĜĜĜĜĜĜĜĜĜĜĜĜĜĜĜĜĜĜĜĜĜĜĜĜĜĜĜĜ": 1825,
      "ĜĞĜĜĜĝ": 1826,
      "ĜĜĜĜĜė": 1827,
      "ĞěĜĜĜě": 1828,
      "ĚĝĜĀ": 1829,
      "Ğĝĝě": 1830,
      "ĜĝěĜĝĝ": 1831,
      "ĞĚěě": 1832,
      "Ġěğ": 1833,
      "ĜĝĜĝĜě": 1834,
      "ĜĝĜĝĜĜĜĜĜĜĜĜĜĜĜĜĜĜĜĜĜĜĜĜĜĜĜĜĜĜĜĜĜĜĜĜ": 1835,
      "ěĚė": 1836,
      "ĝĜĝĜĜĜĜĜĜĜĜĜĜ": 1837,
      "Ęĝė": 1838,
      "Ĝĕĝ": 1839,
      "ĜĜğĜĜĜĜĜĜ#ĜĜĜĜĜĜĞĜĜĜĜĜĜĘĜĜĜĜĜĜė": 1840,
      "ĜĜĜěĝĜĜĜĜĜĜĜĜĜĜĜĜĜĜĜĜĜĜĜĜĜĜĜĜĜĜĜĜĜĜĜĜĜĜĜĜĜĜ": 1841,
      "ĜĜĜĜĝĝĜĜĜĜĜĜĜĜĜĜĜĜĜĜĜĜĜĜĜĜĜĜĜĜĜĜĜĜĜĜĜĜ": 1842,
      "\"ĝĞ": 1843,
      "&Ĕ": 1844,
      "'ď": 1845,
      ")-": 1846,
      ")ĕ": 1847,
      "+.": 1848,
      "+/": 1849,
      ",ĕ": 1850,
      ",Ĝ": 1851,
      "ĂĞ": 1852,
      "đĕ": 1853,
      "ēĜě": 1854,
      "ĖĜĘ": 1855,
      "ėĝĚ": 1856,
      "ěęě": 1857,
      "ĝĜĝě": 1858,
      "ĠĜĜĜě": 1859,
      "ĠĜĀ": 1860,
      "ĜĜğĚ": 1861,
      "ĜĜěěěĝ": 1862,
      "ĜĜěĜĚĜě": 1863,
      "ĝĝĜĜĜĜĜĝ": 1864,
      "ĜĜĜěĜĜĜĜĜĜĜĜĜĜĜĜĜĜĜĜĜĜĜĜĜĜĜĜĜĜĜĜĜĜĜĜĜĜĜĜĜĜĜĜĜĜĜĜĜ": 1865,
      "ĜĚěĀ": 1866,
      "ĜĚĝĚ": 1867,
      "ĜĚĜĜĜĜĜĜĜĜĜĜĜĜĜĜĜĜĜĜĜĜĜĜĜĜĜĜĜĜĜĜĜĜĜĜĜĜĜĜĜĜĜĜĜĜ": 1868,
      "ěĝĒ": 1869,
      "ĜĜĜĜěĜĜĜĜĜĜĜĜĜĜĜĜĜĜĜĜĜĜĜĜ": 1870,
      "ĜĜĜĜĜĜěĜĜĜĜ": 1871,
      "ĚĝĔ": 1872,
      "ĞĝĀ": 1873,
      "ĜěĝĜĜĜĜĜĜĜĜĜĜĜĜĜĜĜĜĜĜĜĜĜĜĜĜĜĜĜĜĜĜĜĜĜĜĜĜĜĜĜĜĜĜĜ": 1874,
      "ğĝĜĝ": 1875,
      "ĞĞěě": 1876,
      "ĜĜěĜĜĜĘ": 1877,
      "ĘĀĞ": 1878,
      "Ėĝę": 1879,
      "ĜěĜĝĜĜ": 1880,
      "ĜĜĜĜĜĜĜĜĜĜĜĜĜěĜĜĜĜĜĜĜĜĜĜĜĜĜĜĜĜĜĜĜĜĜĜĜĜĜ": 1881,
      "ĜĜĜěĝĜĜĜĜĜĜĜĜĜĜĜĜĜĜĜĜĜĜĜĜĜĜĜĜĜĜĜĜĜĜĜĜ": 1882,
      "ĜĜĜ%ĜĜěĜĜĜ": 1883,
      "ĖěĀĜĜĜĜĜĜĜĜĜĜĜĜĜĜĜĜĜĜĜĜĜĜĜĜĜĜĜĜĜĜĜĜĜĜĜĜĜĜĜĜĜĜĜĜĜĜĜĜĜ": 1884,
      "!%": 1885,
      "\"ĝĝ": 1886,
      "#%": 1887,
      "&$": 1888,
      "'Đ": 1889,
      "+Ā": 1890,
      ".Ė": 1891,
      "Ćę": 1892,
      "Ĉę": 1893,
      "ĖĜĜĝĜĜĜĜĜĜĜĜĜĜ": 1894,
      "ėĜĝ": 1895,
      "ĚĚĝ": 1896,
      "ĝĜę": 1897,
      "ĞĚě": 1898,
      "ĝĝĘ": 1899,
      "ĜĚĝĝ": 1900,
      "ĜĚěĚ": 1901,
      "ĜĞĘ": 1902,
      "ĜĜĜĜěĜĝĝ": 1903,
      "ĜĜĜĜĝĜ": 1904,
      "ĜĜĜĜĜĜĝĜĜĜ": 1905,
      "ĞěĘ": 1906,
      "ĞěĜĜĝ": 1907,
      "ĜğĀ": 1908,
      "ĜĝĝĜĜĜ": 1909,
      "ĜěĝĜěě": 1910,
      "ĜěĝĜĜĜĜĜĜĜĜĜĜĜĜĜĜĜĜĜĜĜĜĜĜĜĜĜĜĜĜĜĜĜĜĜĜĜĜĜĜ": 1911,
      "ĜĝěĜĜĜě": 1912,
      "ğěĜě": 1913,
      "ęĝĘ": 1914,
      "ĜĜĝěĜĝĝ": 1915,
      "ĜĜěĜěĜĜĜĜĜĜĜĜĜĜĜĜĜĜĜĜĜĜĜĜĜĜĜĜĜĜĜĜĜĜĜĜĜĜĜĜĜĜĜ": 1916,
      "ĜĜěĝĜěě": 1917,
      "ĜĜĜĜĜĜĜĜĝĜĜĜĜĜĜĜĜĜĜĜĜĜĜĜĜĜĜĜĜĜĜĜĜĜĜĜĜĜĜ": 1918,
      "ĜĜĜěĜĝĜĜĜĜĜĜĜĜĜĜĜĜĜĜĜĜĜĜĜĜĜĜĜĜĜĜĜĜĜĜĜ": 1919,
      "ĜĜĜĜĜĜĜĜĜĜĝĜĜĜĜĜĜĜĜĜĜĜĜĜĜĜĜĜĜĜĜĜĜĜĜĜĜĜ": 1920,
      "ĜĜĝĜĝĜĝĜĜĜĜĜĜĜĜĜĜĜĜĜĜĜĜĜĜĜĜĜĜĜĜĜĜĜĜĜĜ": 1921,
      "#ěĀ": 1922,
      "%Ē": 1923,
      "*/": 1924,
      "+-": 1925,
      ",Ğ": 1926,
      "-Ę": 1927,
      "11": 1928,
      "ĆĞ": 1929,
      "Ĉğ": 1930,
      "ėĜĘ": 1931,
      "Ě%": 1932,
      "ĠĆ": 1933,
      "Ġğę": 1934,
      "ĜĜĜĜĜĚě": 1935,
      "Ĝĝ!": 1936,
      "ĜĜěĜĜĜĜĜĜĜĜĜĜĜĜĜĜĜĜĜĜĜĜĜĜĜĜĜĜĜĜĜĜĜĜĜĜĜĜĜĜ": 1937,
      "ĜĜĝĜĜěě": 1938,
      "ĜĜĝĜĜĜĚ": 1939,
      "ĜĜĜĜěĜĜĜĜĜĜĝ": 1940,
      "ĜĜĜĜĜěěĝ": 1941,
      "ĜĜĜĜĜěĜĜĜĜĜĜĜĜĜĜĜĜĜĜĜĜĜĜĜĜĜĜĜĜĜĜĜĜĜĜĜĜĜĜĜĜĜĜĜĜ": 1942,
      "Ğěĝě": 1943,
      "Ěěĕ": 1944,
      "ĚĝĜ": 1945,
      "Ĝęę": 1946,
      "ğěĝě": 1947,
      "ęěĜě": 1948,
      "ĜĜĚĜěĜě": 1949,
      "ĞĞĞ": 1950,
      "ĜĜĝěĜĜĝ": 1951,
      "ěĚę": 1952,
      "ĝĞĀ": 1953,
      "ėĝę": 1954,
      "ĜĜĝĜěĜĜĜĜĜĜĜĜĜĜĜĜĜĜĜĜĜĜĜĜĜĜĜĜĜĜĜĜĜĜĜĜĜĜĜĜĜĜ": 1955,
      "ěěěĜĜĜ": 1956,
      "ĜĜĝĜĜĜĝĜĜĜĜĜĜĜĜĜĜĜĜĜĜĜĜĜĜĜĜĜĜĜĜĜĜĜĜĜĜĜĜĜĜĜĜĜ": 1957,
      "ĜĜğĜĜĜĜĜĜĕĜĜĜĜĜĜĞĜĜĜĜĜĜ": 1958,
      "ĜĜĜĜĜĜĜĜĝĜĜĜĜĜĜĜĜĜĜĜĜĜĜĜĜĜĜĜĜĜĜĜĜĜĜĜ": 1959,
      "ĜĜĜĜĝĝĜĜĜĜĜĜĜĜĜĜĜĜĜĜĜĜĜĜĜĜĜĜĜĜĜĜĜĜĜĜĜĜĜ": 1960,
      "Ĝ&ě": 1961,
      "ĜĜěĜĜĜĝĜĜĜĜĜĜĜĜĜĜĜĜĜĜĜĜĜĜĜĜĜĜĜĜĜĜĜĜĜĜĜĜ": 1962,
      "Ĝ)ě": 1963,
      "!Ĝě": 1964,
      "$&": 1965,
      "(Ē": 1966,
      ")ĜĜĜĜĜĜ\"ĜĜĜĜĜĜĜĜĜĜĜĜĜĘĜĜĜĜĜĜėĜĜĜĜĜĜĘ": 1967,
      ",ğ": 1968,
      "/-": 1969,
      "ĄĞ": 1970,
      "ĖĞĚ": 1971,
      "ĘĜĀ": 1972,
      "ĚĞĚ": 1973,
      "Ĝ-": 1974,
      "ĝĜĘ": 1975,
      "ĝĚĚ": 1976,
      "Ġď": 1977,
      "ĠĘě": 1978,
      "ĠĘĀ": 1979,
      "ĜĜĜĜĜĞě": 1980,
      "Ĝě\"": 1981,
      "ĜěėěĀ": 1982,
      "Ĝĝĝĝ": 1983,
      "ĜĝĜĀ": 1984,
      "ĜĜĝĝĞ": 1985,
      "ĝĝĜěě": 1986,
      "ĜĜĜĝĜĜĜĜĜĜĜĜĜĜĜĜĜĜĜĜĜĜĜĜ": 1987,
      "ĜĜĜĝĝěě": 1988,
      "Ĝğę": 1989,
      "ğěğ": 1990,
      "ĜĀĞ": 1991,
      "ĜĜĚĞ": 1992,
      "ĚĀĜĜĜĜĜĜĜĜĜĜĜĜĜĜĜĜĜĜĜĜĜĜĜĜĜĜĜĜĜĜĜĜĜĜĜĜĜĜĜĜĜĜĜĜĜĜĜĜĜ": 1993,
      "ĜĔě": 1994,
      "ĜĜěĜĝĜĜĜĜĜĜĜĜĜĜĜĜĜĜĜĜĜĜĜĜĜĜĜĜĜĜĜĜĜĜĜĜĜĜĜĜĜĜ": 1995,
      "ěğěĀ": 1996,
      "ĜĜĜĜĜĜĜĜěĜĜĜĜĜĜĜĜĜĜĜĜĜĜĜĜĜĜĜĜĜĜĜĜĜ": 1997,
      "ĜĜĜĜĜĜĜĜĜĜĜĝĜĜĜĜĜĜĜĜĜĜĜĜĜĜĜĜĜĜĜĜ": 1998,
      "#ĚĞ": 1999,
      ")Ē": 2000,
      ")ē": 2001,
      ")Ĕ": 2002,
      ".ė": 2003,
      ".Ę": 2004,
      "Ďĕ": 2005,
      "ďĕ": 2006,
      "Ēěě": 2007,
      "ėĜĖ": 2008,
      "ĚĚě": 2009,
      "ĚĞĝ": 2010,
      "ěĜĝě": 2011,
      "ĝ'": 2012,
      "ğĚě": 2013,
      "Ġą": 2014,
      "ĠĜěě": 2015,
      "ĜĜĜĜĞě": 2016,
      "ĜěěĀ": 2017,
      "Ĝĝĕ": 2018,
      "ĜĜĝĝĚ": 2019,
      "ĝĝĜĜĜĜĜĜĜĜĜĜĜĜĜĜĜĜĜĜĜĜĜĜĜĜĜĜĜĜĜĜĜĜ": 2020,
      "ĜĚĜĜĜ": 2021,
      "ĜĞĝĞ": 2022,
      "ĜĞěĜĝ": 2023,
      "ĜĜĜĜěĜěĜě": 2024,
      "ĜĜĜĜěĜĜĜĜĜĜĜĜĜĜĜĜĜĜĜĜĜĜĜĜĜĜĜĜĜĜĜĜĜĜĜĜĜĜĜĜ": 2025,
      "ĜĜĜĜěĜĜĜĜĜĜĝĜĜĜĜĜĜĜĜĜĜĜĜĜĜĜĜĜĜĜĜĜĜĜĜĜĜĜĜĜĜĜĜ": 2026,
      "ĜĜĜĜĝĜĜě": 2027,
      "ěĀěĝ": 2028,
      "ĜĜĜĜĜěĜĜĜĜĜĜĜĜĜĜĜĜĜĜĜĜĜĜĜĜ": 2029,
      "ĜĜĜĜĜěĜĜĜĜĜĜĝĜĜĜĜĜĜĜĜĜĜĜĜĜĜĜĜĜĜĜĜĜĜĜĜĜĜĜĜĜĜĜĜ": 2030,
      "ĜĜĞĝě": 2031,
      "ĜěĜěĝě": 2032,
      "ĜĜĚĜĜĜě": 2033,
      "ĝěĀĜ": 2034,
      "ĝěĀĝ": 2035,
      "ĜĜěĝĜĜě": 2036,
      "ěĜĝĜĜĜĜĜĜĜĜĜĜĜĜĜĜĜĜĜĜĜĜĜĜĜĜĜĜĜĜĜĜĜĜĜĜĜĜĜĜĜĜĜĜĜĜĜĜ": 2037,
      "ĕĝĀ": 2038,
      "ĜĜĜĜĜěĝĜĜĜĜĜĜĜĜĜĜĜĜĜĜĜĜĜĜĜĜĜĜĜĜĜĜĜĜĜĜĜĜ": 2039,
      "ĜĜĜĜĜĜĜĜĜĜĜĝĜĜĜĜĜĜĜĜĜĜĜĜĜĜĜĜĜĜĜĜĜĜĜĜĜĜĜ": 2040,
      "ĜĜĜĜĜĜĜĜĜĜĜěĜĜĜĜĜĜĜĜĜĜĜĜĜĜĜĜĜĜĜĜ": 2041,
      "ĜĜĜĜĜĜĜĜĜĜěĜĜĜĜĜĜĜĜĜĜĜĜĜĜĜĜĜĜĜĜĜĜĜĜĜĜĜĜĜĜĜĜ": 2042,
      "ĜĜĜĜĜĜĜĜĜĜĜĜěĜĜĜĜĜĜĜĜĜĜĜĜĜĜĜĜĜĜ": 2043,
      "%%": 2044,
      "*ğ": 2045,
      "Ćğ": 2046,
      "ď!": 2047
    },
    "merges": [
      [
        "Ĝ",
        "Ĝ"
      ],
      [
        "ĜĜ",
        "ĜĜ"
      ],
      [
        "ĜĜĜĜ",
        "ĜĜĜĜ"
      ],
      [
        "ĜĜĜĜĜĜĜĜ",
        "ĜĜĜĜĜĜĜĜ"
      ],
      [
        "Ĝ",
        "ě"
      ],
      [
        "Ĝ",
        "ĝ"
      ],
      [
        "ĜĜĜĜ",
        "ĜĜ"
      ],
      [
        "ĜĜĜĜĜĜĜĜĜĜĜĜĜĜĜĜ",
        "ĜĜĜĜĜĜĜĜĜĜĜĜĜĜĜĜ"
      ],
      [
        "ĝ",
        "ě"
      ],
      [
        "ĜĜ",
        "ě"
      ],
      [
        "ĜĜ",
        "ĝ"
      ],
      [
        "ĜĜĜĜĜĜĜĜĜĜĜĜĜĜĜĜ",
        "ĜĜĜĜĜĜĜĜ"
      ],
      [
        "ě",
        "ě"
      ],
      [
        "ĜĜ",
        "Ĝ"
      ],
      [
        "ĝ",
        "ĝ"
      ],
      [
        "ĜĜ",
        "Ĝě"
      ],
      [
        "ĜĜ",
        "Ĝĝ"
      ],
      [
        "Ĝ",
        "Ě"
      ],
      [
        "Ĝ",
        "Ğ"
      ],
      [
        "ĜĜĜĜ",
        "Ĝ"
      ],
      [
        "ě",
        "ĝ"
      ],
      [
        "ĜĜĜĜĜĜ",
        "Ĝ"
      ],
      [
        "ĜĜĜĜ",
        "ě"
      ],
      [
        "ĜĜĜĜ",
        "ĝ"
      ],
      [
        "ĜĜĜĜĜĜ",
        "ě"
      ],
      [
        "ě",
        "Ā"
      ],
      [
        "ĜĜĜĜĜĜ",
        "ĝ"
      ],
      [
        "ĜĜĜĜ",
        "Ĝě"
      ],
      [
        "ĜĜĜĜĜĜĜĜĜĜĜĜĜĜĜĜĜĜĜĜĜĜĜĜĜĜĜĜĜĜĜĜ",
        "ĜĜĜĜĜĜĜĜ"
      ],
      [
        "ĜĜĜĜ",
        "Ĝĝ"
      ],
      [
        "Ğ",
        "ě"
      ],
      [
        "Ě",
        "ě"
      ],
      [
        "Ě",
        "ĝ"
      ],
      [
        "Ĝ",
        "ę"
      ],
      [
        "Ĝ",
        "ğ"
      ],
      [
        "Ğ",
        "ĝ"
      ],
      [
        "ĜĜĜĜĜĜĜĜĜĜĜĜĜĜĜĜĜĜĜĜĜĜĜĜ",
        "ĜĜĜĜĜĜĜ"
      ],
      [
        "Ĝĝ",
        "ĝ"
      ],
      [
        "Ĝě",
        "ĝ"
      ],
      [
        "ĜĜĜĜĜĜĜĜĜĜĜĜĜĜĜĜĜĜĜĜĜĜĜĜĜĜĜĜĜĜĜĜ",
        "ĜĜĜĜĜ"
      ],
      [
        "Ĝě",
        "ě"
      ],
      [
        "Ĝĝ",
        "ě"
      ],
      [
        "ĜĜĜĜĜĜĜĜ",
        "ĜĜĜĜĜ"
      ],
      [
        "ĜĜĜĜĜĜĜĜĜĜĜĜĜĜĜĜĜĜĜĜĜĜĜĜ",
        "ĜĜĜĜĜĜ"
      ],
      [
        "ğ",
        "ě"
      ],
      [
        "ę",
        "ě"
      ],
      [
        "Ġ",
        "ĜĜĜĜĜĜ"
      ],
      [
        "Ĝ",
        "Ę"
      ],
      [
        "ę",
        "ĝ"
      ],
      [
        "ĜĜĜĜĜĜĜĜĜĜĜĜĜĜĜĜĜĜĜĜĜĜĜĜĜĜĜĜĜĜĜĜ",
        "ĜĜĜĜĜĜĜ"
      ],
      [
        "Ğ",
        "Ě"
      ],
      [
        "ĜĜĜĜĜĜĜĜĜĜĜĜĜĜĜĜĜĜĜĜĜĜĜĜĜĜĜĜĜĜĜĜ",
        "ĜĜĜĜĜĜ"
      ],
      [
        "ĜĜĜĜĜĜ",
        "Ę"
      ],
      [
        "Ĝ",
        "Ā"
      ],
      [
        "ĜĜĜĜĜĜĜĜĜĜĜĜĜĜĜĜĜĜĜĜĜĜĜĜĜĜĜĜĜĜĜĜ",
        "ĜĜ"
      ],
      [
        "ĜĜĜĜĜĜĜĜĜĜĜĜĜĜĜĜĜĜĜĜĜĜĜĜ",
        "Ĝ"
      ],
      [
        "ĜĜĜĜĜĜĜĜĜĜĜĜĜĜĜĜĜĜĜĜĜĜĜĜ",
        "ĜĜĜ"
      ],
      [
        "Ě",
        "Ě"
      ],
      [
        "ğ",
        "ĝ"
      ],
      [
        "ĜĜ",
        "Ğ"
      ],
      [
        "Ĝě",
        "Ĝě"
      ],
      [
        "Ġ",
        "ě"
      ],
      [
        "ĜĜĜĜĜĜĜĜĜĜĜĜĜĜĜĜ",
        "Ĝ"
      ],
      [
        "Ĝĝ",
        "Ĝĝ"
      ],
      [
        "ĜĜĜĜĜĜĜĜĜĜĜĜĜĜĜĜĜĜĜĜĜĜĜĜĜĜĜĜĜĜĜĜ",
        "Ĝ"
      ],
      [
        "ĜĜ",
        "Ě"
      ],
      [
        "Ğ",
        "Ğ"
      ],
      [
        "ĜĜ",
        "ĝě"
      ],
      [
        "ě",
        "Ě"
      ],
      [
        "ĝ",
        "Ě"
      ],
      [
        "ě",
        "Ğ"
      ],
      [
        "Ĝ",
        "ė"
      ],
      [
        "ě",
        "Ĝě"
      ],
      [
        "ĝ",
        "Ĝĝ"
      ],
      [
        "ĝě",
        "Ā"
      ],
      [
        "ĝ",
        "Ğ"
      ],
      [
        "Ę",
        "ě"
      ],
      [
        "Ě",
        "Ğ"
      ],
      [
        "ĜĜĜĜĜĜĘ",
        "ĜĜĜĜĜĜ"
      ],
      [
        "ĕ",
        "ĜĜĜĜĜĜ"
      ],
      [
        "ĜĜě",
        "ě"
      ],
      [
        "#",
        "ĜĜĜĜĜĜ"
      ],
      [
        "Ĝ",
        "Ė"
      ],
      [
        "Ę",
        "ĝ"
      ],
      [
        "ĜĜĝ",
        "ĝ"
      ],
      [
        "ğ",
        "Ě"
      ],
      [
        "ĜĜĜĜĜĜĜĜĜĜĜĜĜĜĜĜĜĜĜĜĜĜĜĜĜĜĜĜĜĜĜĜ",
        "ĜĜĜĜĜĜĜĜĜĜĜĜĜĜĜĜĜ"
      ],
      [
        "ę",
        "Ğ"
      ],
      [
        "ĜĜĜĜĜĜĜĜĜĜĜĜĜĜĜĜĜĜĜĜĜĜĜĜĜĜĜĜĜĜĜĜĜĜĜĜĜĜĜĜ",
        "ĜĜĜĜ"
      ],
      [
        "Ĝ",
        "ē"
      ],
      [
        "Ĝ",
        "!"
      ],
      [
        "ĜĜĜĜĜĜĜĜĜĜĜĜĜĜĜĜĜĜĜĜĜĜĜĜĜĜĜĜĜĜĜĜ",
        "ĜĜĜĜ"
      ],
      [
        "Ĝĝ",
        "Ĝě"
      ],
      [
        "ĜĜĜĜĜĜĜĜĜĜĜĜĜĜĜĜ",
        "ĜĜĜĜĜĜĜ"
      ],
      [
        "ę",
        "Ě"
      ],
      [
        "Ġ",
        "ĝ"
      ],
      [
        "ĜĜĜĜĜĜĜĜĜĜĜĜĜĜĜĜĜĜĜĜĜĜĜĜ",
        "ĜĜ"
      ],
      [
        "ę",
        "Ā"
      ],
      [
        "ĜĜě",
        "ĜĜĜ"
      ],
      [
        "ĝ",
        "Ĝě"
      ],
      [
        "ğ",
        "Ğ"
      ],
      [
        "ĜĜĜĜĜĜĜĜĜĜĜĜĜĜĜĜ",
        "ĜĜĜĜ"
      ],
      [
        "ĝě",
        "ě"
      ],
      [
        "ė",
        "ě"
      ],
      [
        "Ĝ",
        "ĕ"
      ],
      [
        "!",
        "ě"
      ],
      [
        "ĜĜě",
        "Ĝě"
      ],
      [
        "Ę",
        "Ā"
      ],
      [
        "ĜĜĜĜĜĜĜĜĜĜĜĜĜĜĜĜ",
        "ĜĜ"
      ],
      [
        "Ĝ",
        "\""
      ],
      [
        "ĜĜě",
        "ĝ"
      ],
      [
        "Ġ",
        "Ě"
      ],
      [
        "Ĝ",
        "%"
      ],
      [
        "ěě",
        "ĝ"
      ],
      [
        "ė",
        "ĝ"
      ],
      [
        "Ę",
        "Ğ"
      ],
      [
        "ĜĜĝ",
        "Ĝĝ"
      ],
      [
        "ě",
        "Ĝĝ"
      ],
      [
        "ĜĜĜĜĜĜ",
        "#ĜĜĜĜĜĜ"
      ],
      [
        "ĝě",
        "ĝ"
      ],
      [
        "ĜĜĜĜĜĜ",
        "Ĝĝ"
      ],
      [
        "ĜĜĜĜĜĜ",
        "ĕĜĜĜĜĜĜ"
      ],
      [
        "Ě",
        "Ā"
      ],
      [
        "ĜĚ",
        "ĝ"
      ],
      [
        "\"",
        "ě"
      ],
      [
        "ė",
        "Ā"
      ],
      [
        "ĜĜĜĜĜĜ",
        "Ĝě"
      ],
      [
        "ĜĜĜĜĜĜĜĜĜĜĜĜĜĜĜĜĜĜĜĜĜĜĜĜĜĜĜĜĜĜĜĜĜĜĜĜĜĜĜĜ",
        "ĜĜĜ"
      ],
      [
        "Ě",
        "Ĝě"
      ],
      [
        "ĠĜĜĜĜĜĜ",
        "ė"
      ],
      [
        "Ė",
        "ě"
      ],
      [
        "Ė",
        "ĜĜĜĜĜĜĜĜĜĜĜĜĜ"
      ],
      [
        "ĝĝ",
        "ĝ"
      ],
      [
        "ğ",
        "ę"
      ],
      [
        "Ġ",
        "Ğ"
      ],
      [
        "Ĝ",
        "Ĕ"
      ],
      [
        "#",
        "ě"
      ],
      [
        "Ğ",
        "Ĝĝ"
      ],
      [
        "Ė",
        "Ā"
      ],
      [
        "ĜĞ",
        "ĝ"
      ],
      [
        "ĜĜĝ",
        "Ĝě"
      ],
      [
        "ĜĜĜĜě",
        "Ĝě"
      ],
      [
        "Ę",
        "ĜĜĜĜĜĜ"
      ],
      [
        "ĜĚ",
        "ě"
      ],
      [
        "ĜĜĜĜĜĜĜĜĜĜĜĜĜĜĜĜĜĜĜĜĜĜĜĜĜĜĜĜĜĜĜĜĜĜĜĜĜĜĜĜ",
        "Ĝ"
      ],
      [
        "ĜĞ",
        "ě"
      ],
      [
        "Ğ",
        "Ĝě"
      ],
      [
        "Ė",
        "ĝ"
      ],
      [
        "ěě",
        "ě"
      ],
      [
        "ĠĜĜĜĜĜĜ",
        "!"
      ],
      [
        "ĜĜĜě",
        "ě"
      ],
      [
        "ĜĜĜĝ",
        "ĝ"
      ],
      [
        "Ę",
        "Ě"
      ],
      [
        "ĕ",
        "ě"
      ],
      [
        "ę",
        "ę"
      ],
      [
        "Ĝ",
        "Ē"
      ],
      [
        "ĜĜĜĜĝ",
        "Ĝĝ"
      ],
      [
        "ğ",
        "ğ"
      ],
      [
        "ĜĜĝ",
        "ĜĜĜĝ"
      ],
      [
        "ĜĜĜĜĜĜĜĜĜĜĜĜĜĜĜĜĜĜĜĜĜĜĜĜĜĜĜĜĜĜĜĜĜĜĜĜĜĜĜĜ",
        "ĜĜĜĜĜĜ"
      ],
      [
        "ĜĜĜ",
        "Ě"
      ],
      [
        "ĜĜ",
        "ğ"
      ],
      [
        "!",
        "ĝ"
      ],
      [
        "Ġ",
        "ę"
      ],
      [
        "ĜĜĜĜĜĜĜĜ",
        "ĜĜĜĜĜĝ"
      ],
      [
        "ĜĜĜĜĜĜĜĜ",
        "ĜĜ"
      ],
      [
        "ĜĜ",
        "ę"
      ],
      [
        "ě",
        "ę"
      ],
      [
        "Ě",
        "Ĝĝ"
      ],
      [
        "ė",
        "Ğ"
      ],
      [
        "Ĝě",
        "Ĝĝ"
      ],
      [
        "ĜĜě",
        "Ĝĝ"
      ],
      [
        "ě",
        "ğ"
      ],
      [
        "ĜĜě",
        "ĜĜĜě"
      ],
      [
        "ĕ",
        "ĝ"
      ],
      [
        "\"",
        "ĝ"
      ],
      [
        "Ě",
        "ę"
      ],
      [
        "ĜĜĜĜĜĜĜĜ",
        "ĝ"
      ],
      [
        "Ğ",
        "ę"
      ],
      [
        "Ĝ",
        "#"
      ],
      [
        "ĜĜĜĜ",
        "ěě"
      ],
      [
        "%",
        "ě"
      ],
      [
        "!",
        "Ě"
      ],
      [
        "Ġ",
        "ğ"
      ],
      [
        "ĜĜĜĜ",
        "ĝě"
      ],
      [
        "$",
        "ě"
      ],
      [
        "ĜĜĝ",
        "ĜĜĜ"
      ],
      [
        "ĜĜĜĜĜĜĜĜ",
        "ĜĜĜĜĜě"
      ],
      [
        "Ę",
        "ę"
      ],
      [
        "ĜĜĜě",
        "ĝ"
      ],
      [
        "ĕ",
        "Ā"
      ],
      [
        "ĜĜĜĜĜĜĜĜ",
        "ě"
      ],
      [
        "Ę",
        "ğ"
      ],
      [
        "Ě",
        "ğ"
      ],
      [
        "ĜĜĜĝ",
        "ě"
      ],
      [
        "ē",
        "ě"
      ],
      [
        "\"",
        "ĜĜĜĜĜĜĜĜĜĜĜĜĜ"
      ],
      [
        "ĜĜĜĜĜě",
        "ĝ"
      ],
      [
        "ĜĜĜĜĜě",
        "ě"
      ],
      [
        "ĜĜĜĜ",
        "ĝĝ"
      ],
      [
        "ĜĜĜĜĜĜĝ",
        "ĜĜĜĜĜĜĜĜĜĜĜĜĜĜĜĜĜĜĜĜĜĜĜĜĜĜĜĜĜĜĜĜ"
      ],
      [
        "ĜĜĜĜĝ",
        "ĜĜĜĜĜĜĜĜĜĜĜĜĜĜĜĜĜĜĜĜĜĜĜĜĜĜĜĜĜĜĜĜ"
      ],
      [
        "ĜĜĜĜĜĜĜĜĜĜĜĜĜĜĜĜĜĜĜĜĜĜĜĜĜĜĜĜĜĜĜĜĜĜĜĜĜĜĜĜ",
        "ĜĜĜĜĜ"
      ],
      [
        "Ė",
        "Ğ"
      ],
      [
        "ė",
        "Ě"
      ],
      [
        "ĜĜĜĜ",
        "ěĝ"
      ],
      [
        "ĜĜĜě",
        "Ĝě"
      ],
      [
        "ĜĜĜĜě",
        "Ĝĝ"
      ],
      [
        "Ĝ",
        "&"
      ],
      [
        "Ĝ",
        "Ą"
      ],
      [
        "ĝ",
        "ğ"
      ],
      [
        "Ĝ",
        "$"
      ],
      [
        "ĜĜĜ",
        "Ğ"
      ],
      [
        "Ā",
        "ě"
      ],
      [
        "Ĝ",
        "ď"
      ],
      [
        "ĜĜĜĜĜĜĜĜĜĜĜĜĜĜĜĜĜĜĜĜĜĜĜĜ",
        "ĜĜĜĜĜ"
      ],
      [
        "ę",
        "ğ"
      ],
      [
        "Ğ",
        "ğ"
      ],
      [
        "ĜĜĜĜĝ",
        "Ĝě"
      ],
      [
        "Ĝĝ",
        "ĜĜě"
      ],
      [
        "Ĕ",
        "ě"
      ],
      [
        "ĜĚ",
        "Ĝě"
      ],
      [
        "#",
        "ĝ"
      ],
      [
        "Ġ",
        "Ę"
      ],
      [
        "Ĕ",
        "ĝ"
      ],
      [
        "ĜĜĜĜĜĜĜĜ",
        "ĜĜĜ"
      ],
      [
        "ĜĜĜĜĜĝ",
        "ě"
      ],
      [
        "!",
        "Ğ"
      ],
      [
        "Ā",
        "ĝ"
      ],
      [
        "ĜĞ",
        "Ĝĝ"
      ],
      [
        "ĜĜĜě",
        "Ĝĝ"
      ],
      [
        "ĜĜĜĜĜĜĜĜ",
        "ĜĜĜĝ"
      ],
      [
        "ĜĜĜĜĜĝ",
        "ĝ"
      ],
      [
        "ĜĜĜĜĜĜĜĜ",
        "Ĝě"
      ],
      [
        "ĠĜĜĜĜĜĜ",
        "Ě"
      ],
      [
        "ĝĝ",
        "Ĝě"
      ],
      [
        "ĜĜĜĜĜĜĜĜ",
        "Ĝĝ"
      ],
      [
        "Ė",
        "ĜĜĜĜĜĜ"
      ],
      [
        "Ę",
        "ěĀ"
      ],
      [
        "ĜĜ",
        "%"
      ],
      [
        "ĜĜĜĜĜĜĜĜ",
        "ĜĜĜĜ"
      ],
      [
        "&",
        "ě"
      ],
      [
        "ĜĜĜĜĜĜĜĜ",
        "ĜĜĝ"
      ],
      [
        "ĜĜĜĜĜĜĜĜĜĜĜĜĜĜĜĜ",
        "ĜĜĜ"
      ],
      [
        "Ĝĝ",
        "Ğ"
      ],
      [
        "ĜĜĜĜĜĜĜĜ",
        "ĜĜĜě"
      ],
      [
        "Ě",
        "ĝě"
      ],
      [
        "ĜĜě",
        "ĜĜĜĝ"
      ],
      [
        "!",
        "ğ"
      ],
      [
        "Ĝ",
        ")"
      ],
      [
        "ĠĜĜĜĜĜĜė",
        "ĜĜĜĜĜĜ"
      ],
      [
        "Ğ",
        "ĜĜĜĜĜĜ"
      ],
      [
        "ĜĜĜĜě",
        "ĜĜĜĜĜĜĜĜĜĜĜĜĜĜĜĜĜĜĜĜĜĜĜĜĜĜĜĜĜĜĜĜ"
      ],
      [
        "ĜĜĝ",
        "ĜĜĜě"
      ],
      [
        "ĜĜĜĝ",
        "Ĝĝ"
      ],
      [
        "ĜĜĜĜĜĜĘĜĜĜĜĜĜ",
        "Ě"
      ],
      [
        "ĝ",
        "ę"
      ],
      [
        "Ė",
        "ĜĜĜĜĜĜĘĜĜĜĜĜĜĚ"
      ],
      [
        "ĕ",
        "Ě"
      ],
      [
        "Ė",
        "Ě"
      ],
      [
        "!",
        "ę"
      ],
      [
        "ė",
        "ę"
      ],
      [
        "ė",
        "ğ"
      ],
      [
        "\"",
        "Ě"
      ],
      [
        "ĜĜĜĜĜĜĘĜĜĜĜĜĜ",
        "ė"
      ],
      [
        "ĠĜĜĜĜĜĜ!",
        "ĜĜĜĜĜĜ"
      ],
      [
        "Ġ",
        "Ā"
      ],
      [
        "ĜĜĜĜĜĝ",
        "ĜĜĜĜĜĜĜĜĜĜĜĜĜĜĜĜĜĜĜĜĜĜĜĜĜĜĜĜĜĜĜĜ"
      ],
      [
        "#",
        "Ě"
      ],
      [
        "ĠĜĜĜĜĜĜ",
        "Ğ"
      ],
      [
        "Ē",
        "ě"
      ],
      [
        "ĝě",
        "Ĝě"
      ],
      [
        "ĜĜ",
        "ē"
      ],
      [
        "ę",
        "Ĝě"
      ],
      [
        "ĜĜĜĝ",
        "Ĝě"
      ],
      [
        "Ġ",
        "Ĝ"
      ],
      [
        "Ĕ",
        "Ā"
      ],
      [
        "ĖĜĜĜĜĜĜĜĜĜĜĜĜĜ",
        "!"
      ],
      [
        "ĜĜĜĜĜĜĜĜ",
        "ĜĜě"
      ],
      [
        "'",
        "ě"
      ],
      [
        "ĜĜ",
        "Ěě"
      ],
      [
        "ĜĜĝ",
        "ĜĜě"
      ],
      [
        "ĜĜĜĜĜĜě",
        "ĜĜĜĜĜĜĜĜĜĜĜĜĜĜĜĜĜĜĜĜĜĜĜĜĜ"
      ],
      [
        "Ğ",
        "ĜĜĜĜĜĜĘĜĜĜĜĜĜė"
      ],
      [
        "ěĜě",
        "ĜĜĜ"
      ],
      [
        "ě",
        "Ĝ"
      ],
      [
        "ĜĜĜĜĜĜě",
        "ĜĜĜĜĜĜĜĜĜĜĜĜĜĜĜĜĜĜĜĜĜĜĜĜĜĜĜĜĜĜĜĜ"
      ],
      [
        "!",
        "ĜĜĜĜĜĜĘ"
      ],
      [
        "Ġ",
        "8"
      ],
      [
        "Ğ",
        "ěĝ"
      ],
      [
        "Ę",
        "Ę"
      ],
      [
        "Ĝě",
        "Ě"
      ],
      [
        "ė",
        "ěĀ"
      ],
      [
        "\"",
        "ĜĜĜĜĜĜ"
      ],
      [
        "ĜĜĝ",
        "ĜĜĜĜĜĜĜĜĜĜĜĜĜĜĜĜĜĜĜĜĜĜĜĜĜĜĜĜĜĜĜĜĜĜ"
      ],
      [
        "Ğ",
        "Ā"
      ],
      [
        "ěě",
        "Ā"
      ],
      [
        "\"",
        "ę"
      ],
      [
        "ē",
        "ĝ"
      ],
      [
        "Ĝğ",
        "ě"
      ],
      [
        "ğ",
        "Ā"
      ],
      [
        "ĜĜĜĜĜĜĘĜĜĜĜĜĜ",
        "Ğ"
      ],
      [
        "Ĝě",
        "Ğ"
      ],
      [
        "$",
        "ĝ"
      ],
      [
        "Ĝę",
        "ĝ"
      ],
      [
        "\"",
        "ĜĜĜĜĜĜĘĜĜĜĜĜĜĞ"
      ],
      [
        "ĝĝ",
        "Ĝĝ"
      ],
      [
        "ė",
        "ĜĜĜĜĜĜĘ"
      ],
      [
        "ĜĜ",
        "Ğĝ"
      ],
      [
        "ĜĜĝ",
        "ĜĜĜĜĜĜĝ"
      ],
      [
        "ĜĜĜĜĜĜĜĜ",
        "Ĝ"
      ],
      [
        "ě",
        "Ę"
      ],
      [
        "Ĝğ",
        "ĝ"
      ],
      [
        "Ĝ",
        "Ă"
      ],
      [
        "\"",
        "Ğ"
      ],
      [
        "ğ",
        "Ĝě"
      ],
      [
        "Ġ",
        "ė"
      ],
      [
        "%",
        "ĝ"
      ],
      [
        "ĜĜĜĜĜĜĜĜ",
        "ĜĜĜĜě"
      ],
      [
        "!",
        "Ę"
      ],
      [
        "#",
        "ę"
      ],
      [
        "ĝě",
        "Ĝĝ"
      ],
      [
        "Ġ",
        "Ĝĝ"
      ],
      [
        "ĜĜ",
        "Ğě"
      ],
      [
        "ĕ",
        "Ğ"
      ],
      [
        "đ",
        "ě"
      ],
      [
        "Ě",
        "ĜĜĜĜĜĜ"
      ],
      [
        "ĜĜĜĜĜĜĜĜ",
        "ĜĜĜĜĝ"
      ],
      [
        "Ė",
        "ę"
      ],
      [
        "ĜĜě",
        "ĜĜĝ"
      ],
      [
        "ĝ",
        "Ĝ"
      ],
      [
        "ğ",
        "Ę"
      ],
      [
        "Ā",
        "Ğ"
      ],
      [
        "ěĀ",
        "ě"
      ],
      [
        ")",
        "ě"
      ],
      [
        "ĜĜě",
        "ěě"
      ],
      [
        "ĜĜ",
        "Ę"
      ],
      [
        "(",
        "ě"
      ],
      [
        "ĜĜĜě",
        "ĜĜĝ"
      ],
      [
        "Ĝĝ",
        "ĜĜĜĝ"
      ],
      [
        "ĜĜĜĜĜĜě",
        "ĜĜĜĜĜĜě"
      ],
      [
        "#",
        "Ğ"
      ],
      [
        "Ě",
        "ěĝ"
      ],
      [
        "Ě",
        "Ę"
      ],
      [
        "ĜĞ",
        "Ğ"
      ],
      [
        "ĕ",
        "ę"
      ],
      [
        "ď",
        "ě"
      ],
      [
        "ĜĜĜĜĜĜĘĜĜĜĜĜĜ",
        "!"
      ],
      [
        "$",
        "Ě"
      ],
      [
        "ğ",
        "Ĝĝ"
      ],
      [
        "ĜĜĜĜĜĜĜĜĜĜĜĜĜ",
        "ĖĜĜĜĜĜĜĜĜĜĜĜĜĜ!"
      ],
      [
        "Đ",
        "ě"
      ],
      [
        "ĘĜĜĜĜĜĜ",
        "!ĜĜĜĜĜĜĘ"
      ],
      [
        "ĜĚ",
        "Ğ"
      ],
      [
        "ĜĜĜĜĜĜĝ",
        "ĜĜĜĜĜĜĝ"
      ],
      [
        "Ğ",
        "Ĝ"
      ],
      [
        "ğ",
        "Ĝ"
      ],
      [
        "ē",
        "Ā"
      ],
      [
        "Ě",
        "Ĝ"
      ],
      [
        "ĜĜ",
        "Ěĝ"
      ],
      [
        "Ē",
        "ĝ"
      ],
      [
        "ĜĜĜĜĜĜ#ĜĜĜĜĜĜ",
        "ĖĜĜĜĜĜĜ"
      ],
      [
        "ěĝ",
        "Ě"
      ],
      [
        "#",
        "Ę"
      ],
      [
        "Ġ",
        "!"
      ],
      [
        "Ĝě",
        "ĜĜě"
      ],
      [
        "Ĝĝ",
        "ĜĜĜĜ"
      ],
      [
        "ĜĜĜĜĜĜ#ĜĜĜĜĜĜ",
        "ĞĜĜĜĜĜĜĘĜĜĜĜĜĜė"
      ],
      [
        "ĜĜĜĜĜĜĕĜĜĜĜĜĜ",
        "ĖĜĜĜĜĜĜĘĜĜĜĜĜĜĚ"
      ],
      [
        "\"",
        "ğ"
      ],
      [
        "ė",
        "Ę"
      ],
      [
        "\"",
        "Ę"
      ],
      [
        "Ĝę",
        "ě"
      ],
      [
        "ĘĜĜĜĜĜĜ",
        "ėĜĜĜĜĜĜĘ"
      ],
      [
        "Ď",
        "ě"
      ],
      [
        "ĜĜĜĜĜě",
        "ĜĜĜĜĜĜĜĜĜĜĜĜĜĜĜĜĜĜĜĜĜĜĜĜĜĜĜĜĜĜĜĜ"
      ],
      [
        "ę",
        "Ę"
      ],
      [
        "ĜĜĜĜĜĜĕĜĜĜĜĜĜ",
        "ĞĜĜĜĜĜĜ"
      ],
      [
        "\"ĜĜĜĜĜĜĜĜĜĜĜĜĜ",
        "ė"
      ],
      [
        "!",
        "Ĝ"
      ],
      [
        "Ė",
        "ğ"
      ],
      [
        "ĝ",
        "Ę"
      ],
      [
        "ĜĜĝ",
        "ĝě"
      ],
      [
        "ĜĜĜĜě",
        "ĜĜĜĜĜĜĜĜĜĜĜĜĜĜĜĜĜĜĜĜĜĜĜĜĜĜĜĜĜĜĜĜĜĜĜĜĜĜĜ"
      ],
      [
        "ć",
        "ě"
      ],
      [
        "Ğ",
        "ěě"
      ],
      [
        "ĜĜĜ",
        "%"
      ],
      [
        "Ĝě",
        "ĜĜĜě"
      ],
      [
        "ē",
        "ĜĜĜĜĜĜ"
      ],
      [
        "Ĕ",
        "ĜĜĜĜĜĜ#ĜĜĜĜĜĜĖĜĜĜĜĜĜ"
      ],
      [
        "Ě",
        "ěě"
      ],
      [
        "Ĝ",
        "đ"
      ],
      [
        "Ĕ",
        "Ğ"
      ],
      [
        "Ĕ",
        "ĜĜĜĜĜĜĕĜĜĜĜĜĜĖĜĜĜĜĜĜĘĜĜĜĜĜĜĚ"
      ],
      [
        "Ĕ",
        "Ě"
      ],
      [
        "ĜĞ",
        "Ĝě"
      ],
      [
        "#",
        "ğ"
      ],
      [
        "ĜĜĝ",
        "ĜĝĜĝ"
      ],
      [
        "ĕ",
        "ğ"
      ],
      [
        "Ė",
        "Ę"
      ],
      [
        "Ě",
        "ĜĚ"
      ],
      [
        "Ĝ",
        "."
      ],
      [
        "ĜĜĜĝ",
        "ĜĜě"
      ],
      [
        "ĝě",
        "ĜĜĜě"
      ],
      [
        "ĜĜ",
        "Ā"
      ],
      [
        "Ė",
        "ěĀ"
      ],
      [
        "Ġ",
        "Ĝě"
      ],
      [
        "ĜĜĝ",
        "ĜĜĜĜĜĜě"
      ],
      [
        "Ġ",
        "ěĝ"
      ],
      [
        "ĝĝ",
        "Ā"
      ],
      [
        "ĜĜě",
        "ĜěĜě"
      ],
      [
        "ĜĜĝ",
        "ĜĜĜĜĜĜĜĜĜĜĜĜĜĜĜĜĜĜĜĜĜĜĜĜĜĜĜĜĜĜĜĜĜĜĜĜĜĜĜĜĜĜĜĜĜĜ"
      ],
      [
        "ĜĜĜĜĜě",
        "ĜĜĜĜĜĜĜĜĜĜĜĜĜĜĜĜĜĜĜĜĜĜĜĜĜ"
      ],
      [
        "!",
        "Ā"
      ],
      [
        "*",
        "ě"
      ],
      [
        "Ğ",
        "Ę"
      ],
      [
        "ĜĜĜĝ",
        "ĜĜ"
      ],
      [
        "ę",
        "ĝě"
      ],
      [
        "Ě",
        "ĜĜĜĜĜĜĘĜĜĜĜĜĜ!"
      ],
      [
        "Ĕ",
        "ę"
      ],
      [
        "ė",
        "ė"
      ],
      [
        "Ġ",
        "ěĀ"
      ],
      [
        "Ě",
        "ĝĝ"
      ],
      [
        "ĝ",
        "ĜĜĜĜĜ"
      ],
      [
        "Ĝĝĝ",
        "Ĝě"
      ],
      [
        "ĜĜě",
        "ĜĜě"
      ],
      [
        "Ġ",
        "Ė"
      ],
      [
        "ĕ",
        "Ę"
      ],
      [
        "ė",
        "Ĝ"
      ],
      [
        "Ě",
        "Ĝę"
      ],
      [
        "Ġ",
        "ĜĞ"
      ],
      [
        "\"",
        "Ĝ"
      ],
      [
        ".",
        "ě"
      ],
      [
        "ĜĜĜĜĝ",
        "ĜĜĜĜĜĜĜĜĜĜĜĜĜĜĜĜĜĜĜĜĜĜĜĜĜĜĜĜĜĜĜĜĜĜ"
      ],
      [
        "ĜĜĝ",
        "ĜĜĝ"
      ],
      [
        "ĜĜĜĜ",
        "Ğ"
      ],
      [
        "Ē",
        "Ā"
      ],
      [
        "ĝ",
        "!"
      ],
      [
        "ĝĜĝ",
        "ĜĜĜ"
      ],
      [
        "Ě",
        "ĜĞ"
      ],
      [
        "Ĝĝ",
        "ĜĜĜě"
      ],
      [
        "ĜĜĜĜĜĜ",
        "ĖĜĜĜĜĜĜĜĜĜĜĜĜĜ"
      ],
      [
        "Ġ",
        "\""
      ],
      [
        "ĜĜĜě",
        "ĜĜ"
      ],
      [
        "ěĝ",
        "Ğ"
      ],
      [
        "!",
        "ė"
      ],
      [
        "Ĝĝ",
        "ĝě"
      ],
      [
        "%",
        "Ě"
      ],
      [
        "$",
        "Ğ"
      ],
      [
        "ĜĜĜĜĜĜě",
        "ĜĜĜĜĜĜĜĜĜĜĜĜĜĜĜĜĜĜĜĜĜĜĜĜĜĜĜĜĜĜĜ"
      ],
      [
        "Ą",
        "ě"
      ],
      [
        "Ĝě",
        "Ā"
      ],
      [
        "ĜĜĜĜĜĜĝ",
        "ĜĜĜĜĜĜĜĜĜĜĜĜĜĜĜĜĜĜĜĜĜĜĜĜĜ"
      ],
      [
        "Ĝě",
        "ĜĜĜĜ"
      ],
      [
        "ē",
        "Ě"
      ],
      [
        "ĜĜĜĜĝ",
        "ĜĜĜĜĜĜĜĜĜĜĜĜĜĜĜĜĜĜĜĜĜĜĜĜĜĜĜĜĜĜĜĜĜĜĜĜĜĜĜ"
      ],
      [
        "ĜĜĜĜ",
        "ĜĚ"
      ],
      [
        "Ĕ",
        "ğ"
      ],
      [
        "ę",
        "Ĝ"
      ],
      [
        "Ĉ",
        "ě"
      ],
      [
        "Ğ",
        "ĜĞ"
      ],
      [
        "Ĝě",
        "ěě"
      ],
      [
        "ĜĜĜĜĜĜĝ",
        "ĜĜĜĜĜĜĜĜĜĜĜĜĜĜĜĜĜĜĜĜĜĜĜĜ"
      ],
      [
        "ğ",
        "ĜĜĜĜĜĜ#ĜĜĜĜĜĜĞĜĜĜĜĜĜĘĜĜĜĜĜĜė"
      ],
      [
        "ĜĜě",
        "ĜĜĜĜĜĜĜĜĜĜĜĜĜĜĜĜĜĜĜĜĜĜĜĜĜĜĜĜĜĜĜĜĜĜ"
      ],
      [
        "ĝ",
        "ĜĞ"
      ],
      [
        "ĜĜ",
        "\""
      ],
      [
        "ĜĚ",
        "ĝě"
      ],
      [
        "Ē",
        "Ě"
      ],
      [
        "Ğ",
        "ĝĝ"
      ],
      [
        "Ĝĝ",
        "Ě"
      ],
      [
        "Ė",
        "Ĝ"
      ],
      [
        "Ġ",
        "ĕ"
      ],
      [
        "ĜĜě",
        "ěĝ"
      ],
      [
        "ěĝ",
        "ę"
      ],
      [
        "#",
        "Ĝ"
      ],
      [
        "Ĝě",
        "ĜĜĝ"
      ],
      [
        "ě",
        "ĝě"
      ],
      [
        "ğ",
        "!"
      ],
      [
        "ĜĚ",
        "Ě"
      ],
      [
        "ĜĜ",
        ")"
      ],
      [
        "%",
        "ĜĜĜĜĜĜ"
      ],
      [
        "Ğ",
        "ĝě"
      ],
      [
        "ğ",
        "ěĝ"
      ],
      [
        "ĜĜĜĜě",
        "ĜĜĜĜĜĜĜĜĜĜĜĜĜĜĜĜĜĜĜĜĜĜĜĜĜĜĜ"
      ],
      [
        "ğ",
        "ĜĜĜĜĜĜĕĜĜĜĜĜĜĞĜĜĜĜĜĜ"
      ],
      [
        "ē",
        "ę"
      ],
      [
        "Ě",
        "!"
      ],
      [
        "đ",
        "Ā"
      ],
      [
        "ĜĜĜĜ",
        "Ě"
      ],
      [
        "$",
        "ę"
      ],
      [
        "ĜĜĜĜĜĜě",
        "ĜĜĜĜĜĜĜĜĜĜĜĜĜĜĜĜĜĜĜĜĜĜĜĜ"
      ],
      [
        "ğ",
        "ĜĞ"
      ],
      [
        "#",
        "ė"
      ],
      [
        "ĜĜĜě",
        "ĜĜě"
      ],
      [
        "ě",
        "Ĝę"
      ],
      [
        "Ğ",
        "!"
      ],
      [
        "Ĝě",
        "ĜĜĜĝ"
      ],
      [
        "Ĝĝ",
        "ĜĜĝ"
      ],
      [
        "ĜĜĜĜĜĜĕĜĜĜĜĜĜ",
        "\"ĜĜĜĜĜĜĘĜĜĜĜĜĜĞ"
      ],
      [
        "\"",
        "!"
      ],
      [
        "Ē",
        "Ğ"
      ],
      [
        "Ġ",
        "Ĕ"
      ],
      [
        "ĜĜ",
        "$"
      ],
      [
        "Ĝĝ",
        "ěě"
      ],
      [
        "ĜĚ",
        "ěě"
      ],
      [
        "ĝĝ",
        "Ě"
      ],
      [
        "ě",
        "ĜĞ"
      ],
      [
        "$",
        "ğ"
      ],
      [
        "ĜĜĜĜĜĜ#ĜĜĜĜĜĜ",
        "\"ĜĜĜĜĜĜ"
      ],
      [
        "ĝě",
        "ĜĜĜĜĜĜĜĜĜĜĜĜĜĜĜĜĜĜĜĜĜĜĜĜĜĜĜĜĜĜĜ"
      ],
      [
        "ĜĜĜĝ",
        "ĜĜĝ"
      ],
      [
        "&",
        "Ě"
      ],
      [
        "ĜĜĜĜĜĜ",
        "ěĝ"
      ],
      [
        "ę",
        "!"
      ],
      [
        "ě",
        "ĕ"
      ],
      [
        "ĜĜĜ",
        "ę"
      ],
      [
        "ĜĜĜĜě",
        "ĜĜĜĜĜĜĜĜĜĜĜĜĜĜĜĜĜĜĜĜĜĜĜĜĜ"
      ],
      [
        "Ěĝ",
        "Ě"
      ],
      [
        "Ĝě",
        "ę"
      ],
      [
        "Ę",
        "Ĝ"
      ],
      [
        "ĝě",
        "ĜĜĝ"
      ],
      [
        "Ė",
        "ė"
      ],
      [
        "ě",
        "ĜĘ"
      ],
      [
        "ĜĜ",
        "ė"
      ],
      [
        "ĜĜĜĜ",
        "ěěĝ"
      ],
      [
        "+",
        "ě"
      ],
      [
        "đ",
        "ĝ"
      ],
      [
        "Ě",
        "ĜĘ"
      ],
      [
        "Ğ",
        "ė"
      ],
      [
        "ğ",
        "ěě"
      ],
      [
        "ĜĜĜĜĜĜě",
        "ĜĜĜĜĜĜĜĜĜĜĜĜĜĜĜĜĜĜĜĜĜĜĜĜĜĜĜ"
      ],
      [
        "#",
        "Ā"
      ],
      [
        "ě",
        "Ĝğ"
      ],
      [
        "ĜĜĜĜĜĜĝ",
        "ĜĜĜĜĜĜĜĜĜĜĜĜĜĜĜĜĜĜĜĜĜĜĜĜĜĜĜĜĜĜĜĜĜĜĜĜĜ"
      ],
      [
        "%",
        "ę"
      ],
      [
        "&",
        "ę"
      ],
      [
        "ĝĝ",
        "ĜĜě"
      ],
      [
        "ĜĚ",
        "Ĝĝ"
      ],
      [
        "ĜĜĜĜĜĜĝ",
        "ĜĜĜĜĜĜĜĜĜĜĜĜĜĜĜĜĜĜĜĜĜĜĜĜĜĜĜĜĜĜ"
      ],
      [
        "ĜĜĜĜĜĝ",
        "ĜĜĜĜĜĜĜĜĜĜĜĜĜĜĜĜĜĜĜĜĜĜĜĜĜĜĜĜĜĜĜ"
      ],
      [
        "ě",
        "Ė"
      ],
      [
        "ě",
        "ė"
      ],
      [
        "ĜĜĜĜ",
        "ĜĞ"
      ],
      [
        "Ĝěĝ",
        "Ĝě"
      ],
      [
        "$",
        "Ę"
      ],
      [
        "$",
        "Ĝ"
      ],
      [
        "ĝ",
        "Ĝğ"
      ],
      [
        "ěĝ",
        "Ę"
      ],
      [
        "ĝ",
        "\""
      ],
      [
        "!",
        "!"
      ],
      [
        "ĜĜĜĜĜĜĜĜĜĜĜĜĜĜĜĜ",
        "ĜĜĜĜĝ"
      ],
      [
        "ĝě",
        "Ě"
      ],
      [
        "ĜĜĜĜĜĜě",
        "ĜĜĜĜĜĜĜĜĜĜĜĜĜĜĜĜĜĜĜĜĜĜĜĜĜĜĜĜĜĜ"
      ],
      [
        "Ĕ",
        "Ę"
      ],
      [
        "ěě",
        "Ğ"
      ],
      [
        "đ",
        "Ě"
      ],
      [
        "ę",
        "ė"
      ],
      [
        "ě",
        "ĜĚ"
      ],
      [
        "Ĝ",
        "Ď"
      ],
      [
        "ğ",
        "ė"
      ],
      [
        "ĜĜĜĜĜĜě",
        "ĜĜĜĜĜĜĜĜĜĜĜĜĜĜĜĜĜĜĜĜĜĜĜĜĜĜĜĜĜĜĜĜĜĜĜĜĜ"
      ],
      [
        "ĜĜĞ",
        "Ĝĝ"
      ],
      [
        "&",
        "ĝ"
      ],
      [
        "Ğĝ",
        "Ě"
      ],
      [
        "ĜĜĝě",
        "ě"
      ],
      [
        "ě",
        "\""
      ],
      [
        "Ġ",
        "ěě"
      ],
      [
        "ĝě",
        "Ğ"
      ],
      [
        "ĜĜĜĜĜĜĝ",
        "ĜĜĜĜĜĜĜĜĜĜĜĜĜĜĜĜĜĜĜĜĜĜĜĜĜĜĜĜĜĜĜ"
      ],
      [
        "!",
        "Ė"
      ],
      [
        "Ğě",
        "Ĝě"
      ],
      [
        "ē",
        "Ğ"
      ],
      [
        "ĜĜ",
        "ď"
      ],
      [
        "ĜĜĜĜĜĜĝ",
        "ĜĜĜĜĜĜĜĜĜĜĜĜĜĜĜĜĜĜĜĜĜĜĜĜĜĜĜ"
      ],
      [
        "&",
        "Ę"
      ],
      [
        "Ā",
        "ĜĜĜĜĜĜĜĜĜĜĜĜĜĜĜĜĜĜĜĜĜĜĜĜĜĜĜĜĜĜĜĜĜĜĜĜĜĜĜĜĜĜĜĜĜĜĜĜĜ"
      ],
      [
        "ę",
        "Ĝĝ"
      ],
      [
        "Ě",
        "ė"
      ],
      [
        "Ĝě",
        "ěĝ"
      ],
      [
        "ĝĝ",
        "Ğ"
      ],
      [
        "#",
        "Ė"
      ],
      [
        "ĜĜĜĜě",
        "ĜĜĜĜĜĜĜĜĜĜĜĜĜĜĜĜĜĜĜĜĜĜĜĜĜĜĜĜĜĜĜĜĜĜ"
      ],
      [
        "ĜĘ",
        "ĝ"
      ],
      [
        "$",
        "ė"
      ],
      [
        "%",
        "Ę"
      ],
      [
        "ěě",
        "Ě"
      ],
      [
        "ĜĞ",
        "Ě"
      ],
      [
        "ą",
        "ě"
      ],
      [
        "Ğ",
        "\""
      ],
      [
        "ĝě",
        "ĜĜĜĝ"
      ],
      [
        "ěĝ",
        "ė"
      ],
      [
        "ĜĝĜĝ",
        "Ĝĝ"
      ],
      [
        "ĜĜĜĜĜĜĕĜĜĜĜĜĜ",
        "ĚĜĜĜĜĜĜ"
      ],
      [
        "#",
        "!"
      ],
      [
        "ĜĜĜě",
        "ĜĜĜĜĜĜĜĜĜĜĜĜĜĜĜĜĜĜĜĜĜĜĜĜĜĜĜĜĜĜĜĜĜĜĜĜĜĜĜ"
      ],
      [
        "ĜĜĜĜĜě",
        "ĜĜĜĜĜĜĜĜĜĜĜĜĜĜĜĜĜĜĜĜĜĜĜĜĜĜĜĜĜĜĜ"
      ],
      [
        "%",
        "Ĝ"
      ],
      [
        "Ġ",
        "ĝě"
      ],
      [
        "ĜĜĜ",
        "ē"
      ],
      [
        "ĜĜĜĜĜĜě",
        "ĜĜĜĜĜĜĝ"
      ],
      [
        "%",
        "ė"
      ],
      [
        "ĜĜ",
        "Ė"
      ],
      [
        "ĜĜě",
        "ĝě"
      ],
      [
        "ĜĜĝ",
        "Ĝĝě"
      ],
      [
        "ĜĚ",
        "ĜĚ"
      ],
      [
        "%",
        "Ğ"
      ],
      [
        "'",
        "Ě"
      ],
      [
        "Ġ",
        "#"
      ],
      [
        "ĜĜĝ",
        "ĝĝ"
      ],
      [
        "ĜĜĜĜĝ",
        "ĜĜĜĜĜĜĜĜĜĜĜĜĜĜĜĜĜĜĜĜĜĜĜĜĜĜĜĜĜĜĜĜĜ"
      ],
      [
        "Ĝę",
        "Ğ"
      ],
      [
        "ĜĜĝě",
        "ĝ"
      ],
      [
        "ě",
        "!"
      ],
      [
        "ĜĜĜĜĜĜĜĜĜĜĜĜĜĜĜĜ",
        "ĜĜĜĜě"
      ],
      [
        "ĜĜĜĜĜĜ",
        "ěě"
      ],
      [
        "ĜĜĜĜĝ",
        "ĜĜĜĜĜĜĜĜĜĜĜĜĜĜĜĜĜĜĜĜĜĜĜĜĜĜĜ"
      ],
      [
        "Ĝěě",
        "Ĝĝ"
      ],
      [
        "\"",
        "ė"
      ],
      [
        "Ġ",
        "Ěĝ"
      ],
      [
        "ĜĜ",
        "!"
      ],
      [
        "ĜĜ",
        "ĚĚ"
      ],
      [
        "ĜĜĜ",
        "Ěě"
      ],
      [
        "'",
        "Ę"
      ],
      [
        "'",
        "ĝ"
      ],
      [
        "Ď",
        "ĝ"
      ],
      [
        "\"",
        "Ė"
      ],
      [
        "Ē",
        "ğ"
      ],
      [
        "ę",
        "ěě"
      ],
      [
        "ĜĜě",
        "ĜĜĜĜĜĜĜĜĜĜĜĜĜĜĜĜĜĜĜĜĜĜĜĜĜĜĜ"
      ],
      [
        "ĜĜĜĜĜĜĜĜĜĜĜĜĜ",
        "\"ĜĜĜĜĜĜĜĜĜĜĜĜĜė"
      ],
      [
        "Ď",
        "Ě"
      ],
      [
        "Ĝ",
        "ć"
      ],
      [
        "ĜĜě",
        "Ě"
      ],
      [
        "\"ĜĜĜĜĜĜĜĜĜĜĜĜĜ",
        "ĘĜĜĜĜĜĜ!ĜĜĜĜĜĜĘ"
      ],
      [
        "$",
        "ĜĜĜĜĜĜĕĜĜĜĜĜĜ\"ĜĜĜĜĜĜĘĜĜĜĜĜĜĞ"
      ],
      [
        "&",
        "Ğ"
      ],
      [
        "ĕ",
        "ė"
      ],
      [
        "Ĝ",
        "Đ"
      ],
      [
        "Ġ",
        "ĝĝ"
      ],
      [
        "ĜĜĜĜĜě",
        "Ĝě"
      ],
      [
        "Ĝĝě",
        "Ĝĝ"
      ],
      [
        "ď",
        "ĝ"
      ],
      [
        "ĜĜĝ",
        "Ě"
      ],
      [
        "$",
        "Ė"
      ],
      [
        "-",
        "ě"
      ],
      [
        "ē",
        "ğ"
      ],
      [
        "Ĕ",
        "ěĀ"
      ],
      [
        "Ę",
        "ė"
      ],
      [
        "ğ",
        "ĝě"
      ],
      [
        "ĜĜě",
        "ĜĜĜĜĜĜě"
      ],
      [
        "ěĝ",
        "Ĝě"
      ],
      [
        "Ğě",
        "Ğ"
      ],
      [
        "ĜĜĜĜĜĜ#ĜĜĜĜĜĜ",
        "ĚĜĜĜĜĜĜĘĜĜĜĜĜĜ!"
      ],
      [
        "$",
        "ĜĜĜĜĜĜ#ĜĜĜĜĜĜ\"ĜĜĜĜĜĜ"
      ],
      [
        "/",
        "ě"
      ],
      [
        "ĕ",
        "ěĀ"
      ],
      [
        "ę",
        "ĜĚ"
      ],
      [
        ",",
        "ě"
      ],
      [
        "Ġ",
        "Ĝğ"
      ],
      [
        "ĝě",
        "ĜĜĜĜĜĜĜĜĜĜĜĜĜĜĜĜĜĜĜĜĜĜĜĜĜĜĜĜĜĜĜĜĜĜĜĜĜĜ"
      ],
      [
        "ĜĜĝ",
        "Ğ"
      ],
      [
        "ěĝ",
        "Ĝĝ"
      ],
      [
        "ĜĜĜĝ",
        "ĜĜĜĜĜĜĜĜĜĜĜĜĜĜĜĜĜĜĜĜĜĜĜĜĜĜĜĜĜĜĜĜĜĜ"
      ],
      [
        "#ĜĜĜĜĜĜ",
        "ĖĜĜĜĜĜĜ"
      ],
      [
        "\"",
        "Ā"
      ],
      [
        "*",
        "Ě"
      ],
      [
        "Ěĝ",
        "Ĝě"
      ],
      [
        "\"",
        "ĕ"
      ],
      [
        "Ę",
        "!"
      ],
      [
        "Ġ",
        "$"
      ],
      [
        "Ġ",
        "ē"
      ],
      [
        "ĜĜ",
        "ğě"
      ],
      [
        "ĜĜě",
        "Ĝěĝ"
      ],
      [
        "Ěĝ",
        "Ğ"
      ],
      [
        "\"ĜĜĜĜĜĜĜĜĜĜĜĜĜ",
        "ĘĜĜĜĜĜĜėĜĜĜĜĜĜĘ"
      ],
      [
        "ĜĜĜĜĝ",
        "ĜĜĜĜĜĜĜĜĜĜĜĜĜĜĜĜĜĜĜĜĜĜĜĜĜ"
      ],
      [
        "ě",
        "ĜĜĜĜĜ"
      ],
      [
        "ěě",
        "Ĝĝ"
      ],
      [
        "ĜĜĜĜĜĜě",
        "ĜĜĜĜĜĜĜĜĜĜĜĜĜĜĜĜĜĜ"
      ],
      [
        "%",
        "Ā"
      ],
      [
        "Ė",
        "!"
      ],
      [
        "Ę",
        "Ĝě"
      ],
      [
        "ĜĜĜĜĜĜ",
        "ĝĝ"
      ],
      [
        "ěĚ",
        "ěĀ"
      ],
      [
        "%",
        "ĜĜĜĜĜĜĜĜĜĜĜĜĜĖĜĜĜĜĜĜĜĜĜĜĜĜĜ!"
      ],
      [
        "ę",
        "ĕ"
      ],
      [
        "ĝ",
        "ė"
      ],
      [
        "Ġ",
        "ĜĚ"
      ],
      [
        "ā",
        "ě"
      ],
      [
        "Ė",
        "Ė"
      ],
      [
        "Ę",
        "ĝě"
      ],
      [
        "ę",
        "Ĝę"
      ],
      [
        "Ġ",
        "Ē"
      ],
      [
        "#",
        "ĕ"
      ],
      [
        "Ĝĝ",
        "ğ"
      ],
      [
        "ĜĞ",
        "ěĝ"
      ],
      [
        "Ğě",
        "Ě"
      ],
      [
        "Ğĝ",
        "Ğ"
      ],
      [
        "ĜěĜě",
        "Ĝě"
      ],
      [
        "Ĝė",
        "ĝ"
      ],
      [
        "ď",
        "Ě"
      ],
      [
        "Ę",
        "ěě"
      ],
      [
        "ĜĜě",
        "ĝĝ"
      ],
      [
        "ěĝ",
        "Ė"
      ],
      [
        "ĜĜĜĜĜě",
        "ĜĜĜĜĜĜĜĜĜĜĜĜĜĜĜĜĜĜĜĜĜĜĜĜĜĜĜ"
      ],
      [
        "ĜĜĜĜĜĝ",
        "ĜĜĜĜĜĜĜĜĜĜĜĜĜĜĜĜĜĜĜĜĜĜĜĜĜ"
      ],
      [
        "Ă",
        "ě"
      ],
      [
        "ğ",
        "\""
      ],
      [
        "ĜĜĜĜĜĜĝ",
        "ĜĜĜĜĜĜĜĜĜĜĜĜĜĜĜĜĜĜĜĜ"
      ],
      [
        "Ĝğ",
        "Ě"
      ],
      [
        "ěĜě",
        "Ā"
      ],
      [
        "#",
        "\""
      ],
      [
        "'",
        "ę"
      ],
      [
        "Ĕ",
        "ė"
      ],
      [
        "ĜĜĜĜĜĜĜĜĜĜĜĜĜĜĜĜĜĜĜĜĜĜĜĜĜĜĜĜĜĜĜĜ",
        "ĜĜĜĜĜĜĜĜĜĜĜĜĜĜĜĜ"
      ],
      [
        "ĜĜě",
        "ĜĜĜĜĜĜĜĜĜĜĜĜĜĜĜĜĜĜĜĜĜĜĜĜĜĜĜĜĜĜĜĜĜĜĜĜĜĜĜĜĜ"
      ],
      [
        "ĜĜĜĝ",
        "ĜĜĜĜĜĜĜĜĜĜĜĜĜĜĜĜĜĜĜĜĜĜĜĜĜĜĜ"
      ],
      [
        "Ěě",
        "Ě"
      ],
      [
        "Ěě",
        "Ğ"
      ],
      [
        "ĜĜěě",
        "Ĝĝ"
      ],
      [
        "Ć",
        "ě"
      ],
      [
        "Đ",
        "ĝ"
      ],
      [
        "ĜĜĜĜĜĜĜĜĜĜĜĜĜĜĜĜ",
        "ĜĜĜĜĜĜ"
      ],
      [
        "ěě",
        "Ĝě"
      ],
      [
        "$",
        "Ā"
      ],
      [
        "ă",
        "ě"
      ],
      [
        "ē",
        "Ę"
      ],
      [
        "ĜĜĜĝ",
        "ĜĜĜĜĜĜĜĜĜĜĜĜĜĜĜĜĜĜĜĜĜĜĜĜĜĜĜĜĜĜĜĜ"
      ],
      [
        "ěĀ",
        "ĜĜĜĜĜĜĜĜĜĜĜĜĜĜĜĜĜĜĜĜĜĜĜĜĜĜĜĜĜĜĜĜĜĜĜĜĜĜĜĜĜĜĜĜĜĜĜĜĜ"
      ],
      [
        "ĜĘ",
        "ě"
      ],
      [
        "(",
        "ĝ"
      ],
      [
        "đ",
        "Ğ"
      ],
      [
        "ĜĜĜĜ",
        "ĝĝĝ"
      ],
      [
        "Ĝě",
        "ğ"
      ],
      [
        "Ĝěĝ",
        "Ĝĝ"
      ],
      [
        "Ę",
        "ĜĚ"
      ],
      [
        "ĜĜĜĜ",
        "ěěě"
      ],
      [
        "ĜĜĜě",
        "ĜĜĜĜĜĜĜĜĜĜĜĜĜĜĜĜĜĜĜĜĜĜĜĜĜĜĜĜĜĜĜĜĜ"
      ],
      [
        "Ĝĝ",
        "ę"
      ],
      [
        "ĜĜĜĜĜĜě",
        "ĜĜĜĜĜĜĜĜĜĜĜĜĜĜĜĜĜĜĜĜĜĜĜ"
      ],
      [
        "ěĞ",
        "ěĀ"
      ],
      [
        "ĕĜĜĜĜĜĜ",
        "ĞĜĜĜĜĜĜ"
      ],
      [
        "Ĝ%",
        "ĜĜĜĜĜĜ"
      ],
      [
        "Ğ",
        "Ė"
      ],
      [
        "ĜĜĝ",
        "ĜĜĜĜĜĜĜĜĜĜ"
      ],
      [
        "ĝĝ",
        "ĝě"
      ],
      [
        "ĜĜĜě",
        "ěĝ"
      ],
      [
        "ěĝ",
        "ĜĜě"
      ],
      [
        "Ĝē",
        "ĜĜĜĜĜĜ"
      ],
      [
        "ĜĜ",
        "ęě"
      ],
      [
        "ĜĜ",
        "ğĝ"
      ],
      [
        "ĜĜĝ",
        "ĜĜĜĜĜĜĜĜĜĜĜĜĜĜĜĜĜĜĜĜĜĜĜĜĜĜĜĜĜĜĜĜĜĜĜĜ"
      ],
      [
        "ěě",
        "ěĀ"
      ],
      [
        "ĜĜĜĜĝ",
        "ĝě"
      ],
      [
        "#",
        "ē"
      ],
      [
        "ĕ",
        "!"
      ],
      [
        "ğ",
        "Ė"
      ],
      [
        "ĜĜĜĜě",
        "ĜĜĜĜĜĜĜĜĜĜĜĜĜĜĜĜĜĜĜĜĜĜĜĜĜĜ"
      ],
      [
        "ėĀ",
        "ĜĜĜĜĜĜĜĜĜĜĜĜĜĜĜĜĜĜĜĜĜĜĜĜĜĜĜĜĜĜĜĜĜĜĜĜĜĜĜĜĜĜĜĜĜĜĜĜĜ"
      ],
      [
        "\"",
        "\""
      ],
      [
        "ė",
        "ĝě"
      ],
      [
        "Ġ",
        "5"
      ],
      [
        "ĜĜĜĜĜĜĝ",
        "ĜĜĜĜĜĜĜĜĜĜĜĜĜĜĜĜĜĜĜĜĜĜĜ"
      ],
      [
        "ĜĜĜĜĜĝ",
        "ĜĜĜĜĜĜĜĜĜĜĜĜĜĜĜĜĜĜĜĜĜĜĜĜĜĜĜĜĜĜĜĜĜĜĜĜĜĜ"
      ],
      [
        "Ğĝ",
        "Ĝě"
      ],
      [
        "!",
        "ĜĞ"
      ],
      [
        "ē",
        "Ĝ"
      ],
      [
        "ĜĜĜĜ",
        "ĝěĝ"
      ],
      [
        "ĜĜě",
        "Ĝĝĝ"
      ],
      [
        "ĜĜĜě",
        "ĜĜĜĜĜĜĜĜĜĜĜĜĜĜĜĜĜĜĜĜĜĜĜĜĜĜĜĜĜĜĜĜ"
      ],
      [
        "Ğě",
        "Ĝĝ"
      ],
      [
        "\"",
        "Ĕ"
      ],
      [
        "&",
        "Ĝ"
      ],
      [
        "Đ",
        "Ě"
      ],
      [
        "ĕ",
        "Ĝ"
      ],
      [
        "Ė",
        "ĝě"
      ],
      [
        "Ě",
        "Ĝğ"
      ],
      [
        "ĜĜĜĜĜĜě",
        "Ĝě"
      ],
      [
        "Ā",
        "!"
      ],
      [
        "Ē",
        "Ĝ"
      ],
      [
        "ę",
        "ĝĝ"
      ],
      [
        "ĕĜĜĜĜĜĜ",
        "ĖĜĜĜĜĜĜĘĜĜĜĜĜĜĚ"
      ],
      [
        "Ē",
        "Ę"
      ],
      [
        "ę",
        "ěĀ"
      ],
      [
        "ğ",
        "ĝĝ"
      ],
      [
        "ĜĜĜĜĜě",
        "ĜĜĜĜĜĜĜĜĜĜĜĜĜĜĜĜĜĜĜĜĜĜĜĜĜĜĜĜĜĜĜĜĜ"
      ],
      [
        "#",
        "Ĕ"
      ],
      [
        "ę",
        "ĜĞ"
      ],
      [
        "ĜĜĜě",
        "ĜĜĜĜĜĜĜĜĜĜĜĜĜĜĜĜĜĜĜĜĜĜĜĜĜĜĜĜĜĜĜĜĜĜ"
      ],
      [
        "ĜĜĜĜě",
        "ĝĝ"
      ],
      [
        "ĜĜĜĜĜĝ",
        "ĜĜĜĜĜĜĜĜĜĜĜĜĜĜĜĜĜĜĜĜĜĜĜĜĜĜĜĜĜĜĜĜĜĜ"
      ],
      [
        "ĜĀ",
        "ě"
      ],
      [
        "ę",
        "ěĝ"
      ],
      [
        "Ě",
        "Ĝė"
      ],
      [
        "ĝ",
        "ĝě"
      ],
      [
        "ĜĜĜĝ",
        "ĝě"
      ],
      [
        "Ěě",
        "Ĝĝ"
      ],
      [
        "!",
        "ĕ"
      ],
      [
        "(",
        "Ě"
      ],
      [
        "ē",
        "ė"
      ],
      [
        "Ĕ",
        "Ĝ"
      ],
      [
        "ę",
        "ĜĖ"
      ],
      [
        "ĜĜĜĜĜĜě",
        "ĜĜĜĜĜĜĜĜĜĜĜĜĜĜĜĜĜĜĜĜĜĜĜĜĜĜ"
      ],
      [
        "ĜĜĜĜĜě",
        "ĜĜĜĜĜĜĜĜĜĜĜĜĜĜĜĜĜĜĜĜĜĜĜĜĜĜĜĜĜĜĜĜĜĜĜĜĜĜĜ"
      ],
      [
        "ĜĜĝĜĝ",
        "ĜĜĜĜĜĜĜĜĜĜĜĜĜĜĜĜĜĜĜĜĜĜĜĜĜĜĜĜĜĜĜĜ"
      ],
      [
        "$",
        "ĕ"
      ],
      [
        "ę",
        "Ğě"
      ],
      [
        "ĝ",
        "#"
      ],
      [
        "Ğ",
        "Ĝğ"
      ],
      [
        "ĜĜ",
        "ĞĚ"
      ],
      [
        "ĜĜĜĜě",
        "ĜĜĜĜĜĜĜĜĜĜĜĜĜĜĜĜĜĜĜĜĜĜĜĜĜĜĜĜĜĜĜ"
      ],
      [
        "ĜĜĜĜĜě",
        "ĜĜĜĜĜĜĜĜĜĜĜĜĜĜĜĜĜĜĜĜĜĜĜĜĜĜĜĜĜĜĜĜĜĜĜĜĜĜ"
      ],
      [
        "ĜĜĜĜĜĝ",
        "Ĝĝ"
      ],
      [
        "ĕĜĜĜĜĜĜ",
        "\"ĜĜĜĜĜĜĘĜĜĜĜĜĜĞ"
      ],
      [
        "$",
        "!"
      ],
      [
        "'",
        "ė"
      ],
      [
        "ĝ",
        "Ė"
      ],
      [
        "ĜĜ",
        "#"
      ],
      [
        "ĜĜĜĜĜĜ",
        "ĝě"
      ],
      [
        "ĜĜĜĜĜĜĝ",
        "ĜĜĜĜĜĜĜĜĜĜĜĜĜĜĜĜĜĜĜĜĜĜĜĜĜĜĜĜĜĜĜĜĜĜ"
      ],
      [
        "Ĝę",
        "Ĝě"
      ],
      [
        "Ĝ%",
        "ě"
      ],
      [
        "!",
        "Ĝĝ"
      ],
      [
        "'",
        "Ğ"
      ],
      [
        "Ā",
        "ğ"
      ],
      [
        "ĜĜĜĜĜĜĜĜ",
        "ĜĜĜĜĜĜĝ"
      ],
      [
        "ĜĜĜĝ",
        "ĜĜĜĜĜĜĜĜĜĜĜĜĜĜĜĜĜĜĜĜĜĜĜĜĜĜĜĜĜĜĜĜĜ"
      ],
      [
        "Ğĝ",
        "Ĝĝ"
      ],
      [
        "ęĝ",
        "Ě"
      ],
      [
        "ĝěĀ",
        "ĜĞ"
      ],
      [
        "Ď",
        "Ę"
      ],
      [
        "đ",
        "ę"
      ],
      [
        "Ē",
        "ė"
      ],
      [
        "Ė",
        "ĕ"
      ],
      [
        "ę",
        "ĜĜĜĜĜĜĕĜĜĜĜĜĜĚĜĜĜĜĜĜ"
      ],
      [
        "ĜĜĜĝ",
        "Ĝěě"
      ],
      [
        "ĜĜĜĜĜĜě",
        "ĜĜĜĜĜĜĜĜĜĜĜĜĜĜĜĜĜ"
      ],
      [
        "ĞĚ",
        "Ğ"
      ],
      [
        "ĜĜěĜě",
        "ĜĜĜĜĜĜĜĜĜĜĜĜĜĜĜĜĜĜĜĜĜĜĜĜĜĜĜĜĜĜĜĜ"
      ],
      [
        "ĜĜĜě",
        "ěě"
      ],
      [
        "ĜĜĜě",
        "ĜĜĜĜĜĜĜĜĜĜĜĜĜĜĜĜĜĜĜĜĜĜĜĜĜĜĜ"
      ],
      [
        "ĜĚ",
        "ĜĜĝ"
      ],
      [
        "ĜĜĜĜĜĝ",
        "ĜĜĜĜĜĜĜĜĜĜĜĜĜĜĜĜĜĜĜĜĜĜĜĜĜĜĜĜĜĜĜĜĜ"
      ],
      [
        "Ĝĝě",
        "Ĝě"
      ],
      [
        "ęĀ",
        "ĜĜĜĜĜĜĜĜĜĜĜĜĜĜĜĜĜĜĜĜĜĜĜĜĜĜĜĜĜĜĜĜĜĜĜĜĜĜĜĜĜĜĜĜĜĜĜĜĜ"
      ],
      [
        "!",
        "ěĀ"
      ],
      [
        "\"",
        "Ĝĝ"
      ],
      [
        "&",
        "ė"
      ],
      [
        "ě",
        "Ĝė"
      ],
      [
        "ě",
        "Ĝ!"
      ],
      [
        "Ġ",
        "ĜĜě"
      ],
      [
        "ĜĜĜĜĜĜĜĜĜĜĜĜĜĜĜĜ",
        "ĜĜě"
      ],
      [
        "ĜĜĜě",
        "ěĜĝ"
      ],
      [
        "ĜĜĜĜě",
        "ĜĜĜĜĜĜĜĜĜĜĜĜĜĜĜĜĜĜĜĜĜĜĜĜĜĜĜĜĜĜĜĜĜ"
      ],
      [
        "ĜĜĜĜĜĜě",
        "ĜĜĜĜĜĜĜĜĜĜĜĜĜĜĜĜĜĜĜĜĜĜĜĜĜĜĜĜĜĜĜĜĜĜĜĜĜĜ"
      ],
      [
        "#ĜĜĜĜĜĜ",
        "\"ĜĜĜĜĜĜ"
      ],
      [
        "ĖĀ",
        "ĜĜĜĜĜĜĜĜĜĜĜĜĜĜĜĜĜĜĜĜĜĜĜĜĜĜĜĜĜĜĜĜĜĜĜĜĜĜĜĜĜĜĜĜĜĜĜĜĜ"
      ],
      [
        "ĝ",
        "ĕ"
      ],
      [
        "Ġ",
        "đ"
      ],
      [
        "ĜĜĜĜ",
        "ĝěě"
      ],
      [
        "ĜĜĜ",
        "Ğĝ"
      ],
      [
        "ĜĜĜĝ",
        "ĜĜĜĜĜĜĜĜĜĜĜĜĜĜĜĜĜĜĜĜĜĜĜĜĜĜĜĜĜĜĜĜĜĜĜĜĜĜĜ"
      ],
      [
        "ĜĜĜĝ",
        "ĝĜě"
      ],
      [
        "ĜĜĝĝ",
        "Ĝě"
      ],
      [
        "$",
        "Ĕ"
      ],
      [
        "ğ",
        "ěĀ"
      ],
      [
        "Ěĝ",
        "ę"
      ],
      [
        "&",
        "ğ"
      ],
      [
        "ěĝ",
        "Ĝ"
      ],
      [
        "ěĝ",
        "ĜĀ"
      ],
      [
        "ĜĜĞ",
        "Ĝě"
      ],
      [
        "(",
        "ę"
      ],
      [
        "Ĕ",
        "!"
      ],
      [
        "Ğ",
        "ĜĚ"
      ],
      [
        "Ġ",
        "Ěě"
      ],
      [
        "Ĝĝ",
        "ěĀ"
      ],
      [
        "ĜĜĜĜĜĜě",
        "ĜĜĜĜĜĜĜĜĜĜĜĜĜĜĜĜĜĜĜĜĜĜĜĜĜĜĜĜĜĜĜĜĜĜĜĜĜĜĜ"
      ],
      [
        "ĕĜĜĜĜĜĜ",
        "ĚĜĜĜĜĜĜ"
      ],
      [
        "%",
        "ĕ"
      ],
      [
        "đ",
        "ğ"
      ],
      [
        "ē",
        "ěĀ"
      ],
      [
        "ė",
        "\""
      ],
      [
        "ė",
        "ĕ"
      ],
      [
        "Ĝ",
        "*"
      ],
      [
        "Ġ",
        "4"
      ],
      [
        "ĜĜĝ",
        "Ĝěě"
      ],
      [
        "ĜĜĜĜĜĜĝ",
        "ĜĜĜĜĜĜĜĜĜĜĜĜĜĜĜĜĜĜĜĜĜĜĜĜĜĜĜĜĜĜĜĜĜĜĜĜĜĜ"
      ],
      [
        "ĜĜĜĜĜĝ",
        "Ĝě"
      ],
      [
        "ĜĜĚ",
        "Ĝě"
      ],
      [
        "%",
        "ğ"
      ],
      [
        "Ē",
        "ę"
      ],
      [
        "ĜĜĝ",
        "ĜĜĜĜĜĜĜĜĜĜĜĜĜĜĜĜĜĜĜĜĜĜĜĜĜĜĜ"
      ],
      [
        "ĜĜĜ",
        "Ěĝ"
      ],
      [
        "ĜĜĜĜĜĜě",
        "ĜĜĜĜĜĜĜĜĜĜĜĜĜĜĜĜ"
      ],
      [
        "Ĝĝĝ",
        "ĝě"
      ],
      [
        "ē",
        "!"
      ],
      [
        "ė",
        "ĜĚ"
      ],
      [
        "Ę",
        "ĕ"
      ],
      [
        "ę",
        "ĜĘ"
      ],
      [
        "ĜĜě",
        "Ğ"
      ],
      [
        "ĜĜĜĜĜĜĝ",
        "Ĝĝ"
      ],
      [
        "ĘĀ",
        "ĜĜĜĜĜĜĜĜĜĜĜĜĜĜĜĜĜĜĜĜĜĜĜĜĜĜĜĜĜĜĜĜĜĜĜĜĜĜĜĜĜĜĜĜĜĜĜĜĜ"
      ],
      [
        "Đ",
        "Ğ"
      ],
      [
        "ğ",
        "ĜĚ"
      ],
      [
        "Ĝğ",
        "Ğ"
      ],
      [
        "!",
        "\""
      ],
      [
        "#",
        "#"
      ],
      [
        ".",
        "Ě"
      ],
      [
        "ę",
        "Ĝė"
      ],
      [
        "ĜĜĜě",
        "Ĝěĝ"
      ],
      [
        "ĜĞ",
        "ĝĝ"
      ],
      [
        "ĜĜĜĜĜě",
        "Ĝĝ"
      ],
      [
        "ĕ",
        "Ė"
      ],
      [
        "Ę",
        "Ė"
      ],
      [
        "Ę",
        "Ĝę"
      ],
      [
        "ę",
        "ĜĜĜĜĜĜ#ĜĜĜĜĜĜĚĜĜĜĜĜĜĘĜĜĜĜĜĜ!"
      ],
      [
        "ğ",
        "Ěĝ"
      ],
      [
        "Ġ",
        "ĝĞ"
      ],
      [
        "ĜĜ",
        "ĕ"
      ],
      [
        "ĜĜĝ",
        "ĜĜĜĜĜĜĜĜĜĜĜĜĜĜĜĜĜĜĜĜĜĜĜĜĜĜĜĜĜĜ"
      ],
      [
        "ĜĜĜĝ",
        "Ĝĝě"
      ],
      [
        "ĜĜĜĜě",
        "ĝě"
      ],
      [
        "ĜĜĜĜĝ",
        "ĜĜĜĜĜĜĜĜĜĜĜĜĜĜĜĜĜĜĜĜĜĜĜĜĜĜ"
      ],
      [
        "Ěě",
        "ĜĜě"
      ],
      [
        "ęě",
        "Ě"
      ],
      [
        "ć",
        "ĝ"
      ],
      [
        "ē",
        "ĝě"
      ],
      [
        "ė",
        "Ė"
      ],
      [
        "Ġ",
        "ĝĚ"
      ],
      [
        "ĜĜĝ",
        "ĜěĜě"
      ],
      [
        "ĜĜĜĜĜĜĝ",
        "ĜĜĜĜĜĜĜĜĜĜĜĜĜĜĜĜĜĜĜĜĜĜĜĜĜĜĜĜĜĜĜĜĜĜĜĜĜĜĜ"
      ],
      [
        "ĜĜĜĜĜĜĝ",
        "ĜĜĜĜĜĜĜĜĜĜĜĜĜĜĜĜĜĜĜĜĜĜĜĜĜĜ"
      ],
      [
        "ĜĘ",
        "ĜĜĜĜĜĜ"
      ],
      [
        "'",
        "Ĝ"
      ],
      [
        ")",
        "Ě"
      ],
      [
        ")",
        "ĝ"
      ],
      [
        "ĜĜ",
        "Ĕ"
      ],
      [
        "ĜĜĝ",
        "ĜĜĜĜĜĜĜĜĜĜĜĜĜĜĜĜĜĜĜĜĜĜĜĜĜĜĜĜĜĜĜĜĜĜĜĜĜ"
      ],
      [
        "ĜĜĜĝ",
        "ěĜĝ"
      ],
      [
        "ĜĜĜĜĜě",
        "ĜĜĜĜĜĜĜĜĜĜĜĜĜĜĜĜĜĜĜĜĜĜĜĜĜĜ"
      ],
      [
        "ĜĜĜĜĜĝ",
        "ĜĜĜĜĜĜĜĜĜĜĜĜĜĜĜĜĜĜĜĜĜĜĜĜĜĜĜĜĜĜĜĜĜĜĜĜĜ"
      ],
      [
        "Ěĝ",
        "Ĝĝ"
      ],
      [
        "Đ",
        "ė"
      ],
      [
        "đ",
        "Ĝ"
      ],
      [
        "ę",
        "Ė"
      ],
      [
        "ĜĜĜĜĜĜĜĜ",
        "ĜĜĜĜĜĜĜě"
      ],
      [
        "ĝě",
        "ĜĜě"
      ],
      [
        "ĜĜĝ",
        "ĜĜĜĜĜĜĜĜĜĜĜĜĜĜĜĜĜĜĜĜĜĜĜĜĜĜĜĜĜĜĜĜĜ"
      ],
      [
        "ĜĜĜĜĜĝ",
        "ĜĜĜĜĜĜĜĜĜĜĜĜĜĜĜĜĜĜĜĜĜĜĜĜĜĜĜ"
      ],
      [
        "Đ",
        "Ĝ"
      ],
      [
        "ě",
        "ĜĖ"
      ],
      [
        "Ġ",
        "Ğě"
      ],
      [
        "ĜĜĜ",
        "Ğě"
      ],
      [
        "Ĝğ",
        "Ĝĝ"
      ],
      [
        "Ĝěĝ",
        "Ě"
      ],
      [
        "ĜĜěě",
        "ĜĜě"
      ],
      [
        "ĜĜĜĜěĜě",
        "ĜĜĜĜĜĜĜĜĜĜĜĜĜĜĜĜĜĜĜĜĜĜĜĜĜĜĜĜĜĜ"
      ],
      [
        "ĜĜĜĜĝě",
        "ĜĜĜĜĜĜĜĜĜĜĜĜĜĜĜĜĜĜĜĜĜĜĜĜĜĜĜĜĜĜĜ"
      ],
      [
        "ĜĜĜĜĜĝě",
        "ĜĜĜĜĜĜĜĜĜĜĜĜĜĜĜĜĜĜĜĜĜĜĜĜĜĜĜĜĜĜĜ"
      ],
      [
        "Ā",
        "Ě"
      ],
      [
        "ě",
        "$"
      ],
      [
        "ĝ",
        "$"
      ],
      [
        "ĝ",
        "Ĝ!"
      ],
      [
        "Ğ",
        "ĕ"
      ],
      [
        "ğ",
        "ĕ"
      ],
      [
        "Ġ",
        "&"
      ],
      [
        "ĜĜĜĜĜĜ",
        "#"
      ],
      [
        "ĜĜĜ",
        "ğ"
      ],
      [
        "ĜĞ",
        "ĜĜě"
      ],
      [
        "ĜĜĜĜĝ",
        "ĜĜĜĜĜĜĜĜĜĜĜĜĜĜĜĜĜĜĜĜĜĜĜĜĜĜĜĜĜĜĜĜĜĜĜĜĜĜ"
      ],
      [
        "ĜĜĜĜĜĜĝ",
        "ĜĜĜĜĜĜĜĜĜĜĜĜĜĜĜĜĜĜĜĜĜĜĜĜĜĜĜĜĜĜĜĜĜ"
      ],
      [
        "Ěĝ",
        "Ę"
      ],
      [
        "\"",
        "ē"
      ],
      [
        "(",
        "ė"
      ],
      [
        "(",
        "Ę"
      ],
      [
        "+",
        "ę"
      ],
      [
        ",",
        "Ě"
      ],
      [
        "ė",
        "!"
      ],
      [
        "ė",
        "Ĝě"
      ],
      [
        "ğ",
        "Ĕ"
      ],
      [
        "ĜĜĜĜĜĜĜĜĜĜĜĜĜĜĜĜ",
        "Ĝĝ"
      ],
      [
        "ĝě",
        "ěě"
      ],
      [
        "ĜĜĜě",
        "Ĝĝĝ"
      ],
      [
        "ĜĜĜĝ",
        "ĝĝ"
      ],
      [
        "ĜĜĜĜĜĝ",
        "ĜĜĜĜĜĜĜĜĜĜĜĜĜĜĜĜĜĜĜĜĜĜĜĜ"
      ],
      [
        "ĚĚ",
        "Ğ"
      ],
      [
        "(",
        "ĕ"
      ],
      [
        "*",
        "Ę"
      ],
      [
        "Ě",
        "Ė"
      ],
      [
        "ě",
        "#"
      ],
      [
        "Ġ",
        "%"
      ],
      [
        "ĜĜĜĜĜĜĜĜ",
        "ĜĜĜĜĜĜĜĝ"
      ],
      [
        "ĜĜĝ",
        "ĜĜĜĜĜĜĜĜĜĜĜĜĜĜĜĜĜĜĜĜĜĜĜĜĜĜĜĜĜĜĜĜĜĜĜĜĜĜĜĜĜ"
      ],
      [
        "ĜĜĜ",
        "ď"
      ],
      [
        "ĜĜĜĜě",
        "ĜĜĜĜĜĜĜĜĜĜĜĜĜĜĜĜĜĜĜĜĜĜĜĜĜĜĜĜĜĜĜĜĜĜĜĜĜĜ"
      ],
      [
        "ĜĜĜĜĜĜĝ",
        "ĜĜĜĜĜĜĜĜĜĜĜĜĜĜĜĜĜĜ"
      ],
      [
        "Ĝę",
        "Ě"
      ],
      [
        "Ĝĝĝ",
        "Ĝĝ"
      ],
      [
        "ĜĜĝě",
        "Ĝĝ"
      ],
      [
        "'",
        "Ā"
      ],
      [
        "0",
        "0"
      ],
      [
        "ď",
        "Ā"
      ],
      [
        "Ē",
        "!"
      ],
      [
        "ĜĜĜĜĜĝ",
        "ĜĜĜĜĜĜĜĜĜĜĜĜĜĜĜĜĜĜĜĜĜĜĜĜĜĜ"
      ],
      [
        "%",
        "Ė"
      ],
      [
        "-",
        "/"
      ],
      [
        ".",
        "/"
      ],
      [
        "ĕ",
        "ĕ"
      ],
      [
        "Ę",
        "Ğě"
      ],
      [
        "Ğ",
        "#"
      ],
      [
        "ğ",
        "#"
      ],
      [
        "Ġ",
        "ğě"
      ],
      [
        "ĜĜ",
        "&"
      ],
      [
        "Ĝĝ",
        "Ę"
      ],
      [
        "ĜĜĝ",
        "ĜĚ"
      ],
      [
        "ĜĜĜĝ",
        "ĜĜĜĜĜĜĜĜĜĜĜĜĜĜĜĜĜĜĜĜĜĜĜĜĜĜĜĜĜĜ"
      ],
      [
        "Ěě",
        "Ĝě"
      ],
      [
        "ĜĜĚ",
        "Ĝĝ"
      ],
      [
        "ĘĜĜĜĜĜĜ",
        "!"
      ],
      [
        "\"",
        "#"
      ],
      [
        "Ė",
        "#"
      ],
      [
        "Ġ",
        "ęě"
      ],
      [
        "ĜĜĜĜĜĜĜĜĜĜĜĜĜĜĜĜ",
        "ě"
      ],
      [
        "ěě",
        "ĜĜě"
      ],
      [
        "ĝĝ",
        "ĜĜĝ"
      ],
      [
        "ĝĜĝ",
        "Ĝě"
      ],
      [
        "ěę",
        "ěĀ"
      ],
      [
        "ĕĀ",
        "ĜĜĜĜĜĜĜĜĜĜĜĜĜĜĜĜĜĜĜĜĜĜĜĜĜĜĜĜĜĜĜĜĜĜĜĜĜĜĜĜĜĜĜĜĜĜĜĜĜ"
      ],
      [
        "ĜĜĜĜĜĜĜĜĜĜĜĝ",
        "ĜĜĜĜĜĜĜĜĜĜĜĜĜĜĜĜĜĜĜĜĜĜĜĜĜĜĜĜĜĜĜĜ"
      ],
      [
        "\"",
        "ĜĞ"
      ],
      [
        "(",
        "Ā"
      ],
      [
        "Đ",
        "Ā"
      ],
      [
        "ğ",
        "Ĝğ"
      ],
      [
        "Ġ",
        "ęĝ"
      ],
      [
        "ĜĜ",
        "ęĝ"
      ],
      [
        "ĜĜĜĝ",
        "ěě"
      ],
      [
        "ĜĜĜĜĜĝ",
        "ĜĜĜĜĜĜĜĜĜĜĜĜĜĜĜĜĜĜĜĜĜĜĜĜĜĜĜĜĜĜĜĜĜĜĜĜĜĜĜ"
      ],
      [
        "ĞĚ",
        "Ā"
      ],
      [
        "#ĜĜĜĜĜĜ",
        "ĞĜĜĜĜĜĜĘĜĜĜĜĜĜė"
      ],
      [
        "ĜĜěĜĜĜ",
        "ĖĜĜĜĜĜĜĜĜĜĜĜĜĜ"
      ],
      [
        "*",
        "ę"
      ],
      [
        "*",
        "ĝ"
      ],
      [
        ",",
        "/"
      ],
      [
        "Ĉ",
        "ĝ"
      ],
      [
        "Ē",
        "ěĀ"
      ],
      [
        "Ĕ",
        "Ė"
      ],
      [
        "Ě",
        "ĜĖ"
      ],
      [
        "Ĝĝ",
        "ĜĚ"
      ],
      [
        "ĜĜĜĜĜĜ",
        "ĕ"
      ],
      [
        "ĜĜĝ",
        "ĜĜĜĜĜĜĜĜĜĜĜĜĜĜĜĜĜĜĜĜĜĜĜĜĜĜĜĜĜĜĜ"
      ],
      [
        "ĜĜĜĜĜě",
        "ĜĜĜĜĜĜĜĜĜĜĜĜĜĜĜĜĜĜĜĜĜĜĜĜĜĜĜĜĜĜĜĜĜĜ"
      ],
      [
        "Ġě",
        "Ğ"
      ],
      [
        "Ĝ\"",
        "ě"
      ],
      [
        "Ď",
        "ę"
      ],
      [
        "ĜĜĜĜĜĜĜĜĜĜĜĜĜĜĜĜ",
        "Ĝě"
      ],
      [
        "ĜĜě",
        "ĜĚ"
      ],
      [
        "ĜĜĜě",
        "ĝĝ"
      ],
      [
        "ĜĚ",
        "Ā"
      ],
      [
        "ĜĜĜĜĜě",
        "ĜĜĜĜĜĜĜĜĜĜĜĜĜĜĜĜĜĜĜĜĜĜĜĜ"
      ],
      [
        "ğě",
        "Ğ"
      ],
      [
        "Ĝē",
        "ě"
      ],
      [
        "Ĕ",
        "#"
      ],
      [
        "ĝ",
        "ĜĝĜĝ"
      ],
      [
        "ĜĜĜĜĜĜĜĜĜĜĜĜĜĜĜĜ",
        "ĜĜĝ"
      ],
      [
        "ĜĜě",
        "ĜĜĜĜĜĜĜĜĜĜĜĜĜĜĜĜĜĜĜĜĜĜĜĜĜĜĜĜĜĜĜĜĜĜĜĜĜĜĜĜĜĜĜ"
      ],
      [
        "ĜĜĜ",
        "Ę"
      ],
      [
        "ĜĜĜĝ",
        "ěĜě"
      ],
      [
        "ěĚ",
        "Ğ"
      ],
      [
        "Ĝė",
        "ě"
      ],
      [
        ")",
        "Ę"
      ],
      [
        "ď",
        "ę"
      ],
      [
        "ď",
        "Ĝ"
      ],
      [
        "Đ",
        "ğ"
      ],
      [
        "ę",
        "#"
      ],
      [
        "Ě",
        "Ğě"
      ],
      [
        "ĜĜě",
        "ĜĜĜĜĜĜĜĜĜĜĜĜĜĜĜĜĜĜĜĜĜĜĜĜĜĜĜĜĜĜ"
      ],
      [
        "ĜĜĝ",
        "ĜĞ"
      ],
      [
        "ěě",
        "ĜĜĜĜ"
      ],
      [
        "ĜĜĜ",
        "ĞĜĝ"
      ],
      [
        "ĜĜĜĜĝ",
        "ĜĜĜĜĜĜĜĜĜĜĜĜĜĜĜĜĜĜĜĜĜĜĜĜĜĜĜĜĜĜĜ"
      ],
      [
        "ğĝ",
        "Ğ"
      ],
      [
        "#ĜĜĜĜĜĜ",
        "ĚĜĜĜĜĜĜĘĜĜĜĜĜĜ!"
      ],
      [
        "ĜĜĜĜĝĜĝ",
        "ĜĜĜĜĜĜĜĜĜĜĜĜĜĜĜĜĜĜĜĜĜĜĜĜĜĜĜĜĜĜ"
      ],
      [
        "!",
        "Ĕ"
      ],
      [
        "(",
        "Ğ"
      ],
      [
        "Ė",
        "Ĝě"
      ],
      [
        "Ę",
        "#"
      ],
      [
        "ę",
        "Ĝğ"
      ],
      [
        "Ĝĝ",
        "Ĝěě"
      ],
      [
        "ĜĜĜĝ",
        "ěĝ"
      ],
      [
        "ĜĜĜĜĜĜě",
        "ĜĜĜĜĜĜĜĜĜĜĜĜĜĜĜĜĜĜĜĜ"
      ],
      [
        "ęě",
        "Ğ"
      ],
      [
        "ĜĖ",
        "ĜĜĜĜĜĜĜĜĜĜĜĜĜ"
      ],
      [
        "!",
        "ěĝ"
      ],
      [
        "%",
        "Ĕ"
      ],
      [
        "'",
        "Ė"
      ],
      [
        "'",
        "ğ"
      ],
      [
        "*",
        "Ė"
      ],
      [
        ".",
        "ĝ"
      ],
      [
        "ē",
        "ĜĜĜĜĜĜĜĜĜĜĜĜĜ\"ĜĜĜĜĜĜĜĜĜĜĜĜĜė"
      ],
      [
        "Ġ",
        "Ĝę"
      ],
      [
        "Ĝĝ",
        "ė"
      ],
      [
        "ĝě",
        "ğ"
      ],
      [
        "ěě",
        "ěĝ"
      ],
      [
        "ĜĜĜ",
        ")"
      ],
      [
        "ĜĜĜě",
        "ĝě"
      ],
      [
        "ěĝ",
        "ĚĀ"
      ],
      [
        "ĜĜĜĜě",
        "ĜĜĜě"
      ],
      [
        "ĜĜĜĜĜĜě",
        "Ĝĝ"
      ],
      [
        "Ĝ\"",
        "ĜĜĜĜĜĜĜĜĜĜĜĜĜ"
      ],
      [
        "ĜĜĜĜĜĜĜĝ",
        "ĜĜĜĜĜĜĜĜĜĜĜĜĜĜĜĜĜĜĜĜĜĜĜĜĜĜĜĜĜĜĜĜ"
      ],
      [
        "ĜĜĜĜĜĜĜĝ",
        "ĜĜĜĜĜĜĜĜĜĜĜĜĜĜĜĜĜĜĜĜĜĜĜĜ"
      ],
      [
        "ĜĜĜĜĜĜĜĜĜĜĜĜĜě",
        "ĜĜĜĜĜĜĜĜĜĜĜĜĜĜĜĜĜĜ"
      ],
      [
        "&",
        "Ā"
      ],
      [
        "'",
        "ĕ"
      ],
      [
        "Ď",
        "Ĝ"
      ],
      [
        "Ď",
        "Ğ"
      ],
      [
        "ď",
        "Ğ"
      ],
      [
        "ĕ",
        "#"
      ],
      [
        "Ę",
        "ěĝ"
      ],
      [
        "ĜĜ",
        "Ē"
      ],
      [
        "ĜĜě",
        "ĜĜĜĜĜĜĜĜĜĜĜĜĜĜĜĜĜĜĜĜĜĜĜĜĜĜĜĜĜĜĜĜĜĜĜĜĜ"
      ],
      [
        "ĜĜĝ",
        "ĜĜĜĜĜĜĜĜĜĜĜĜĜĜĜĜĜĜĜĜĜĜĜĜĜĜĜĜĜĜĜĜĜĜĜĜĜĜĜĜĜĜĜ"
      ],
      [
        "ĜĜĜĜĜĜě",
        "ĜĜĜ"
      ],
      [
        "Ěĝ",
        "Ā"
      ],
      [
        "Ĝĕ",
        "ě"
      ],
      [
        "ĜĜĜĜěĜě",
        "ĜĜĜĜĜĜĜĜĜĜĜĜĜĜĜĜĜĜĜĜĜĜĜĜĜĜĜĜĜĜĜĜĜĜĜĜĜ"
      ],
      [
        "ĜĜĝĜĜĜĝ",
        "ĜĜĜĜĜĜĜĜĜĜĜĜĜĜĜĜĜĜĜĜĜĜĜĜĜĜĜĜĜĜ"
      ],
      [
        "!",
        "#"
      ],
      [
        "&",
        "Ė"
      ],
      [
        "'",
        "Ĕ"
      ],
      [
        "Ą",
        "ĝ"
      ],
      [
        "Đ",
        "ę"
      ],
      [
        "ē",
        "ĜĜěĜĜĜ"
      ],
      [
        "Ğ",
        "$"
      ],
      [
        "ĜĜĜĜĜĜĜĜĜĜĜĜĜĜĜĜ",
        "ĝ"
      ],
      [
        "ĝĝ",
        "ę"
      ],
      [
        "ĜĞ",
        "ğ"
      ],
      [
        "ĜĜĜĜĜĜě",
        "ĜĜĜĜĜĜĜĜĜĜĜĜĜĜĜĜĜĜĜĜĜĜĜĜĜĜĜĜĜĜĜĜĜĜ"
      ],
      [
        "ĜĜĜĜĜĜě",
        "ĜĜĜĜĜĜĜĜĜĜĜĜĜĜĜĜĜĜĜĜĜĜĜĜĜĜĜĜĜĜĜĜĜ"
      ],
      [
        "Ěě",
        "ğ"
      ],
      [
        "ĜĖ",
        "ĝ"
      ],
      [
        "ĜĜěĝ",
        "ĜĜ"
      ],
      [
        "ĜĜĝĜě",
        "Ĝĝ"
      ],
      [
        "*",
        "Ā"
      ],
      [
        "Ď",
        "ė"
      ],
      [
        "ė",
        "#"
      ],
      [
        "Ě",
        "ĕ"
      ],
      [
        "ğ",
        "$"
      ],
      [
        "Ĝě",
        "ĜĚ"
      ],
      [
        "ĜĞ",
        "ĝě"
      ],
      [
        "ĜĞ",
        "ěě"
      ],
      [
        "ĜĜĜĜě",
        "ĜĜĜĜĜĜĜĜĜĜĜĜĜĜĜĜĜĜĜĜĜĜĜĜĜĜĜĜĜĜĜĜĜĜĜĜĜĜĜĜĜĜĜĜ"
      ],
      [
        "ĜĜĜĜĜě",
        "ĜĜĜĜĜĜĜĜĜĜĜĜĜĜĜĜĜĜĜĜĜĜĜĜĜĜĜĜĜĜĜĜĜĜĜĜĜ"
      ],
      [
        "ğĝ",
        "Ě"
      ],
      [
        "ĝĚ",
        "Ā"
      ],
      [
        "ěĜě",
        "Ĝĝ"
      ],
      [
        "ĜĜěě",
        "ĜĜĜĜĜĜĜĜĜĜĜĜĜĜĜĜĜĜĜĜĜĜĜĜĜĜĜĜĜĜĜĜĜ"
      ],
      [
        "ĜĜĜĜĝĜĝ",
        "ĜĜĜĜĜĜĜĜĜĜĜĜĜĜĜĜĜĜĜĜĜĜĜĜĜĜĜĜĜĜĜĜĜĜĜĜĜ"
      ],
      [
        "ĜĜĜĜĜĜĜĜĜĜĜĜĜĝ",
        "ĜĜĜĜĜĜĜĜĜĜĜĜĜĜĜĜĜĜ"
      ],
      [
        "ĜĜĜĜĜĜĜĜĜě",
        "ĜĜĜ"
      ],
      [
        "ĜĜĜĜĜĜĜĜĜĜĜě",
        "ĜĜĜĜĜĜĜĜĜĜĜĜĜĜĜĜĜĜĜĜĜĜĜĜĜ"
      ],
      [
        ")",
        "ė"
      ],
      [
        "ę",
        "\""
      ],
      [
        "Ġ",
        "ĞĚ"
      ],
      [
        "Ĝě",
        "ĝĝ"
      ],
      [
        "ĜĜě",
        "ĜĝĜě"
      ],
      [
        "ĜĜě",
        "ĝĜě"
      ],
      [
        "ĜĜĝ",
        "Ĝěĝ"
      ],
      [
        "ěĝ",
        "ĘĀ"
      ],
      [
        "ĜĜĜĜĜĜĝ",
        "Ĝě"
      ],
      [
        "ğě",
        "Ě"
      ],
      [
        "ĝěĀ",
        "Ĝĝ"
      ],
      [
        "ĜĜĜĜĝĜě",
        "ĜĜĜĜĜĜĜĜĜĜĜĜĜĜĜĜĜĜĜĜĜĜĜĜĜĜĜĜĜĜĜ"
      ],
      [
        "ēĜĜĜĜĜĜ",
        "ĔĜĜĜĜĜĜĕĜĜĜĜĜĜĖĜĜĜĜĜĜĘĜĜĜĜĜĜĚ"
      ],
      [
        "ēĜĜĜĜĜĜ",
        "ğĜĜĜĜĜĜ#ĜĜĜĜĜĜĞĜĜĜĜĜĜĘĜĜĜĜĜĜė"
      ],
      [
        "!",
        "$"
      ],
      [
        "&",
        "ĕ"
      ],
      [
        "2",
        "0"
      ],
      [
        "ć",
        "Ğ"
      ],
      [
        "Ġ",
        "Ğĝ"
      ],
      [
        "ĜĜĜĜĜĜĜĜĜĜĜĜĜĜĜĜ",
        "ĜĜĜĝ"
      ],
      [
        "ĜĜĝ",
        "ĜĜĜĜĜĜĜĜĜĜĜĜĜĜĜĜĜĜĜĜĜĜĜĜ"
      ],
      [
        "ĜĜĝ",
        "ĜĜĝĝ"
      ],
      [
        "ĜĜĜĝ",
        "Ĝĝĝ"
      ],
      [
        "ĜĜĜĜĜ",
        "Ę"
      ],
      [
        "ěĝ",
        "ğ"
      ],
      [
        "ěĀ",
        "ĝ"
      ],
      [
        "ĝěĀ",
        "ĜĜĜĜĜĜĜĜĜĜĜĜĜĜĜĜĜĜĜĜĜĜĜĜĜĜĜĜĜĜĜĜĜĜĜĜĜĜĜĜĜĜĜĜĜĜĜĜĜ"
      ],
      [
        "ĜĜĜĜĜĜĜĜĜĝ",
        "ĜĜĜĜĜĜĜĜĜĜĜĜĜĜĜĜĜĜĜĜĜĜĜĜĜĜĜ"
      ],
      [
        "%",
        "ĜĜěĜĜĜ"
      ],
      [
        "(",
        "Ĝ"
      ],
      [
        ")",
        "Ĝ"
      ],
      [
        "*",
        "ė"
      ],
      [
        "-",
        "Ě"
      ],
      [
        "Ď",
        "ğ"
      ],
      [
        "Ę",
        "Ĝĕ"
      ],
      [
        "ě",
        "%"
      ],
      [
        "Ġ",
        "6"
      ],
      [
        "Ġ",
        "Ĝĝě"
      ],
      [
        "ĜĜĜĜĜĜĜĜĜĜĜĜĜĜĜĜ",
        "ĜĜĜě"
      ],
      [
        "Ĝě",
        "Ė"
      ],
      [
        "Ĝě",
        "Ę"
      ],
      [
        "ěě",
        "ĝě"
      ],
      [
        "ĝěĀ",
        "Ĝğ"
      ],
      [
        "ĜĝĜě",
        "Ĝĝ"
      ],
      [
        "ĜĜĜĜĜĜĜĝ",
        "ĜĜĜĜĜĜĜĜĜĜĜĜĜĜĜĜĜĜĜĜĜĜĜĜĜĜĜĜĜĜĜ"
      ],
      [
        "ĜĜĜĜĝĜĝ",
        "ĜĜĜĜĜĜĜĜĜĜĜĜĜĜĜĜĜĜĜĜĜĜĜĜĜĜĜĜĜĜĜĜ"
      ],
      [
        "ĜĜĜ%",
        "ĜĜĜĜĜĜĜĜĜĜĜĜĜĖĜĜĜĜĜĜĜĜĜĜĜĜĜ!"
      ],
      [
        ")",
        "ę"
      ],
      [
        "*",
        "Ğ"
      ],
      [
        ".",
        "ę"
      ],
      [
        "ď",
        "ĜĜĜĜĜĜĖĜĜĜĜĜĜĜĜĜĜĜĜĜ"
      ],
      [
        "đ",
        "ěĀ"
      ],
      [
        "Ĕ",
        "ĕ"
      ],
      [
        "Ĕ",
        "ĝě"
      ],
      [
        "Ę",
        "Ĝĝ"
      ],
      [
        "Ě",
        "Ĝĕ"
      ],
      [
        "ĜĜě",
        "ĝĜĝ"
      ],
      [
        "ĝĝ",
        "ĜĜĜĜ"
      ],
      [
        "ĝĝ",
        "ĜĜĜĜĜĜĜĜĜĜĜĜĜĜĜĜĜĜĜĜĜĜĜĜĜĜĜĜĜĜĜĜĜĜĜĜĜ"
      ],
      [
        "ĜĜĜě",
        "Ĝěě"
      ],
      [
        "ĜĜĜě",
        "Ĝĝě"
      ],
      [
        "ĜĜĜĜĜĜĜĜĜĜĜĜĜĜĜĜĜĜĜĜĜĜĜĜĜĜĜĜĜĜĜĜĜĜĜĜĜĜĜĜ",
        "ĜĜĜĜĜĜĜ"
      ],
      [
        "ĜĜĞ",
        "ĜĝĜĝ"
      ],
      [
        "ĜĜĞ",
        "ĜĜĜĜĜĜĜĜĜĜĜĜĜĜĜĜĜĜĜĜĜĜĜĜĜĜĜĜĜĜĜĜĜĜĜĜĜĜĜĜĜĜĜĜĜĜ"
      ],
      [
        "ĜĜĜĜĜĜĜě",
        "ĜĜĜĜĜĜĜĜĜĜĜĜĜĜĜĜĜĜĜĜĜĜĜĜ"
      ],
      [
        "!",
        "ē"
      ],
      [
        "+",
        "Ě"
      ],
      [
        "ĕ",
        "\""
      ],
      [
        "Ę",
        "\""
      ],
      [
        "Ġ",
        "ĞĞ"
      ],
      [
        "ĜĜě",
        "Ĝĝě"
      ],
      [
        "ĜĜě",
        "ĜĝĜĝ"
      ],
      [
        "ěě",
        "ę"
      ],
      [
        "ĜĞ",
        "ĜĚ"
      ],
      [
        "ĜĜĜĜĜĜě",
        "ĜĜĜĜĜĜĜĜĜĜĜĜĜ"
      ],
      [
        "ĞĚ",
        "Ě"
      ],
      [
        "ěĞ",
        "ę"
      ],
      [
        "Ě",
        "\""
      ],
      [
        "Ġ",
        "("
      ],
      [
        "ĜĜĜĜ",
        "ĚĜě"
      ],
      [
        "ĜĜĜĜĜĜ",
        "\"ĜĜĜĜĜĜĜĜĜĜĜĜĜĘĜĜĜĜĜĜėĜĜĜĜĜĜĘ"
      ],
      [
        "ĜĜě",
        "ĜĜĝĝ"
      ],
      [
        "ĜĜě",
        "ĜĜĜĜĜĜĜĜĜĜĜĜĜĜĜĜĜĜĜĜĜĜĜĜĜĜĜĜĜĜĜĜĜĜĜĜ"
      ],
      [
        "ĜĜĜĝ",
        "ĜĜĜĜĜĜĜĜ"
      ],
      [
        "ĜĜĜĝ",
        "ĜĜĜĜĜĜĜĜĜĜĜĜĜĜĜĜĜĜĜĜĜĜĜĜĜĜĜĜĜĜĜĜĜĜĜĜĜĜĜĜ"
      ],
      [
        "ĜĞ",
        "ĜĞ"
      ],
      [
        "ěĝ",
        "ĕ"
      ],
      [
        "ĜĜĜĜĜĜĝ",
        "ĜĜĜĜĜĜĜĜĜĜĜĜĜĜĜĜĜ"
      ],
      [
        "Ĝěě",
        "Ĝě"
      ],
      [
        "ĜĀ",
        "ĝ"
      ],
      [
        "ĜĜěĜě",
        "ĝě"
      ],
      [
        "ĜĜĜĜĜĜĜĜĜĜĜĜĜĝ",
        "ĜĜĜĜĜĜĜĜĜĜĜĜĜĜĜĜĜĜĜĜ"
      ],
      [
        "!",
        "Ĝğ"
      ],
      [
        "*",
        "Ĝ"
      ],
      [
        ",",
        "Ę"
      ],
      [
        "Ė",
        "\""
      ],
      [
        "ğ",
        "%"
      ],
      [
        "Ġ",
        "1"
      ],
      [
        "ĜĜě",
        "ĜĜĝě"
      ],
      [
        "ĜĜĝ",
        "Ĝĝĝ"
      ],
      [
        "ĜĜĜĝ",
        "ĝĜĝ"
      ],
      [
        "ĜĜĜĜě",
        "ĜĜĜĜĜĜĜĜĝ"
      ],
      [
        "ěĀ",
        "Ĝĝ"
      ],
      [
        "Ěě",
        "ĝĝ"
      ],
      [
        "ęĝ",
        "Ğ"
      ],
      [
        "ĜĀ",
        "Ĝĝ"
      ],
      [
        "ĜĜĞ",
        "ěě"
      ],
      [
        "ĜĜĝĝ",
        "ĝě"
      ],
      [
        "ğĚ",
        "Ā"
      ],
      [
        "ĝěě",
        "Ĝĝ"
      ],
      [
        "ĜĜĜĜĜĜĜĜĜĝ",
        "ĜĜĜĜĜĜĜĜĜĜĜĜĜĜĜĜĜĜĜĜ"
      ],
      [
        "ĜĜ%",
        "ĜĜĜĜĜĜ"
      ],
      [
        ",",
        "ĝ"
      ],
      [
        "đ",
        "Ę"
      ],
      [
        "Ē",
        "\""
      ],
      [
        "ğ",
        "&"
      ],
      [
        "ğ",
        "ē"
      ],
      [
        "Ġ",
        "ĚĞ"
      ],
      [
        "ĜĜě",
        "ĜĜĜĜĜĜĜĜĜĜĜĜĜĜĜĜĜĜĜĜĜĜĜĜĜĜĜĜĜĜĜ"
      ],
      [
        "ěě",
        "Ė"
      ],
      [
        "ĜĜĜ",
        "ĚĚ"
      ],
      [
        "Ĝěĝ",
        "ĜĜĜĝ"
      ],
      [
        "Ĝěě",
        "Ě"
      ],
      [
        "ęĝ",
        "Ĝĝ"
      ],
      [
        "Ĝ!",
        "ě"
      ],
      [
        "ĘĀ",
        "ĝ"
      ],
      [
        "ĜĜĝĜĝ",
        "ěĝ"
      ],
      [
        "ĜĜĝĜě",
        "ĜĜĜĜĜĜĜĜĜĜĜĜĜĜĜĜĜĜĜĜĜĜĜĜĜĜĜĜĜĜĜĜĜĜĜĜĜĜĜĜĜĜĜĜ"
      ],
      [
        "ĜĜē",
        "ĜĜĜĜĜĜ"
      ],
      [
        "ĔĀ",
        "ĜĜĜĜĜĜĜĜĜĜĜĜĜĜĜĜĜĜĜĜĜĜĜĜĜĜĜĜĜĜĜĜĜĜĜĜĜĜĜĜĜĜĜĜĜĜĜĜĜ"
      ],
      [
        "ď",
        "ğ"
      ],
      [
        "Đ",
        "Ę"
      ],
      [
        "ē",
        "\""
      ],
      [
        "Ę",
        "ĝĚ"
      ],
      [
        "Ě",
        "#"
      ],
      [
        "Ĝě",
        "ĝě"
      ],
      [
        "Ěě",
        "ę"
      ],
      [
        "Ěĝ",
        "ė"
      ],
      [
        "Ĝę",
        "Ā"
      ],
      [
        "ĜĀ",
        "ĜĜĜĜĜĜĜĜĜĜĜĜĜĜĜĜĜĜĜĜĜĜĜĜĜĜĜĜĜĜĜĜĜĜĜĜĜĜĜĜĜĜĜĜĜĜĜĜĜ"
      ],
      [
        "ĜĜĞ",
        "ěĝ"
      ],
      [
        "ĜĜĚ",
        "ěě"
      ],
      [
        "ĜĖ",
        "ě"
      ],
      [
        "Ĝē",
        "ĜĜěĜĜĜ"
      ],
      [
        "ĜĜĜěě",
        "ĜĜĜĜĜĜĜĜĜĜĜĜĜĜĜĜĜĜĜĜĜĜĜĜĜĜĜĜĜĜĜĜ"
      ],
      [
        "Ĕĝ",
        "ĜĜĜĜĜ"
      ],
      [
        "(",
        "Ė"
      ],
      [
        "*",
        "ĕ"
      ],
      [
        "1",
        "0"
      ],
      [
        "Ą",
        "Ě"
      ],
      [
        "Đ",
        "!"
      ],
      [
        "đ",
        "ė"
      ],
      [
        "Ę",
        "ĜĘ"
      ],
      [
        "Ġ",
        "Ă"
      ],
      [
        "ĜĜ",
        "%ě"
      ],
      [
        "ĜĜĜ",
        "\""
      ],
      [
        "ĜĜĜ",
        "ĚĜě"
      ],
      [
        "ĜĜĜě",
        "ĜĜĜě"
      ],
      [
        "ĜĜĜě",
        "ĝĜĝ"
      ],
      [
        "ĜĜĜĜĜĝ",
        "ĜĜĜĜĜĜĜĜĜĜĜĜĜĜĜĜĜĜĜĜĜĜĜĜĜĜĜĜĜĜ"
      ],
      [
        "Ěě",
        "ĝě"
      ],
      [
        "Ĝę",
        "ĝě"
      ],
      [
        "Ğĝ",
        "ę"
      ],
      [
        "ěĞ",
        "Ę"
      ],
      [
        "ĝěĀ",
        "ě"
      ],
      [
        "ĜĜĜ%",
        "ĜĜĜĜĜĜ"
      ],
      [
        "+",
        "ĝ"
      ],
      [
        "/",
        "/"
      ],
      [
        "ć",
        "Ě"
      ],
      [
        "Ė",
        "ĜĚ"
      ],
      [
        "ĝ",
        "%"
      ],
      [
        "Ġ",
        "'"
      ],
      [
        "Ġ",
        ")"
      ],
      [
        "Ġ",
        "Đ"
      ],
      [
        "Ġ",
        "ĜĜěĜĜĜ"
      ],
      [
        "ĜĜĜĜ",
        "ĞĜĝ"
      ],
      [
        "ĜĜě",
        "ĜĜĜĜĜĜĜĜĜĜ"
      ],
      [
        "ĝĝ",
        "ğ"
      ],
      [
        "ĝĝ",
        "ĜĚ"
      ],
      [
        "ĜĜĜě",
        "ěěĝ"
      ],
      [
        "ĜĜĜĜĜĜě",
        "ĜĜĜĜĜĜĜĜĜĜĜ"
      ],
      [
        "Ĝę",
        "ĜĚ"
      ],
      [
        "Ĝĝĝ",
        "Ğ"
      ],
      [
        "Ĝĝě",
        "ĜĜĝ"
      ],
      [
        "ğĝ",
        "Ĝě"
      ],
      [
        "ĞĞ",
        "Ĝě"
      ],
      [
        "Ĝ%",
        "ĜĜĜĜĜĜĜĜĜĜĜĜĜĖĜĜĜĜĜĜĜĜĜĜĜĜĜ!"
      ],
      [
        "ĜĜĜĜĜĜĜě",
        "ĜĜĜĜĜĜĜĜĜĜĜĜĜĜĜĜĜĜĜĜĜĜĜĜĜĜĜĜĜĜĜ"
      ],
      [
        "ĘĜĜĜĜĜĜ",
        "ė"
      ],
      [
        "*",
        "ē"
      ],
      [
        ",",
        "ę"
      ],
      [
        "-",
        "."
      ],
      [
        "đ",
        "!"
      ],
      [
        "Ĕ",
        "\""
      ],
      [
        "Ę",
        "Ĝė"
      ],
      [
        "Ě",
        "$"
      ],
      [
        "Ĝ",
        "+"
      ],
      [
        "Ğ",
        "%"
      ],
      [
        "ğ",
        "Ē"
      ],
      [
        "ĜĜě",
        "ĜĜ"
      ],
      [
        "ĜĜĜĜě",
        "ĜĜĜĜĜĜĜĜ"
      ],
      [
        "ĜĘ",
        "Ğ"
      ],
      [
        "ĜĜğ",
        "Ĝĝ"
      ],
      [
        "ĜĜĜĜĜĜĜĜě",
        "ĜĜĜĜĜĜĜĜĜĜĜĜĜĜĜĜĜĜĜĜĜĜĜĜĜĜĜĜĜĜ"
      ],
      [
        "ĜĜĜĜĜĜĜĜě",
        "ĜĜĜĜĜĜĜĜĜĜĜĜĜĜĜĜĜĜĜĜĜĜĜ"
      ],
      [
        "ĜĜĜĜĜěĝ",
        "ĜĜĜĜĜĜĜĜĜĜĜĜĜĜĜĜĜĜĜĜĜĜĜĜĜĜĜĜĜĜĜ"
      ],
      [
        "&",
        "Ē"
      ],
      [
        ",",
        "Ē"
      ],
      [
        "/",
        "ę"
      ],
      [
        "ă",
        "Ě"
      ],
      [
        "ć",
        "ę"
      ],
      [
        "ĕ",
        "Ĕ"
      ],
      [
        "ĕ",
        "ĝě"
      ],
      [
        "Ġ",
        "ĜĜĚ"
      ],
      [
        "ěě",
        "ė"
      ],
      [
        "ěě",
        "Ę"
      ],
      [
        "ĜĜĜě",
        "ěĜě"
      ],
      [
        "ĜĞ",
        "Ĝĝě"
      ],
      [
        "ĜĜĜĜĝ",
        "ĜĜĜĜĜĜĜĜĜĜĜĜĜĜĜĜĜĜĜĜĜĜĜĜĜĜĜĜĜĜĜĜĜĜĜĜĜĜĜĜĜĜĜĜ"
      ],
      [
        "Ğĝ",
        "ğ"
      ],
      [
        "ĚĚ",
        "Ā"
      ],
      [
        "ĜĝĜĝ",
        "ĜĜĜĜĜĜĜĜĜĜĜĜĜĜĜĜĜĜĜĜĜĜĜĜĜĜĜĜĜĜĜĜĜĜĜĜĜĜĜ"
      ],
      [
        "ěĞ",
        "ğ"
      ],
      [
        "Ĝē",
        "ĝ"
      ],
      [
        "Ĝ!",
        "ĝ"
      ],
      [
        "ĜĜĝĜĝ",
        "ĜĜĜĜĜĜĜĜĜĜĜĜĜĜĜĜĜĜĜĜĜĜĜĜĜĜĜĜĜĜĜĜĜĜĜĜĜĜĜ"
      ],
      [
        "ĜĜĜĜĜĜĜĜĜĜĝ",
        "ĜĜĜĜĜĜĜĜĜĜĜĜĜĜĜĜĜĜĜĜĜĜĜĜĜĜĜĜĜĜĜĜ"
      ],
      [
        "!",
        "ĝě"
      ],
      [
        "&",
        "!"
      ],
      [
        "(",
        "!"
      ],
      [
        "đ",
        "\""
      ],
      [
        "ē",
        "#"
      ],
      [
        "Ę",
        "ĜĞ"
      ],
      [
        "Ġ",
        "Ĝĝĝ"
      ],
      [
        "ĜĜĝ",
        "ĜĜĜĜĜĜĜĜĜĜĜĜĜĜĜĜĜĜĜĜĜĜĜĜĜĜĜĜĜĜĜĜĜĜĜĜĜĜĜĜ"
      ],
      [
        "ěě",
        "ğ"
      ],
      [
        "ĜĜĜĝ",
        "ĜĜĜĝ"
      ],
      [
        "ĜĜĜĜĝ",
        "ĜĜĜĜĜĜĜĜĜĜĜĜĜĜĜĜĜĜĜĜ"
      ],
      [
        "ĜĜĜĜĜĜĝ",
        "ĜĜĜĜĜĜ"
      ],
      [
        "ęĝ",
        "ę"
      ],
      [
        "ĚĜě",
        "Ā"
      ],
      [
        "!",
        "ěĞ"
      ],
      [
        "\"",
        "$"
      ],
      [
        "\"",
        "%"
      ],
      [
        "#",
        "Ĝğ"
      ],
      [
        "Ć",
        "ĝ"
      ],
      [
        "Ď",
        "Ė"
      ],
      [
        "ď",
        "ė"
      ],
      [
        "ę",
        "$"
      ],
      [
        "Ĝ",
        "'"
      ],
      [
        "Ġ",
        "ğĚ"
      ],
      [
        "Ĝĝ",
        "ĜĜĜĜě"
      ],
      [
        "ĜĜĜĜĜĜ",
        "\"ĜĜĜĜĜĜĜĜĜĜĜĜĜĘĜĜĜĜĜĜ!ĜĜĜĜĜĜĘ"
      ],
      [
        "ĜĜě",
        "Ā"
      ],
      [
        "ĜĜĜě",
        "ĜĜĜĜĜĜĜĜ"
      ],
      [
        "ĜĚ",
        "ę"
      ],
      [
        "ĜĚ",
        "ĝĜě"
      ],
      [
        "ěĝ",
        "ėĀ"
      ],
      [
        "Ĝĝĝ",
        "Ě"
      ],
      [
        "ĚĚ",
        "Ě"
      ],
      [
        "Ęĝ",
        "Ę"
      ],
      [
        "Ęĝ",
        "ę"
      ],
      [
        "ęĀ",
        "ĝ"
      ],
      [
        "ĜĜĜĜĜĜĜě",
        "ĜĜĜĜĜĜĜĜĜĜĜĜĜĜĜĜĜĜĜĜĜĜĜĜĜ"
      ],
      [
        "ĜĜĜĜěĜě",
        "ĜĜĜĜĜĜĜĜĜĜĜĜĜĜĜĜĜĜĜĜĜĜĜĜĜĜĜĜĜĜĜĜ"
      ],
      [
        "ĜĜĜěĜě",
        "ĜĜĜĜĜĜĜĜĜĜĜĜĜĜĜĜĜĜĜĜĜĜĜĜĜĜĜĜĜĜĜĜ"
      ],
      [
        "ĜĜĜĝĜĝ",
        "ĜĜĜĜĜĜĜĜĜĜĜĜĜĜĜĜĜĜĜĜĜĜĜĜĜĜĜĜĜĜĜĜ"
      ],
      [
        "%",
        "ē"
      ],
      [
        ")",
        "Ğ"
      ],
      [
        ",",
        "."
      ],
      [
        "ą",
        "ĝ"
      ],
      [
        "Ę",
        "ěĚ"
      ],
      [
        "ę",
        "Ěĝ"
      ],
      [
        "ě",
        "ĝěĀ"
      ],
      [
        "Ġ",
        "+"
      ],
      [
        "Ġ",
        "-"
      ],
      [
        "Ĝě",
        "Ĝĝĝ"
      ],
      [
        "ĜĜĜĜĜĜ",
        "Ğ"
      ],
      [
        "ĝě",
        "ĝĝ"
      ],
      [
        "ĜĜě",
        "ěĜě"
      ],
      [
        "ĜĜĜě",
        "ĝĜě"
      ],
      [
        "ĜĜĜĜě",
        "ĜĚ"
      ],
      [
        "ĜĜĜĜě",
        "ĜĜĜĜĜĜĜĜĜĜĜĜĜĜĜĜĜĜ"
      ],
      [
        "ĜĜĜĜĜĜĝ",
        "ĜĜĜĜĜĜĜĜĜĜĜĜĜĜĜĜ"
      ],
      [
        "ğě",
        "Ĝĝ"
      ],
      [
        "Ġě",
        "Ĝě"
      ],
      [
        "ĜĜĝě",
        "ĝĜĝ"
      ],
      [
        "ĝĚ",
        "Ğ"
      ],
      [
        "ĜĜĜĝĝ",
        "ĝě"
      ],
      [
        "ĜĜĜĜěĝ",
        "ĜĜĜĜĜĜĜĜĜĜĜĜĜĜĜĜĜĜĜĜĜĜĜĜĜĜĜĜĜĜĜ"
      ],
      [
        "ĜĜĝĜĜĜĜĜĜĝ",
        "ĜĜĜĜĜĜĜĜĜĜĜĜĜĜĜĜĜĜĜĜĜĜĜĜĜĜĜ"
      ],
      [
        "&",
        "Đ"
      ],
      [
        "&",
        "đ"
      ],
      [
        "*",
        "Ĕ"
      ],
      [
        "+",
        "Ğ"
      ],
      [
        ".",
        "."
      ],
      [
        "đ",
        "#"
      ],
      [
        "Ě",
        "ē"
      ],
      [
        "Ġ",
        "ĜĜĜĝ"
      ],
      [
        "ĝě",
        "ěĝ"
      ],
      [
        "ĜĜě",
        "ĜĜĜĜĜĜĜĜĜĜĜĜĜĜĜĜĜĜĜĜĜĜĜĜĜĜĜĜĜĜĜĜĜĜĜĜĜĜĜĜ"
      ],
      [
        "ĜĜě",
        "Ĝěě"
      ],
      [
        "ĜĜě",
        "ĜĜĜĜĜĜĜĜĜĜĜĜĜĜĜĜĜĜĜĜĜĜĜĜĜĜĜĜĜĜĜĜĜ"
      ],
      [
        "ĜĜĝ",
        "ĜĜĜĜĜĜĜĜĜĜĜĜĜĜĜĜĜĜĜĜĜĜĜĜĜĜĜĜĜĜĜĜĜĜĜĜĜĜ"
      ],
      [
        "ěě",
        "ĝĜě"
      ],
      [
        "ĜĜĜě",
        "ĜĜĜĜĜĜĜĜĜĜĜĜĜĜĜĜĜĜĜĜĜĜĜĜĜĜĜĜĜĜĜĜĜĜĜĜĜĜĜĜ"
      ],
      [
        "ĜĜĜĜě",
        "Ĝ"
      ],
      [
        "ĜĜĜĜĜĜě",
        "ĜĜĜĜĜĜĜĜĜĜĜĜĜĜĜĜĜĜĜ"
      ],
      [
        "ĜĜĞ",
        "Ğ"
      ],
      [
        "ĜĜĞ",
        "ĝĝ"
      ],
      [
        "ĜĜĞ",
        "ĜĜĜĝ"
      ],
      [
        "ĜĝĜĝ",
        "ĜĜĜĜĜĜĜĜĜĜĜĜĜĜĜĜĜĜĜĜĜĜĜĜĜĜĜĜĜĜ"
      ],
      [
        "Ĝ%",
        "ĜĜěĜĜĜ"
      ],
      [
        "Ėĝ",
        "ĜĜĜĜĜĜĜĜĜĜĜĜ"
      ],
      [
        "ĜĜĜĜĜěě",
        "ĜĜĜĜĜĜĜĜĜĜĜĜĜĜĜĜĜĜĜĜĜĜĜĜĜĜĜĜĜĜĜĜĜ"
      ],
      [
        "'",
        "Ē"
      ],
      [
        "ď",
        "Ė"
      ],
      [
        "ď",
        "Ę"
      ],
      [
        "ē",
        "ĕ"
      ],
      [
        "ė",
        "Ĝę"
      ],
      [
        "Ę",
        "ĜĖ"
      ],
      [
        "ę",
        "Ĝĕ"
      ],
      [
        "Ě",
        "Ĕ"
      ],
      [
        "ě",
        "Ĕ"
      ],
      [
        "ě",
        "Ĝĕ"
      ],
      [
        "Ĝ",
        "("
      ],
      [
        "Ğ",
        "Ĕ"
      ],
      [
        "ĜĜě",
        "ěĚ"
      ],
      [
        "ĜĜĜě",
        "Ě"
      ],
      [
        "ĜĜĜě",
        "Ğ"
      ],
      [
        "ĜĜĜě",
        "ĜĜĜĜĜĜĜĜĜĜĜĜĜĜĜĜĜĜĜĜĜĜĜĜĜĜ"
      ],
      [
        "ĜĞ",
        "ĝĜě"
      ],
      [
        "ěĝ",
        "Ĕ"
      ],
      [
        "Ğě",
        "ĝĝ"
      ],
      [
        "ęě",
        "Ĝĝ"
      ],
      [
        "ěĜě",
        "ĜĜĝ"
      ],
      [
        "ĜĜěě",
        "ĝĝ"
      ],
      [
        "ĜĜěĜĜĜě",
        "ĜĜĜĜĜĜĜĜĜĜĜĜĜĜĜĜĜĜĜĜĜĜĜĜĜĜĜĜĜĜ"
      ],
      [
        "ĜĜĜĜĜĜĜĜĝ",
        "ĜĜĜĜĜĜĜĜĜĜĜĜĜĜĜĜĜĜĜĜĜĜĜ"
      ],
      [
        "ēě",
        "ĜĜĜĜĜ"
      ],
      [
        "ĜĜĜĜĜĜĜĜĜĜĝ",
        "ĜĜĜĜĜĜĜĜĜĜĜĜĜĜĜĜĜĜĜĜ"
      ],
      [
        "$",
        "\""
      ],
      [
        "$",
        "#"
      ],
      [
        "$",
        "ē"
      ],
      [
        "%",
        "$"
      ],
      [
        ")",
        "Ė"
      ],
      [
        "Ĉ",
        "Ğ"
      ],
      [
        "ę",
        "ĜĜĝ"
      ],
      [
        "ĝ",
        "Ĕ"
      ],
      [
        "ğ",
        "ĞĞ"
      ],
      [
        "Ġ",
        "Ą"
      ],
      [
        "Ġ",
        "ęĞ"
      ],
      [
        "ĜĜ",
        "ęĚ"
      ],
      [
        "ĝě",
        "ĝě"
      ],
      [
        "ĜĜě",
        "ĜĜĜĜĜĜĝ"
      ],
      [
        "ĜĜě",
        "ĜĜěě"
      ],
      [
        "ĜĜĜĝ",
        "Ĝěĝ"
      ],
      [
        "ĜĜĜĝ",
        "ĜĜĜĜĜĜĜĜĜĜĜĜĜĜĜĜĜĜĜĜĜĜĜĜĜĜĜĜĜĜĜĜĜĜĜĜĜĜĜĜĜĜĜĜ"
      ],
      [
        "ĜĚ",
        "ěĜĝ"
      ],
      [
        "ĜĞ",
        "Ā"
      ],
      [
        "ĜĜĜĜĜĜě",
        "ĜĜĜĜĜĜĜĜĜĜ"
      ],
      [
        "ĜĜĜĜĜě",
        "ĜĜĜĜĜĜĜĜĜĜĜĜĜĜĜĜĜĜ"
      ],
      [
        "ĜĜĜĜĜĝ",
        "ĜĜĜĜĜĜĜĜĜĜĜĜĜĜĜĜĜĜ"
      ],
      [
        "Ěĝ",
        "Ė"
      ],
      [
        "Ĝę",
        "ěě"
      ],
      [
        "Ĝę",
        "ěĀ"
      ],
      [
        "Ĝěě",
        "ĜĜĜ"
      ],
      [
        "Ĝĝě",
        "Ğ"
      ],
      [
        "ĜĘ",
        "Ā"
      ],
      [
        "ĠĚ",
        "Ā"
      ],
      [
        "ėĝ",
        "Ā"
      ],
      [
        "ĜĜĝĜĝ",
        "ĜĜĜĜĜĜĜĜĜĜĜĜĜĜĜĜĜĜĜĜĜĜĜĜĜĜĜĜĜĜĜĜĜĜĜĜĜĜĜĜĜĜĜĜ"
      ],
      [
        "ĜĜĜĜěĜĝ",
        "ĜĜĜĜĜĜĜĜĜĜĜĜĜĜĜĜĜĜĜĜĜĜĜĜĜĜĜĜĜĜĜ"
      ],
      [
        "ĜĜĜĜĜĜĜĜĜě",
        "ĜĜĜĜĜĜĜĜĜĜĜĜĜĜĜĜĜĜĜĜĜĜĜĜĜĜĜ"
      ],
      [
        "!",
        "ěě"
      ],
      [
        "\"",
        "ěĞ"
      ],
      [
        ")",
        "Ā"
      ],
      [
        ",",
        "ė"
      ],
      [
        "/",
        "."
      ],
      [
        "Ē",
        "ĝě"
      ],
      [
        "ė",
        "Ĝė"
      ],
      [
        "ğ",
        "Ğě"
      ],
      [
        "ğ",
        "Ğĝ"
      ],
      [
        "Ġ",
        "ć"
      ],
      [
        "Ġ",
        "Ď"
      ],
      [
        "Ġ",
        "ĜĜĝ"
      ],
      [
        "ĜĜ",
        "."
      ],
      [
        "Ĝě",
        "!"
      ],
      [
        "Ĝě",
        "ĕ"
      ],
      [
        "Ĝě",
        "Ĝ"
      ],
      [
        "ĜĜĝ",
        "ĜĜěĝ"
      ],
      [
        "ĜĜĝ",
        "ĜĜĜĜĜĜĜĜĜĜĜĜĜĜĜĜĜĜĜĜĜĜĜĜĜĜĜĜĜ"
      ],
      [
        "ěě",
        "Ěĝ"
      ],
      [
        "ĜĜĜ",
        "ė"
      ],
      [
        "ĜĚ",
        "ğ"
      ],
      [
        "ěĝ",
        "ĞĀ"
      ],
      [
        "ĜĜĜĜě",
        "ĜĜĜĜĜĜĜĜĜĜĜĜĜĜĜĜĜĜĜĜĜĜĜĜĜĜĜĜĜĜĜĜĜĜĜĜĜĜĜĜĜ"
      ],
      [
        "ĜĜĜĜĝ",
        "ĜĜĜĜĜĜĜĜĜĜĜĜĜĜĜĜĜĜĜĜĜĜĜĜĜĜĜĜĜĜĜĜĜĜĜĜĜĜĜĜĜ"
      ],
      [
        "ĜĜĜĜĝ",
        "ĜĜĜĜĜĜĝĜĜĜĜĜĜĜĜĜĜĜĜĜĜĜĜĜĜĜĜĜĜĜĜĜĜĜĜĜĜĜĜ"
      ],
      [
        "ęě",
        "Ę"
      ],
      [
        "Ġě",
        "Ě"
      ],
      [
        "Ęĝ",
        "Ā"
      ],
      [
        "ęĚ",
        "Ā"
      ],
      [
        "ĜĜĜĝĝ",
        "ĜĜĜĜĜĜĜĜĜĜĜĜĜĜĜĜĜĜĜĜĜĜĜĜĜĜĜĜĜĜĜĜ"
      ],
      [
        "ĜĜĜĜĝĜĝ",
        "ĜĜĜĜĜĜĜĜĜĜĜĜĜĜĜĜĜĜĜĜĜĜĜĜĜ"
      ],
      [
        "ĜĜĜĜĜĜĜĜĜĜĜĜĜĝ",
        "ĜĜĜĜĜĜĜĜĜĜĜĜĜĜĜĜĜĜĜĜĜĜĜĜĜĜĜĜĜĜĜĜ"
      ],
      [
        "ĜĜĜĜĜĜĜĜĝ",
        "ĜĜĜĜĜĜĜĜĜĜĜĜĜĜĜĜĜĜĜĜĜĜĜĜĜĜĜĜĜĜĜĜ"
      ],
      [
        "ĜĜĜĜĜěĝ",
        "ĜĜĜĜĜĜĜĜĜĜĜĜĜĜĜĜĜĜĜĜĜĜĜĜ"
      ],
      [
        "ĜĜĜĜěĝ",
        "ĜĜĜĜĜĜĜĜĜĜĜĜĜĜĜĜĜĜĜĜĜĜĜĜĜĜĜĜĜĜĜĜĜĜĜĜĜĜ"
      ],
      [
        "#",
        "ěĝ"
      ],
      [
        "(",
        "đ"
      ],
      [
        ")",
        "đ"
      ],
      [
        "-",
        "ė"
      ],
      [
        "ą",
        "Ě"
      ],
      [
        "Ē",
        "Ė"
      ],
      [
        "Ė",
        "Ğě"
      ],
      [
        "ė",
        "ĜĀ"
      ],
      [
        "ě",
        "Ğě"
      ],
      [
        "ě",
        "ĞĚ"
      ],
      [
        "Ġ",
        "."
      ],
      [
        "Ġ",
        "ă"
      ],
      [
        "Ġ",
        "ĚĚ"
      ],
      [
        "Ġ",
        "ĝĜĝ"
      ],
      [
        "ĜĜĝ",
        "ĝĜĝ"
      ],
      [
        "ĜĜĜĜĜĜĝ",
        "ĜĜĜĜĜĜĜĜĜĜ"
      ],
      [
        "Ğě",
        "ĜĞ"
      ],
      [
        "Ĝěě",
        "ĝĝ"
      ],
      [
        "Ĝĝě",
        "ĜĜĜ"
      ],
      [
        "Ĝĝě",
        "ĜĜĜĜĜĜĜĜĜĜĜĜĜĜĜĜĜĜĜĜĜĜĜĜĜĜĜĜĜĜĜ"
      ],
      [
        "ęě",
        "ę"
      ],
      [
        "ĜĘ",
        "ěĀ"
      ],
      [
        "ĜĜĜĜĜĜĜĜě",
        "ĜĜĜĜĜĜĜĜĜĜĜĜĜĜĜĜĜĜĜĜĜĜĜĜ"
      ],
      [
        "ĜĜĜĜĜĜĜĜĜĜĜě",
        "ĜĜĜĜĜĜĜĜĜĜĜĜĜĜĜĜĜĜ"
      ],
      [
        "$",
        "Ē"
      ],
      [
        ",",
        "ē"
      ],
      [
        "-",
        "ę"
      ],
      [
        "Ă",
        "ĝ"
      ],
      [
        "Đ",
        "\""
      ],
      [
        "ė",
        "Ğě"
      ],
      [
        "Ę",
        "Ĕ"
      ],
      [
        "ę",
        "Ĕ"
      ],
      [
        "ĝ",
        "Ĝ\""
      ],
      [
        "Ġ",
        "ĜĜ"
      ],
      [
        "Ġ",
        "ğĝ"
      ],
      [
        "Ġ",
        "ĜĜĝĜĜĜ"
      ],
      [
        "ĜĜĜĜĜĜ",
        "%ĜĜĜĜĜĜ"
      ],
      [
        "ĜĜĝ",
        "ĜĜĜĜĜĜĜĜĜĜĜĜĜĜĜĜĜĜĜĜ"
      ],
      [
        "ĜĜĜě",
        "ĜěĜě"
      ],
      [
        "ĜĜĜĝ",
        "Ğ"
      ],
      [
        "ĜĜĜĝ",
        "ĜĜĜĜĜĜĜĜĜĜĜĜĜĜĜĜĜĜĜĜĜĜĜĜĜĜ"
      ],
      [
        "ěĝ",
        "ĝě"
      ],
      [
        "ĜĜĜĜĜĜĝ",
        "ĜĜĜĜĜĜĜĜĜĜĜĜĜ"
      ],
      [
        "ĜĜĜĜĜě",
        "ĜĜĜĜĜĜĜĜĜĜĜĜĜĜĜĜĜĜĜĜĜĜĜĜĜĜĜĜĜĜ"
      ],
      [
        "ĜĘ",
        "Ě"
      ],
      [
        "ĞĚ",
        "Ĝě"
      ],
      [
        "ěĜě",
        "ĝě"
      ],
      [
        "ĜĜĜĜĜĜĜĝ",
        "ĜĜĜĜĜĜĜĜĜĜĜĜĜĜĜĜĜĜĜĜĜĜĜĜĜĜĜĜĜĜ"
      ],
      [
        "ĘĜĜĜĜĜĜ",
        "Ğ"
      ],
      [
        "ĜĜĜĝĝ",
        "ĜĜĜĜĜĜĜĜĜĜĜĜĜĜĜĜĜĜĜĜĜĜĜĜĜĜĜĜĜĜĜĜĜ"
      ],
      [
        "ĜĜĜĜĜĜĜĜĜĜĜĜĜĝ",
        "ĜĜĜĜĜĜĜĜĜĜĜĜĜ"
      ],
      [
        "ĜĜĜĜĝě",
        "ĜĜĜĜĜĜĜĜĜĜĜĜĜĜĜĜĜĜĜĜĜĜĜĜĜĜĜĜĜĜĜĜĜĜĜĜĜĜ"
      ],
      [
        "Ĝď",
        "ě"
      ],
      [
        "ĜĜĜĜĜĝĝ",
        "ĜĜĜĜĜĜĜĜĜĜĜĜĜĜĜĜĜĜĜĜĜĜĜĜĜĜĜĜĜĜĜĜ"
      ],
      [
        "!",
        "Ē"
      ],
      [
        "!",
        "ęĝ"
      ],
      [
        "#",
        "ĝĝ"
      ],
      [
        "(",
        "ğ"
      ],
      [
        "+",
        "Ĝ"
      ],
      [
        "-",
        "ĝ"
      ],
      [
        "/",
        "Ě"
      ],
      [
        "Ĉ",
        "Ě"
      ],
      [
        "đ",
        "Ė"
      ],
      [
        "ė",
        "ğě"
      ],
      [
        "Ę",
        "Ē"
      ],
      [
        "Ę",
        "ĝĞ"
      ],
      [
        "ę",
        "Ĝ!"
      ],
      [
        "ę",
        "ĜĔ"
      ],
      [
        "Ě",
        "Ĝ!"
      ],
      [
        "Ġ",
        "*"
      ],
      [
        "Ġ",
        "ā"
      ],
      [
        "ĜĜĝ",
        "ĜĜĝě"
      ],
      [
        "ěě",
        "ĜĀ"
      ],
      [
        "ĜĚ",
        "ĝĜĝ"
      ],
      [
        "ĜĜĜĜĝ",
        "ĜĜĜĜĜĜĜĜĜĜĜĜĜĜĜĜĜĜĜĜĜĜĜĜĜĜĜĜĜĜĜĜĜĜĜĜ"
      ],
      [
        "ĜĜĜĜĝ",
        "ĜĜĜĜĜĜĜĜĜĜĜĜĜĜĜĜĜĜ"
      ],
      [
        "Ĝğ",
        "Ĝě"
      ],
      [
        "Ĝěě",
        "ĜĜĜě"
      ],
      [
        "ĞĚ",
        "Ĝĝ"
      ],
      [
        "ĜěĜě",
        "Ĝĝ"
      ],
      [
        "ĞĞ",
        "ę"
      ],
      [
        "ěĞ",
        "Ė"
      ],
      [
        "ĝĜě",
        "ĜĜĜ"
      ],
      [
        "ĜĜĜĜĜĜĜĝ",
        "ĜĜĜĜĜĜĜĜĜĜĜĜĜĜĜĜĜĜĜĜĜĜĜ"
      ],
      [
        "ĜĒ",
        "ě"
      ],
      [
        "ĜĜĜĜĜěĝ",
        "ĜĜĜĜĜĜĜĜĜĜĜĜĜĜĜĜĜĜĜĜĜĜĜĜĜĜĜĜĜĜĜĜĜĜĜĜĜĜ"
      ],
      [
        "ĜĜĜĜěĜĝ",
        "ĜĜĜĜĜĜĜĜĜĜĜĜĜĜĜĜĜĜĜĜĜĜĜĜĜĜĜĜĜĜĜĜĜĜĜĜĜ"
      ],
      [
        "ĜĜĝĜĜĜĜĜĜě",
        "ĜĜĜĜĜĜĜĜĜĜĜĜĜĜĜĜĜĜĜĜĜĜĜĜĜĜĜ"
      ],
      [
        "#",
        "Ē"
      ],
      [
        "$",
        "ěĀ"
      ],
      [
        "&",
        "ē"
      ],
      [
        ",",
        "Ė"
      ],
      [
        "-",
        "Ĝ"
      ],
      [
        ".",
        "Ğ"
      ],
      [
        "Ē",
        "ĕ"
      ],
      [
        "Ě",
        "Ĝ\""
      ],
      [
        "ě",
        "ē"
      ],
      [
        "ě",
        "Ĝ\""
      ],
      [
        "Ğ",
        "&"
      ],
      [
        "Ġ",
        "3"
      ],
      [
        "Ġ",
        "ĜĘ"
      ],
      [
        "ĜĜě",
        "ĜĞ"
      ],
      [
        "ĜĜĝ",
        "ĜĜ"
      ],
      [
        "ĜĜĝ",
        "ĜĜĜĜĜĜĜĜĜĜě"
      ],
      [
        "ěĝ",
        "ĜĜĜĜ"
      ],
      [
        "ĜĜĜĜĝ",
        "ĜĜĜĜĜĜĜĜ"
      ],
      [
        "Ĝğ",
        "ğ"
      ],
      [
        "Ğĝ",
        "ĜĜĝ"
      ],
      [
        "Ĝěĝ",
        "ĜĜĜě"
      ],
      [
        "Ĝĝě",
        "Ě"
      ],
      [
        "ęĝ",
        "ė"
      ],
      [
        "ęĝ",
        "Ĝě"
      ],
      [
        "ěĞ",
        "ė"
      ],
      [
        "Ĝė",
        "Ā"
      ],
      [
        "ĜĜĝĝ",
        "ĜĜĜĜĜĜĜĜĜĜĜĜĜĜĜĜĜĜĜĜĜĜĜĜĜĜĜĜĜĜĜĜĜ"
      ],
      [
        "ĜĜĜĝě",
        "ĜĜĜĜĜĜĜĜĜĜĜĜĜĜĜĜĜĜĜĜĜĜĜĜĜĜĜĜĜĜĜ"
      ],
      [
        "ĜĜĜĝĜě",
        "ĜĜĜĜĜĜĜĜĜĜĜĜĜĜĜĜĜĜĜĜĜĜĜĜĜĜĜĜĜĜĜ"
      ],
      [
        "ĜĜĝĜĜĜĜĜĜĝ",
        "ĜĜĜĜĜĜĜĜĜĜĜĜĜĜĜĜĜĜĜĜĜĜĜĜĜĜĜĜĜĜĜĜĜĜĜĜĜĜĜ"
      ],
      [
        "!",
        "ĝĝ"
      ],
      [
        "!",
        "Ěĝ"
      ],
      [
        "\"",
        "ěĀ"
      ],
      [
        "#",
        "$"
      ],
      [
        "#",
        "ĜĞ"
      ],
      [
        "%",
        "!"
      ],
      [
        "(",
        "Ĕ"
      ],
      [
        "+",
        "ė"
      ],
      [
        "0",
        "1"
      ],
      [
        "ă",
        "ĝ"
      ],
      [
        "ć",
        "ğ"
      ],
      [
        "Đ",
        "Ė"
      ],
      [
        "ě",
        "Ĝ#"
      ],
      [
        "Ĝ",
        "/"
      ],
      [
        "ğ",
        "Ĝę"
      ],
      [
        "Ġ",
        "ĜĜĞ"
      ],
      [
        "ĜĜ",
        "Ą"
      ],
      [
        "ĝě",
        "ĜĜĜĜĜĜĜĜĜĜĜĜĜĜĜĜĜĜĜĜĜĜĜĜĜĜĜĜĜĜĜĜĜĜĜĜĜ"
      ],
      [
        "ěě",
        "ĕ"
      ],
      [
        "ĜĚ",
        "ĜĜĜě"
      ],
      [
        "ĜĞ",
        "ĜĜĜĜě"
      ],
      [
        "ĜĜĜĜĜ",
        "!"
      ],
      [
        "ěĝ",
        "ē"
      ],
      [
        "Ğě",
        "ę"
      ],
      [
        "Ěě",
        "ė"
      ],
      [
        "Ĝĝě",
        "ĝĝ"
      ],
      [
        "ęĝ",
        "Ā"
      ],
      [
        "ĜĜěě",
        "Ĝĝĝ"
      ],
      [
        "ĜĜěĜě",
        "Ĝĝ"
      ],
      [
        "ĜĜĜěĜě",
        "ĜĜĜĜĜĜĜĜĜĜĜĜĜĜĜĜĜĜĜĜĜĜĜĜĜĜĜĜĜĜĜĜĜĜĜĜĜ"
      ],
      [
        "ĜĜĜĜĜĜĜĜĜĜĜĜĝ",
        "ĜĜĜĜĜĜĜĜĜĜĜĜĜĜĜĜĜĜ"
      ],
      [
        "!",
        "ĝĞ"
      ],
      [
        "#",
        "'"
      ],
      [
        "$",
        "đ"
      ],
      [
        "%",
        "\""
      ],
      [
        ")",
        "ĜĜĜĜĜĜĖĜĜĜĜĜĜĜĜĜĜĜĜĜ"
      ],
      [
        "+",
        "Ę"
      ],
      [
        "ē",
        "Ė"
      ],
      [
        "Ę",
        "ĝĝ"
      ],
      [
        "ě",
        "Ěě"
      ],
      [
        "ě",
        "ğě"
      ],
      [
        "ĝ",
        "&"
      ],
      [
        "Ġ",
        "Ĉ"
      ],
      [
        "ĜĜě",
        "ĜĜĜĜĜĜĜĜĜĜĜĜĜĜĜĜĜĜĜĜĜĜĜĜ"
      ],
      [
        "ĝĝ",
        "ĝĜĝ"
      ],
      [
        "ĜĜĜě",
        "ĜĜĜĜĜĜĜĜĜĜĜĜĜĜĜĜĜĜĜĜĜĜĜĜĜĜĜĜĜĜ"
      ],
      [
        "ĜĞ",
        "ĜĜĜĝ"
      ],
      [
        "ĜĜĜĜĜ",
        "ė"
      ],
      [
        "Ğě",
        "ĜĜĜě"
      ],
      [
        "Ěĝ",
        "ĜĀ"
      ],
      [
        "Ğĝ",
        "ĝě"
      ],
      [
        "Ĝĝě",
        "Ĝĝĝ"
      ],
      [
        "ĞĚ",
        "ěě"
      ],
      [
        "Ġě",
        "ğ"
      ],
      [
        "ĜĝĜĝ",
        "Ĝě"
      ],
      [
        "ĜĝĜĝ",
        "ĜĜĜĜĜĜĜĜĜĜĜĜĜĜĜĜĜĜĜĜĜĜĜĜĜĜĜĜĜĜĜĜ"
      ],
      [
        "ěĚ",
        "ė"
      ],
      [
        "ĝĜĝ",
        "ĜĜĜĜĜĜĜĜĜĜ"
      ],
      [
        "Ęĝ",
        "ė"
      ],
      [
        "Ĝĕ",
        "ĝ"
      ],
      [
        "ĜĜğ",
        "ĜĜĜĜĜĜ#ĜĜĜĜĜĜĞĜĜĜĜĜĜĘĜĜĜĜĜĜė"
      ],
      [
        "ĜĜĜěĝ",
        "ĜĜĜĜĜĜĜĜĜĜĜĜĜĜĜĜĜĜĜĜĜĜĜĜĜĜĜĜĜĜĜĜĜĜĜĜĜĜ"
      ],
      [
        "ĜĜĜĜĝĝ",
        "ĜĜĜĜĜĜĜĜĜĜĜĜĜĜĜĜĜĜĜĜĜĜĜĜĜĜĜĜĜĜĜĜ"
      ],
      [
        "\"",
        "ĝĞ"
      ],
      [
        "&",
        "Ĕ"
      ],
      [
        "'",
        "ď"
      ],
      [
        ")",
        "-"
      ],
      [
        ")",
        "ĕ"
      ],
      [
        "+",
        "."
      ],
      [
        "+",
        "/"
      ],
      [
        ",",
        "ĕ"
      ],
      [
        ",",
        "Ĝ"
      ],
      [
        "Ă",
        "Ğ"
      ],
      [
        "đ",
        "ĕ"
      ],
      [
        "ē",
        "Ĝě"
      ],
      [
        "Ė",
        "ĜĘ"
      ],
      [
        "ė",
        "ĝĚ"
      ],
      [
        "ě",
        "ęě"
      ],
      [
        "ĝ",
        "Ĝĝě"
      ],
      [
        "Ġ",
        "ĜĜĜě"
      ],
      [
        "Ġ",
        "ĜĀ"
      ],
      [
        "ĜĜ",
        "ğĚ"
      ],
      [
        "ĜĜě",
        "ěěĝ"
      ],
      [
        "ĜĜě",
        "ĜĚĜě"
      ],
      [
        "ĝĝ",
        "ĜĜĜĜĜĝ"
      ],
      [
        "ĜĜĜě",
        "ĜĜĜĜĜĜĜĜĜĜĜĜĜĜĜĜĜĜĜĜĜĜĜĜĜĜĜĜĜĜĜĜĜĜĜĜĜĜĜĜĜĜĜĜĜ"
      ],
      [
        "ĜĚ",
        "ěĀ"
      ],
      [
        "ĜĚ",
        "ĝĚ"
      ],
      [
        "ĜĚ",
        "ĜĜĜĜĜĜĜĜĜĜĜĜĜĜĜĜĜĜĜĜĜĜĜĜĜĜĜĜĜĜĜĜĜĜĜĜĜĜĜĜĜĜĜĜ"
      ],
      [
        "ěĝ",
        "Ē"
      ],
      [
        "ĜĜĜĜě",
        "ĜĜĜĜĜĜĜĜĜĜĜĜĜĜĜĜĜĜĜĜ"
      ],
      [
        "ĜĜĜĜĜĜě",
        "ĜĜĜĜ"
      ],
      [
        "Ěĝ",
        "Ĕ"
      ],
      [
        "Ğĝ",
        "Ā"
      ],
      [
        "Ĝěĝ",
        "ĜĜĜĜĜĜĜĜĜĜĜĜĜĜĜĜĜĜĜĜĜĜĜĜĜĜĜĜĜĜĜĜĜĜĜĜĜĜĜĜĜĜĜ"
      ],
      [
        "ğĝ",
        "Ĝĝ"
      ],
      [
        "ĞĞ",
        "ěě"
      ],
      [
        "ĜĜěĜĜĜ",
        "Ę"
      ],
      [
        "ĘĀ",
        "Ğ"
      ],
      [
        "Ėĝ",
        "ę"
      ],
      [
        "ĜěĜĝ",
        "ĜĜ"
      ],
      [
        "ĜĜĜĜĜĜĜĜĜĜĜĜĜě",
        "ĜĜĜĜĜĜĜĜĜĜĜĜĜĜĜĜĜĜĜĜĜĜĜĜĜ"
      ],
      [
        "ĜĜĜěĝ",
        "ĜĜĜĜĜĜĜĜĜĜĜĜĜĜĜĜĜĜĜĜĜĜĜĜĜĜĜĜĜĜĜĜ"
      ],
      [
        "ĜĜĜ%",
        "ĜĜěĜĜĜ"
      ],
      [
        "ĖěĀ",
        "ĜĜĜĜĜĜĜĜĜĜĜĜĜĜĜĜĜĜĜĜĜĜĜĜĜĜĜĜĜĜĜĜĜĜĜĜĜĜĜĜĜĜĜĜĜĜĜĜĜ"
      ],
      [
        "!",
        "%"
      ],
      [
        "\"",
        "ĝĝ"
      ],
      [
        "#",
        "%"
      ],
      [
        "&",
        "$"
      ],
      [
        "'",
        "Đ"
      ],
      [
        "+",
        "Ā"
      ],
      [
        ".",
        "Ė"
      ],
      [
        "Ć",
        "ę"
      ],
      [
        "Ĉ",
        "ę"
      ],
      [
        "Ė",
        "ĜĜĝĜĜĜĜĜĜĜĜĜĜ"
      ],
      [
        "ė",
        "Ĝĝ"
      ],
      [
        "Ě",
        "Ěĝ"
      ],
      [
        "ĝ",
        "Ĝę"
      ],
      [
        "Ğ",
        "Ěě"
      ],
      [
        "ĝĝ",
        "Ę"
      ],
      [
        "ĜĚ",
        "ĝĝ"
      ],
      [
        "ĜĚ",
        "ěĚ"
      ],
      [
        "ĜĞ",
        "Ę"
      ],
      [
        "ĜĜĜĜě",
        "Ĝĝĝ"
      ],
      [
        "ĜĜĜĜĝ",
        "Ĝ"
      ],
      [
        "ĜĜĜĜĜĜĝ",
        "ĜĜĜ"
      ],
      [
        "Ğě",
        "Ę"
      ],
      [
        "Ğě",
        "ĜĜĝ"
      ],
      [
        "Ĝğ",
        "Ā"
      ],
      [
        "Ĝĝĝ",
        "ĜĜĜ"
      ],
      [
        "Ĝěĝ",
        "Ĝěě"
      ],
      [
        "Ĝěĝ",
        "ĜĜĜĜĜĜĜĜĜĜĜĜĜĜĜĜĜĜĜĜĜĜĜĜĜĜĜĜĜĜĜĜĜĜĜĜĜĜ"
      ],
      [
        "Ĝĝě",
        "ĜĜĜě"
      ],
      [
        "ğě",
        "Ĝě"
      ],
      [
        "ęĝ",
        "Ę"
      ],
      [
        "ĜĜĝě",
        "Ĝĝĝ"
      ],
      [
        "ĜĜěĜě",
        "ĜĜĜĜĜĜĜĜĜĜĜĜĜĜĜĜĜĜĜĜĜĜĜĜĜĜĜĜĜĜĜĜĜĜĜĜĜĜĜ"
      ],
      [
        "ĜĜěĝ",
        "Ĝěě"
      ],
      [
        "ĜĜĜĜĜĜĜĜĝ",
        "ĜĜĜĜĜĜĜĜĜĜĜĜĜĜĜĜĜĜĜĜĜĜĜĜĜĜĜĜĜĜ"
      ],
      [
        "ĜĜĜěĜĝ",
        "ĜĜĜĜĜĜĜĜĜĜĜĜĜĜĜĜĜĜĜĜĜĜĜĜĜĜĜĜĜĜĜ"
      ],
      [
        "ĜĜĜĜĜĜĜĜĜĜĝ",
        "ĜĜĜĜĜĜĜĜĜĜĜĜĜĜĜĜĜĜĜĜĜĜĜĜĜĜĜ"
      ],
      [
        "ĜĜĝĜĝĜĝ",
        "ĜĜĜĜĜĜĜĜĜĜĜĜĜĜĜĜĜĜĜĜĜĜĜĜĜĜĜĜĜĜ"
      ],
      [
        "#",
        "ěĀ"
      ],
      [
        "%",
        "Ē"
      ],
      [
        "*",
        "/"
      ],
      [
        "+",
        "-"
      ],
      [
        ",",
        "Ğ"
      ],
      [
        "-",
        "Ę"
      ],
      [
        "1",
        "1"
      ],
      [
        "Ć",
        "Ğ"
      ],
      [
        "Ĉ",
        "ğ"
      ],
      [
        "ė",
        "ĜĘ"
      ],
      [
        "Ě",
        "%"
      ],
      [
        "Ġ",
        "Ć"
      ],
      [
        "Ġ",
        "ğę"
      ],
      [
        "ĜĜĜĜ",
        "ĜĚě"
      ],
      [
        "Ĝĝ",
        "!"
      ],
      [
        "ĜĜě",
        "ĜĜĜĜĜĜĜĜĜĜĜĜĜĜĜĜĜĜĜĜĜĜĜĜĜĜĜĜĜĜĜĜĜĜĜĜĜĜ"
      ],
      [
        "ĜĜĝ",
        "ĜĜěě"
      ],
      [
        "ĜĜĝ",
        "ĜĜĜĚ"
      ],
      [
        "ĜĜĜĜě",
        "ĜĜĜĜĜĜĝ"
      ],
      [
        "ĜĜĜĜĜě",
        "ěĝ"
      ],
      [
        "ĜĜĜĜĜě",
        "ĜĜĜĜĜĜĜĜĜĜĜĜĜĜĜĜĜĜĜĜĜĜĜĜĜĜĜĜĜĜĜĜĜĜĜĜĜĜĜĜ"
      ],
      [
        "Ğě",
        "ĝě"
      ],
      [
        "Ěě",
        "ĕ"
      ],
      [
        "Ěĝ",
        "Ĝ"
      ],
      [
        "Ĝę",
        "ę"
      ],
      [
        "ğě",
        "ĝě"
      ],
      [
        "ęě",
        "Ĝě"
      ],
      [
        "ĜĜĚ",
        "ĜěĜě"
      ],
      [
        "ĞĞ",
        "Ğ"
      ],
      [
        "ĜĜĝě",
        "ĜĜĝ"
      ],
      [
        "ěĚ",
        "ę"
      ],
      [
        "ĝĞ",
        "Ā"
      ],
      [
        "ėĝ",
        "ę"
      ],
      [
        "ĜĜĝĜě",
        "ĜĜĜĜĜĜĜĜĜĜĜĜĜĜĜĜĜĜĜĜĜĜĜĜĜĜĜĜĜĜĜĜĜĜĜĜĜĜ"
      ],
      [
        "ěěě",
        "ĜĜĜ"
      ],
      [
        "ĜĜĝĜĜĜĝ",
        "ĜĜĜĜĜĜĜĜĜĜĜĜĜĜĜĜĜĜĜĜĜĜĜĜĜĜĜĜĜĜĜĜĜĜĜĜĜ"
      ],
      [
        "ĜĜğ",
        "ĜĜĜĜĜĜĕĜĜĜĜĜĜĞĜĜĜĜĜĜ"
      ],
      [
        "ĜĜĜĜĜĜĜĜĝ",
        "ĜĜĜĜĜĜĜĜĜĜĜĜĜĜĜĜĜĜĜĜĜĜĜĜĜĜĜ"
      ],
      [
        "ĜĜĜĜĝĝ",
        "ĜĜĜĜĜĜĜĜĜĜĜĜĜĜĜĜĜĜĜĜĜĜĜĜĜĜĜĜĜĜĜĜĜ"
      ],
      [
        "Ĝ&",
        "ě"
      ],
      [
        "ĜĜěĜĜĜĝ",
        "ĜĜĜĜĜĜĜĜĜĜĜĜĜĜĜĜĜĜĜĜĜĜĜĜĜĜĜĜĜĜĜĜ"
      ],
      [
        "Ĝ)",
        "ě"
      ],
      [
        "!",
        "Ĝě"
      ],
      [
        "$",
        "&"
      ],
      [
        "(",
        "Ē"
      ],
      [
        ")",
        "ĜĜĜĜĜĜ\"ĜĜĜĜĜĜĜĜĜĜĜĜĜĘĜĜĜĜĜĜėĜĜĜĜĜĜĘ"
      ],
      [
        ",",
        "ğ"
      ],
      [
        "/",
        "-"
      ],
      [
        "Ą",
        "Ğ"
      ],
      [
        "Ė",
        "ĞĚ"
      ],
      [
        "Ę",
        "ĜĀ"
      ],
      [
        "Ě",
        "ĞĚ"
      ],
      [
        "Ĝ",
        "-"
      ],
      [
        "ĝ",
        "ĜĘ"
      ],
      [
        "ĝ",
        "ĚĚ"
      ],
      [
        "Ġ",
        "ď"
      ],
      [
        "Ġ",
        "Ęě"
      ],
      [
        "Ġ",
        "ĘĀ"
      ],
      [
        "ĜĜĜĜ",
        "ĜĞě"
      ],
      [
        "Ĝě",
        "\""
      ],
      [
        "Ĝě",
        "ėěĀ"
      ],
      [
        "Ĝĝ",
        "ĝĝ"
      ],
      [
        "Ĝĝ",
        "ĜĀ"
      ],
      [
        "ĜĜĝ",
        "ĝĞ"
      ],
      [
        "ĝĝ",
        "Ĝěě"
      ],
      [
        "ĜĜĜĝ",
        "ĜĜĜĜĜĜĜĜĜĜĜĜĜĜĜĜĜĜĜĜ"
      ],
      [
        "ĜĜĜĝ",
        "ĝěě"
      ],
      [
        "Ĝğ",
        "ę"
      ],
      [
        "ğě",
        "ğ"
      ],
      [
        "ĜĀ",
        "Ğ"
      ],
      [
        "ĜĜĚ",
        "Ğ"
      ],
      [
        "ĚĀ",
        "ĜĜĜĜĜĜĜĜĜĜĜĜĜĜĜĜĜĜĜĜĜĜĜĜĜĜĜĜĜĜĜĜĜĜĜĜĜĜĜĜĜĜĜĜĜĜĜĜĜ"
      ],
      [
        "ĜĔ",
        "ě"
      ],
      [
        "ĜĜěĜĝ",
        "ĜĜĜĜĜĜĜĜĜĜĜĜĜĜĜĜĜĜĜĜĜĜĜĜĜĜĜĜĜĜĜĜĜĜĜĜĜĜ"
      ],
      [
        "ěğ",
        "ěĀ"
      ],
      [
        "ĜĜĜĜĜĜĜĜě",
        "ĜĜĜĜĜĜĜĜĜĜĜĜĜĜĜĜĜĜĜĜĜĜĜĜĜ"
      ],
      [
        "ĜĜĜĜĜĜĜĜĜĜĜĝ",
        "ĜĜĜĜĜĜĜĜĜĜĜĜĜĜĜĜĜĜĜĜ"
      ],
      [
        "#",
        "ĚĞ"
      ],
      [
        ")",
        "Ē"
      ],
      [
        ")",
        "ē"
      ],
      [
        ")",
        "Ĕ"
      ],
      [
        ".",
        "ė"
      ],
      [
        ".",
        "Ę"
      ],
      [
        "Ď",
        "ĕ"
      ],
      [
        "ď",
        "ĕ"
      ],
      [
        "Ē",
        "ěě"
      ],
      [
        "ė",
        "ĜĖ"
      ],
      [
        "Ě",
        "Ěě"
      ],
      [
        "Ě",
        "Ğĝ"
      ],
      [
        "ě",
        "Ĝĝě"
      ],
      [
        "ĝ",
        "'"
      ],
      [
        "ğ",
        "Ěě"
      ],
      [
        "Ġ",
        "ą"
      ],
      [
        "Ġ",
        "Ĝěě"
      ],
      [
        "ĜĜĜĜ",
        "Ğě"
      ],
      [
        "Ĝě",
        "ěĀ"
      ],
      [
        "Ĝĝ",
        "ĕ"
      ],
      [
        "ĜĜĝ",
        "ĝĚ"
      ],
      [
        "ĝĝ",
        "ĜĜĜĜĜĜĜĜĜĜĜĜĜĜĜĜĜĜĜĜĜĜĜĜĜĜĜĜĜĜĜĜ"
      ],
      [
        "ĜĚ",
        "ĜĜĜ"
      ],
      [
        "ĜĞ",
        "ĝĞ"
      ],
      [
        "ĜĞ",
        "ěĜĝ"
      ],
      [
        "ĜĜĜĜě",
        "ĜěĜě"
      ],
      [
        "ĜĜĜĜě",
        "ĜĜĜĜĜĜĜĜĜĜĜĜĜĜĜĜĜĜĜĜĜĜĜĜĜĜĜĜĜĜĜĜĜĜĜĜ"
      ],
      [
        "ĜĜĜĜě",
        "ĜĜĜĜĜĜĝĜĜĜĜĜĜĜĜĜĜĜĜĜĜĜĜĜĜĜĜĜĜĜĜĜĜĜĜĜĜĜĜ"
      ],
      [
        "ĜĜĜĜĝ",
        "ĜĜě"
      ],
      [
        "ěĀ",
        "ěĝ"
      ],
      [
        "ĜĜĜĜĜě",
        "ĜĜĜĜĜĜĜĜĜĜĜĜĜĜĜĜĜĜĜĜ"
      ],
      [
        "ĜĜĜĜĜě",
        "ĜĜĜĜĜĜĝĜĜĜĜĜĜĜĜĜĜĜĜĜĜĜĜĜĜĜĜĜĜĜĜĜĜĜĜĜĜĜĜ"
      ],
      [
        "ĜĜĞ",
        "ĝě"
      ],
      [
        "ĜěĜě",
        "ĝě"
      ],
      [
        "ĜĜĚ",
        "ĜĜĜě"
      ],
      [
        "ĝěĀ",
        "Ĝ"
      ],
      [
        "ĝěĀ",
        "ĝ"
      ],
      [
        "ĜĜěĝ",
        "ĜĜě"
      ],
      [
        "ěĜĝ",
        "ĜĜĜĜĜĜĜĜĜĜĜĜĜĜĜĜĜĜĜĜĜĜĜĜĜĜĜĜĜĜĜĜĜĜĜĜĜĜĜĜĜĜĜĜĜĜ"
      ],
      [
        "ĕĝ",
        "Ā"
      ],
      [
        "ĜĜĜĜĜěĝ",
        "ĜĜĜĜĜĜĜĜĜĜĜĜĜĜĜĜĜĜĜĜĜĜĜĜĜĜĜĜĜĜĜĜ"
      ],
      [
        "ĜĜĜĜĜĜĜĜĜĜĜĝ",
        "ĜĜĜĜĜĜĜĜĜĜĜĜĜĜĜĜĜĜĜĜĜĜĜĜĜĜĜ"
      ],
      [
        "ĜĜĜĜĜĜĜĜĜĜĜě",
        "ĜĜĜĜĜĜĜĜĜĜĜĜĜĜĜĜĜĜĜĜ"
      ],
      [
        "ĜĜĜĜĜĜĜĜĜĜě",
        "ĜĜĜĜĜĜĜĜĜĜĜĜĜĜĜĜĜĜĜĜĜĜĜĜĜĜĜĜĜĜĜĜ"
      ],
      [
        "ĜĜĜĜĜĜĜĜĜĜĜĜě",
        "ĜĜĜĜĜĜĜĜĜĜĜĜĜĜĜĜĜĜ"
      ],
      [
        "%",
        "%"
      ],
      [
        "*",
        "ğ"
      ],
      [
        "Ć",
        "ğ"
      ],
      [
        "ď",
        "!"
      ]
    ]
  }
}