{
  "version": "1.0",
  "truncation": null,
  "padding": null,
  "added_tokens": [],
  "normalizer": null,
  "pre_tokenizer": {
    "type": "ByteLevel",
    "add_prefix_space": false,
    "trim_offsets": true,
    "use_regex": true
  },
  "post_processor": {
    "type": "ByteLevel",
    "add_prefix_space": true,
    "trim_offsets": false,
    "use_regex": true
  },
  "decoder": {
    "type": "ByteLevel",
    "add_prefix_space": true,
    "trim_offsets": true,
    "use_regex": true
  },
  "model": {
    "type": "BPE",
    "dropout": null,
    "unk_token": null,
    "continuing_subword_prefix": null,
    "end_of_word_suffix": null,
    "fuse_unk": false,
    "byte_fallback": false,
    "ignore_merges": false,
    "vocab": {
      "\u0000": 0,
      "\u0001": 1,
      "\u0002": 2,
      "\u0003": 3,
      "\u0004": 4,
      "\u0005": 5,
      "\u0006": 6,
      "\u0007": 7,
      "\b": 8,
      "\t": 9,
      "\n": 10,
      "\u000b": 11,
      "\f": 12,
      "\r": 13,
      "\u000e": 14,
      "\u000f": 15,
      "\u0010": 16,
      "\u0011": 17,
      "\u0012": 18,
      "\u0013": 19,
      "\u0014": 20,
      "\u0015": 21,
      "\u0016": 22,
      "\u0017": 23,
      "\u0018": 24,
      "\u0019": 25,
      "\u001a": 26,
      "\u001b": 27,
      "\u001c": 28,
      "\u001d": 29,
      "\u001e": 30,
      "\u001f": 31,
      " ": 32,
      "!": 33,
      "\"": 34,
      "#": 35,
      "$": 36,
      "%": 37,
      "&": 38,
      "'": 39,
      "(": 40,
      ")": 41,
      "*": 42,
      "+": 43,
      ",": 44,
      "-": 45,
      ".": 46,
      "/": 47,
      "0": 48,
      "1": 49,
      "2": 50,
      "3": 51,
      "4": 52,
      "5": 53,
      "6": 54,
      "7": 55,
      "8": 56,
      "Ā": 57,
      "ā": 58,
      "Ă": 59,
      "ă": 60,
      "Ą": 61,
      "ą": 62,
      "Ć": 63,
      "ć": 64,
      "Ĉ": 65,
      "ĉ": 66,
      "Ċ": 67,
      "ċ": 68,
      "Č": 69,
      "č": 70,
      "Ď": 71,
      "ď": 72,
      "Đ": 73,
      "đ": 74,
      "Ē": 75,
      "ē": 76,
      "Ĕ": 77,
      "ĕ": 78,
      "Ė": 79,
      "ė": 80,
      "Ę": 81,
      "ę": 82,
      "Ě": 83,
      "ě": 84,
      "Ĝ": 85,
      "ĝ": 86,
      "Ğ": 87,
      "ğ": 88,
      "Ġ": 89,
      "ĜĜ": 90,
      "ĜĜĜĜ": 91,
      "ĜĜĜĜĜĜĜĜ": 92,
      "ĜĜĜĜĜĜĜĜĜĜĜĜĜĜĜĜ": 93,
      "Ĝě": 94,
      "ĜĜĜĜĜĜ": 95,
      "Ĝĝ": 96,
      "ĜĜĜĜĜĜĜĜĜĜĜĜĜĜĜĜĜĜĜĜĜĜĜĜĜĜĜĜĜĜĜĜ": 97,
      "ĜĜĝ": 98,
      "ĜĜě": 99,
      "ĜĜĜĜĜĜĜĜĜĜĜĜĜĜĜĜĜĜĜĜĜĜĜĜĜĜĜĜĜĜĜĜĜĜĜĜĜĜĜĜ": 100,
      "ĜĜĜ": 101,
      "ĜĜĜĜĜ": 102,
      "ĝĝ": 103,
      "ěě": 104,
      "ĜĚ": 105,
      "ĜĜĜě": 106,
      "ĜĞ": 107,
      "ĜĜĜĜĜĜĜĜĜĜĜĜĜĜĜĜĜĜĜĜĜĜĜĜ": 108,
      "ĜĜĜĝ": 109,
      "ĝě": 110,
      "ĜĜĜĜĜĜĜ": 111,
      "ĜĜĜĜě": 112,
      "ĜĀ": 113,
      "ĝĜĜĜĜĜĜĜĜĜĜĜĜĜĜĜĜĜĜĜĜĜĜĜĜĜĜĜĜĜĜĜĜ": 114,
      "ĜĜĜĜĜĜě": 115,
      "ĝĜĝ": 116,
      "Ĝę": 117,
      "ĜĘ": 118,
      "ĜĜĜĜĜě": 119,
      "ěĝ": 120,
      "ĜĜĜĜĜĝ": 121,
      "ĜĜĜĜĜĜĜĜĜĜĜĜĜĜĜĜĜĜĜĜĜĜĜĜĜĜĜĜĜĜĜĜĜĜĜĜĜĜĜ": 122,
      "Ğě": 123,
      "ĝĜě": 124,
      "Ĝğ": 125,
      "ĜĜĜĜĜĜĜĜĜĜĜĜĜĜĜĜĜĜĜĜĜĜĜĜĜĜĜĜĜĜĜĜĜĜĜĜĜ": 126,
      "Ěě": 127,
      "ĜĜĜĜĜĜĝ": 128,
      "ĜĜĜĜĜĜĜĜĜĜĜĜĜ": 129,
      "ĜĜĜĜĜĜĜĜĜĜĜĜĜĜĜĜĜĜĜĜĜĜĜĜĜĜĜĜĜĜĜĜĜĜĜĜĜĜĜĜĜĜĜ": 130,
      "ĜĜĜĜĝ": 131,
      "ĜĜĀ": 132,
      "ĜĜĜĜĜĜĜĜĜĜĜĜĜĜĜĜĜĜĜĜĜĜĜĜĜĜĜĜĜĜĜĜĜĜĜĜĜĜĜĜĜĜĜĜ": 133,
      "ĝĚ": 134,
      "ěĜě": 135,
      "Ęě": 136,
      "Ğĝ": 137,
      "ěĜĝ": 138,
      "Ĝė": 139,
      "ĠĜĜĜĜĜĜ": 140,
      "ĜĜĜĜĜĜĜĜĜĜĜĜĜĜĜĜĜĜĜĜĜĜĜĜĜĜĜĜĜĜĜĜĜ": 141,
      "Ěĝ": 142,
      "ĘĜĜĜĜĜĜ": 143,
      "ĜĜĞ": 144,
      "ĜĜĜĜĜĜĜĜĜĜĜĜĜĜĜĜĜĜĜĜĜĜĜĜĜĜĜĜĜĜĜĜĜĜĜĜĜĜĜĜĜĜĜĜĜĜ": 145,
      "ĜĜĜĜĜĜĜĜĜĜĜĜĜĜĜĜĜĜĜĜĜĜĜĜĜĜĜĜĜĜĜĜĜĜĜĜĜĜĜĜĜ": 146,
      "Ęĝ": 147,
      "ĜĜĜĜĜĜĜĜĜĜĜĜĜĜĜĜĜĜĜĜĜĜĜĜĜĜĜĜĜĜĜĜĜĜ": 148,
      "ĘĜ": 149,
      "ěĚ": 150,
      "ĜĜĜĜĜĜĜĜĜĜĜĜĜĜĜĜĜĜĜĜĜĜĜĜĜĜĜĜĜĜ": 151,
      "ĜĜĚ": 152,
      "ĜĜĜĜĜĜĝĜĜĜĜĜĜĜĜĜĜĜĜĜĜĜĜĜĜĜĜĜĜĜĜĜĜĜĜĜĜĜĜ": 153,
      "ĘĚ": 154,
      "ĝĞ": 155,
      "ĜĜĜĜĜĜĜĜĜĜĜĜĜĜĜĜĜĜĜĜĜĜĜĜĜ": 156,
      "ęě": 157,
      "ĞĜĝ": 158,
      "ĞĚ": 159,
      "ğě": 160,
      "Ĝěě": 161,
      "ĜĜĜĜĜĜĜĜĜĜĜĜĜĜĜĜĜĜĜĜĜĜĜĜĜĜĜĜĜĜĜĜĜĜĜĜĜĜĜĜĜĜĜĜĜĜĜĜ": 162,
      "Ĝěĝ": 163,
      "ĜĜĜĜĝĜĜĜĜĜĜĜĜĜĜĜĜĜĜĜĜĜĜĜĜĜĜĜĜĜĜĜĜĜĜĜĜ": 164,
      "Āĝ": 165,
      "ĜĜĜĜĜĜĘĜĜĜĜĜĜ": 166,
      "ĜĜĜĜĜĜĜĜĜĜĜĜĜĜĜĜĜĜĜĜĜĜĜĜĜĜĜ": 167,
      "ĕĜĜĜĜĜĜ": 168,
      "#ĜĜĜĜĜĜ": 169,
      "ęĝ": 170,
      "Ĝĝě": 171,
      "ĜěĜě": 172,
      "ĜĖ": 173,
      "ĘĞ": 174,
      "ĜĜĜĜĜĜĜĜĜĜĜĜĜĜĜĜĜĜĜĜĜĜĜĜĜĜĜĜĜĜĜĜĜĜĜĜ": 175,
      "ĜĜěĜĜĜ": 176,
      "ĀĞ": 177,
      "ĜĜĜĜĜĜĜĜĜĜĜĜĜĜĜĜĜĜĜĜĜĜĜĜĜĜĜĜĜĜĜĜĜĜĜĜĜĜĜĜĜĜĜĜĜĜĜĜĜ": 178,
      "Ĝĝĝ": 179,
      "Ęę": 180,
      "ĚĚ": 181,
      "ėě": 182,
      "Āě": 183,
      "ĝĜ": 184,
      "ĜĜĜĜĜĜĜĜĜĜĜĜĜĜĜĜĜĜĜĜĜĜĜĜĜĜĜĜĜĜĜĜĜĜĜĜĜĜ": 185,
      "ĜĜĝĜĝ": 186,
      "Ęğ": 187,
      "ĘĜĜĀ": 188,
      "Ġě": 189,
      "Āğ": 190,
      "ĜĜĜĜĜĜ#ĜĜĜĜĜĜ": 191,
      "ĜĜĜĜĜĜĕĜĜĜĜĜĜ": 192,
      "ĞĞ": 193,
      "ĜĜĜĜĜĜĜĜĜĜĜĜĜĜĜĜĜĜĜĜĜĜĜĜĜĜ": 194,
      "Ĝĕ": 195,
      "Ĝē": 196,
      "ĘĜě": 197,
      "ĖĜĜĜĜĜĜĜĜĜĜĜĜĜ": 198,
      "ĜĜěĜě": 199,
      "ĘĜĜ": 200,
      "Ĝ!": 201,
      "ėĝ": 202,
      "ęĚ": 203,
      "ĜĜěě": 204,
      "ğĝ": 205,
      "ĜĜĜĜĜĜĜĜĜĜĜĜĜĜĜĜĜĜĜĜĜĜĜĜĜĜĜĜĜĜĜĜĜĜĜĜĜĜĜĜĜĜĜĜĜ": 206,
      "ĜĜĝě": 207,
      "ĞĜ": 208,
      "ĜĝĜĝ": 209,
      "ĜĜĜĜĝĜĝ": 210,
      "ĚĜě": 211,
      "ĞĜě": 212,
      "Ęė": 213,
      "ĀĚ": 214,
      "ğĚ": 215,
      "ĜĜĜĜěĜě": 216,
      "ěĞ": 217,
      "ĠĜĜĜĜĜĜė": 218,
      "ęĜ": 219,
      "ěĜ": 220,
      "ęĞ": 221,
      "ĠĜ": 222,
      "ĜĜĜĜĜĜĜĜĜĜĜĜĜĜĜĜĜĜĜĜĜĜĜĜĜĜĜĜĜĜĜ": 223,
      "Ġĝ": 224,
      "!ĜĜĜĜĜĜ": 225,
      "ĜĜĜĜĜĜĜĜĜĜĜĜĜĜĜĜĜĜ": 226,
      "ĚĜ": 227,
      "ĜĜĝĜĜĜ": 228,
      "Ę!": 229,
      "\"ĜĜĜĜĜĜĜĜĜĜĜĜĜ": 230,
      "ĜĜĝĝ": 231,
      "ęĀ": 232,
      "ğĜ": 233,
      "ĠĚ": 234,
      "ĜĜěĜĝ": 235,
      "ĜĜĝĜě": 236,
      "ĘĘ": 237,
      "%ĜĜĜĜĜĜ": 238,
      "ĜĜğ": 239,
      "ĜĜěĜĜĜě": 240,
      "ĝĝě": 241,
      "ĜĜĝĜĜĜĝ": 242,
      "ĜĜĜĜĜĜĜĜĜĜĜĜĜě": 243,
      "ĚĞ": 244,
      "ėĞ": 245,
      "Ėě": 246,
      "ėĜ": 247,
      "ĜĜĜĜĜĜĜĝ": 248,
      "ĝę": 249,
      "ėĚ": 250,
      "ĘĜĚ": 251,
      "ĜĜĜĜěě": 252,
      "ĚĜĝ": 253,
      "ĝĝĝ": 254,
      "ĜĜę": 255,
      "ĝğ": 256,
      "!ě": 257,
      "ĜĜěĝ": 258,
      "ĜĜĜĜĜĜĜĜĜĜĜĜĜĝ": 259,
      "ĜĜĜĜĜĜĜĜĜĜĜĜĜĜĜĜĜĜĜĜ": 260,
      "Ėĝ": 261,
      "ĀĜĝ": 262,
      "ĜĜĜĜĜĜĜĜĜĜĜĜĜĜĜĜĜĜĜĜĜĜĜ": 263,
      "ęę": 264,
      "ĜĜĜĜĜĜĜĜĜĜĜĜĜĜĜĜĜĜĜĜĜĜĜĜĜĜĜĜĜ": 265,
      "ĜĚĝ": 266,
      "ğĞ": 267,
      "ĜĜĜĜĜĜĜě": 268,
      "Ę\"": 269,
      "ĜĞě": 270,
      "ēĜĜĜĜĜĜ": 271,
      "ĘĖ": 272,
      "ĘĀ": 273,
      "ĕě": 274,
      "ĝěĝ": 275,
      "ĜĜĜĚ": 276,
      "ĠĞ": 277,
      "ęĜě": 278,
      "ĜĜĜěě": 279,
      "ĜĚĜě": 280,
      "ĜĜĜĜĜĜĜĜĜĜĜ": 281,
      "ęğ": 282,
      "ĜĒ": 283,
      "ĝĜĞ": 284,
      "ĝĜĜĜĜĜĜĜĜĜĜĜĜĜĜĜĜĜĜĜĜĜĜĜĜĜĜĜĜĜĜĜĜĜĜĜĜĜĜĜ": 285,
      "\"ě": 286,
      "ěěě": 287,
      "ĜĜěĜĜĜĝ": 288,
      "ĜĜĜĜĜĜěĜĜĜĜĜĜĜĜĜĜĜĜĜĜĜĜĜĜĜĜĜĜĜĜĜĜĜĜĜĜĜĜ": 289,
      "ĜĜĜĜĝĝ": 290,
      "ėğ": 291,
      "!Ĝ": 292,
      "ĜĜĜěĜě": 293,
      "ěěĝ": 294,
      "ĞĜĜĜĜĜĜ": 295,
      "ĜĝĜě": 296,
      "Ġ8": 297,
      "ĘĜę": 298,
      "ĀĜě": 299,
      "ĜĜĜĜĜĜĜĜĜĜĜĜĜĜĜĜĜĜĜĜĜĜĜĜĜĜĜĜĜĜĜĜĜĜĜĜĜĜĜĜĜĜĜĜĜĜĜ": 300,
      "Ğğ": 301,
      "Ġğ": 302,
      "ėĜě": 303,
      "ėĜĜ": 304,
      "ĜĚě": 305,
      "Ĝ\"": 306,
      "ĘĜĝ": 307,
      "ėę": 308,
      "Ěę": 309,
      "ĜĜĜĜĜĜĜĜě": 310,
      "#ě": 311,
      "Ęĕ": 312,
      "ĜĝĜĜĜĜě": 313,
      "Ğę": 314,
      "ĜĞĝ": 315,
      "ĜĜĜĜĜěě": 316,
      "ĜĜĝĜĜĜĜĜĜĜĜĜĜĜĜĜĜĜĜĜĜĜĜĜĜĜĜĜĜĜĜĜĜĜĜĜĜĜĜĜĜĜĜĜĜĜĜĜĜ": 317,
      "ĜĜĜĜĜĜĜĜĜĜĜĝ": 318,
      "ėĜĜĀ": 319,
      "ĝĜĜĜĜĜ": 320,
      "Ĝ%": 321,
      "ĜĜěĜĜĝ": 322,
      "ěę": 323,
      "ĜĔ": 324,
      "ĖĜĜĜĜĜĜ": 325,
      "Ġę": 326,
      "ĜĜĜĜĜĜĜĜĜě": 327,
      "ĠĜĜĜĜĜĜĚ": 328,
      "ĜĝĜĜě": 329,
      "!Ě": 330,
      "ĜĜĜĜĝĜě": 331,
      "\"ĜĜĜĜĜĜĜĜĜĜĜĜĜĘĜĜĜĜĜĜ": 332,
      "ĜĜĜĜĜĜĜĜĜĜĜĜĜĜĜĜĜĜĜ": 333,
      "Āĝĝ": 334,
      "ĜĜĜĜĜĜĖĜĜĜĜĜĜĜĜĜĜĜĜĜ": 335,
      "Āę": 336,
      "ĚĜĜĜĜĜĜ": 337,
      "ĠĜĜĜĜĜĜėĜĜĜĜĜĜ": 338,
      "ĜĜĜĜĜĜěĜĜĜĜĜĜĜĜĜĜĜĜĜĜĜĜĜĜĜĜĜĜĜĜĜ": 339,
      "ěğ": 340,
      "ĜĜĝĜĜĜě": 341,
      "ĖĚ": 342,
      "ĜĜĜĞ": 343,
      "ĖĜĜĜĜĜĜĜĜĜĜĜĜĜ!": 344,
      "ĜĜĜĝě": 345,
      "ĜĜĜĜĜĜĘĜĜĜĜĜĜė": 346,
      "ĘĜĘ": 347,
      "ĞĜĜĜĜĜĜĘĜĜĜĜĜĜė": 348,
      "Ěğ": 349,
      "ĠĜĜĜĜĜĜ!ĜĜĜĜĜĜ": 350,
      "ĜĝĜĜĝ": 351,
      "Ĝď": 352,
      "ĕĝ": 353,
      "ĜĝĜĜĜĜĜĜĜĜĜĜĜĜĜĜĜĜĜĜĜĜĜĜĜĜĜĜĜĜĜĜĜĜĜĜĜĜĜ": 354,
      "ĜĜĜĜĜĜĘĜĜĜĜĜĜĚ": 355,
      "ĖĜĜĜĜĜĜĘĜĜĜĜĜĜĚ": 356,
      "Ę#": 357,
      "ĜĜĜĜĝě": 358,
      "Ā!": 359,
      "ěĜěĜĜĜ": 360,
      "ĖĞ": 361,
      "ĜĜĜĜĜĜĜĜĜĜĜě": 362,
      "Ĕě": 363,
      "ĘěĜĀ": 364,
      "ĝĝĜě": 365,
      "ĜĜĝĜĜě": 366,
      "ĠĜĜĜĜĜĜĞ": 367,
      "!ĜĜĜĜĜĜĘ": 368,
      "Ĝ#": 369,
      "ĜĜĜĜĜĜ#ĜĜĜĜĜĜĖĜĜĜĜĜĜ": 370,
      "\"ĜĜĜĜĜĜ": 371,
      "ĜĜĜĜĜĜĘĜĜĜĜĜĜĞ": 372,
      "\"ĜĜĜĜĜĜĘĜĜĜĜĜĜĞ": 373,
      "ĜĜĜĜĜĜĜĜĜĝ": 374,
      "ĜĜĜĜěĜĜĜĜĜĜĜĜĜĜĜĜĜĜĜĜĜĜĜĜĜĜĜĜĜĜĜĜĜĜĜĜ": 375,
      "ėĀ": 376,
      "ĠĜĜĜĜĜĜ!": 377,
      "ėĜĜĜĜĜĜ": 378,
      "ĠĜĝ": 379,
      "ĜĜĜĜĜĜĜĜĜĜě": 380,
      "ĝěĜě": 381,
      "ĜĜĜĜĜĜěĜĜĜĜĜĜě": 382,
      "ěĜĜĜĜĜ": 383,
      "ĜĜĜĜĜĜĜĜĜĜ": 384,
      "ĜĜĜĜĜĜĜĜĜĜĜĜĜĖĜĜĜĜĜĜĜĜĜĜĜĜĜ!": 385,
      "ĕĚ": 386,
      "ĔĜĜĜĜĜĜ#ĜĜĜĜĜĜĖĜĜĜĜĜĜ": 387,
      "ğĜĝ": 388,
      "!ĝ": 389,
      "ĜĜĜĜĝĜĜĜĜĜĜĜĜĜĜĜĜĜĜĜĜĜĜĜĜĜĜĜĜĜĜĜĜĜĜĜĜĜĜĜĜĜĜĜ": 390,
      "ĜĜĜĜĝĜĜĜĜĜĜĜĜĜĜĜĜĜĜĜĜĜĜĜĜĜĜĜĜĜĜĜĜĜĜĜĜĜĜ": 391,
      "ĜĜĜĜĜĜĕĜĜĜĜĜĜĞĜĜĜĜĜĜ": 392,
      "ėĜĜĜĜĜĜĘ": 393,
      "ĜĄ": 394,
      "ĀĜĜĜĜĜĜĜĜĜĜĜĜĜĜĜĜĜĜĜĜĜĜĜĜĜĜĜĜĜĜĜĜĜĜĜĜĜĜĜĜĜĜĜĜĜĜĜĜĜ": 395,
      "ğğ": 396,
      "ĜĞĜĝ": 397,
      "Ġė": 398,
      "ĜĜĜĜĚ": 399,
      "\"Ĝ": 400,
      "Ęĝě": 401,
      "ĖĜ": 402,
      "%ĜĜĜĜĜĜĜĜĜĜĜĜĜĖĜĜĜĜĜĜĜĜĜĜĜĜĜ!": 403,
      "ĜĜĜĜĜĜ#ĜĜĜĜĜĜĞĜĜĜĜĜĜĘĜĜĜĜĜĜė": 404,
      "ėė": 405,
      "ĜĜĜĜĜĜĜĜĜĜĝ": 406,
      "ğĜě": 407,
      "ĝĜĜĜĜĜĜĜĜĜĜĜĜĜĜĜĜĜĜĜĜĜĜĜĜĜĜĜĜĜĜĜĜĜĜĜĜĜĜ": 408,
      "ĜĜĜĜĜĜĜĜĝ": 409,
      "ĠĀ": 410,
      "ĜĜĜĜĜĜĘĜĜĜĜĜĜ!": 411,
      "ĘĔ": 412,
      "ğĜĜĜĜĜĜĕĜĜĜĜĜĜĞĜĜĜĜĜĜ": 413,
      "Ęěě": 414,
      "ĜĜĜĜěĜĜĜĜĜĜĜĜĜĜĜĜĜĜĜĜĜĜĜĜĜĜĜĜĜĜĜĜĜĜĜĜĜĜĜĜĜĜĜ": 415,
      "ĜĝĞ": 416,
      "\"ĜĜĜĜĜĜĜĜĜĜĜĜĜė": 417,
      "Ĝ&": 418,
      "ĜĜĜĜĜĝě": 419,
      "ğę": 420,
      "ĚĜĜĜĜĜĜĘĜĜĜĜĜĜ!": 421,
      "\"ĝ": 422,
      "ĚĀ": 423,
      "Ėę": 424,
      "ĜĜĜĜĜĜĕĜĜĜĜĜĜĖĜĜĜĜĜĜĘĜĜĜĜĜĜĚ": 425,
      "ğĜĜĜĜĜĜ#ĜĜĜĜĜĜĞĜĜĜĜĜĜĘĜĜĜĜĜĜė": 426,
      "ĜĜĜĝĝ": 427,
      "Ĕĝ": 428,
      "ĜĜĜĝĜě": 429,
      "ĘĜė": 430,
      "ĘěĜ": 431,
      "ĠĜě": 432,
      "ěěĜě": 433,
      "ĜĜĜĜěĜĝ": 434,
      "ĜĜĜĜĜĜĝĜĜĜĜĜĜĝ": 435,
      "Ę$": 436,
      "ĕĞ": 437,
      "ěĜĚ": 438,
      "Ėğ": 439,
      "Ĝ$": 440,
      "ĜĜĝĜĜĝ": 441,
      "ė!": 442,
      "ėĜĚ": 443,
      "ĔĜĜĜĜĜĜĕĜĜĜĜĜĜĖĜĜĜĜĜĜĘĜĜĜĜĜĜĚ": 444,
      "ĜĜĜĝĜĝ": 445,
      "ĜĜĜĜĜĜĜĜĜĜĜĜ": 446,
      "ĖĀ": 447,
      "ĜĜěĜĜě": 448,
      "\"Ě": 449,
      "ĞĜĞ": 450,
      "ĜĜĜěĜĜĜĜĜĜĜĜĜĜĜĜĜĜĜĜĜĜĜĜĜĜĜĜĜĜĜĜĜĜĜĜĜĜĜĜĜĜĜ": 451,
      "ĠĘ": 452,
      "ēě": 453,
      "ĕę": 454,
      "ĜĜĜĜĜĜěĜĜĜĜĜĜĜĜĜĜĜĜĜĜĜĜĜĜĜĜĜĜĜĜĜĜĜĜĜĜĜĜĜĜĜĜĜĜĜ": 455,
      "#Ě": 456,
      "ĝĜĝĜĜĜ": 457,
      "Ĝ)": 458,
      "ĘĜěĀ": 459,
      "ĜĜĜĜĜěĜĜĜĜĜĜĜĜĜĜĜĜĜĜĜĜĜĜĜĜĜĜĜĜĜĜĜĜĜĜĜĜĜ": 460,
      "ĜĜĜĜĜĜĝĜĜĜĜĜĜĜĜĜĜĜĜĜĜĜĜĜĜĜĜĜĜĜĜĜĜĜĜĜĜĜĜĜĜĜĜĜĜĜ": 461,
      "ĜĀě": 462,
      "ĘĝĜ": 463,
      "ĜĜĜěĝ": 464,
      "ěĜěĜě": 465,
      "ĜĝĜĜĜĜ": 466,
      "ĜĜĜĜĜĜĝĜĜĜĜĜĜĜĜĜĜĜĜĜĜĜĜĜĜĜĜĜĜĜĜĜĜĜĜĜĜĜĜĜ": 467,
      "Ġ!": 468,
      "ĠĖ": 469,
      "ĚĜĚ": 470,
      "ĘĝĜĀ": 471,
      "Ğĝĝ": 472,
      "ĜĜĜĜĜĜĝĜĜĜĜĜĜĜĜĜĜĜĜĜĜĜĜĜĜĜĜĜĜĜĜĜ": 473,
      "Āĝě": 474,
      "ėĘ": 475,
      "ĘĚĜĀ": 476,
      "ĜĜĜĝĜĜĜĜĜĜĜĜĜĜĜĜĜĜĜĜĜĜĜĜĜĜĜĜĜĜĜĜĜĜĜĜĜĜĜĜĜĜĜ": 477,
      "ĜĜĜĜĜĜěĜĜĜĜĜĜĜĜĜĜĜĜĜĜĜĜĜĜĜĜĜĜĜĜĜĜĜĜĜĜĜĜĜ": 478,
      "ĜĜĜĜĜĜĕĜĜĜĜĜĜ\"ĜĜĜĜĜĜĘĜĜĜĜĜĜĞ": 479,
      "ĝĜĜĜĜĜĜĜĜĜĜĜĜĜĜĜĜĜĜĜĜĜĜĜĜĜĜĜĜĜĜĜĜĜĜĜĜĜ": 480,
      "ĝĜĝĜĝ": 481,
      "ĜĜĜĜĜĝĜĜĜĜĜĜĜĜĜĜĜĜĜĜĜĜĜĜĜĜĜĜĜĜĜĜĜĜĜĜĜĜĜ": 482,
      "%ĜĜĜĜĜĜĔĜĜĜĜĜĜ#ĜĜĜĜĜĜĖĜĜĜĜĜĜ": 483,
      "Ĝ.": 484,
      "ĜĜĜěĜĜĝ": 485,
      "ĘĜĞ": 486,
      "ĠĜĞ": 487,
      "ĝĜěě": 488,
      "ĜĎ": 489,
      "!Ğ": 490,
      "ĝĜĜĜĜĜĜĜĜĜĜĜĜĜĜĜĜĜĜĜĜĜĜĜĜĜĜĜĜĜĜĜĜĜĜĜĜ": 491,
      "ĜĜĜĜĜĝĝ": 492,
      "ěĜę": 493,
      "ĜěĞ": 494,
      "ĝĜĜĜĜĜĜĜĜĜĜĜĜĜĜĜĜĜĜĜĜĜĜĜĜĜĜĜĜĜĜĜĜĜĜĜĜĜĜĜĜĜĜĜĜĜĜĜĜ": 495,
      "ĜĜĜĝĜĜě": 496,
      "#Ĝ": 497,
      "ĝĜĜĜĜĜĜĜĜĜĜĜĜĜĜĜĜĜĜĜĜĜĜĜĜĜĜĜĜĜĜĜĜĜ": 498,
      "ĜĜĜěĜĝ": 499,
      "Ēě": 500,
      "ĜĘĝ": 501,
      "$ĜĜĜĜĜĜĕĜĜĜĜĜĜ\"ĜĜĜĜĜĜĘĜĜĜĜĜĜĞ": 502,
      "ĜĜĝĜĜĜĜĜĜĜĜĜĜĜĜĜĜĜĜĜĜĜĜĜĜĜĜĜĜĜĜĜĜĜĜĜĜĜĜĜĜĜĜĜĜĜ": 503,
      "ėĜę": 504,
      "Āěě": 505,
      "ęĜĝ": 506,
      "ĘĚĜ": 507,
      "ĝĜěĜě": 508,
      "ĔĞ": 509,
      "ĝĜĝě": 510,
      "ĜĜĜē": 511,
      "88": 512,
      "ĜĜĝĜĜĜĜĜĜĜĜĜĜĜĜĜĜĜĜĜĜĜĜĜĜĜĜĜĜĜĜĜĜĜĜĜĜ": 513,
      "ĜĜĝĜĜĜĜĜĜĜĜĜĜĜĜĜĜĜĜĜĜĜĜĜĜĜĜĜĜĜĜĜĜĜĜĜĜĜĜĜĜĜĜ": 514,
      "ĜĜěĜĜĜĜĜĜĜĜĜĜĜĜĜĜĜĜĜĜĜĜĜĜĜĜĜĜĜĜĜĜĜĜĜĜĜĜĜĜĜĜĜĜĜ": 515,
      "ĜĜĞě": 516,
      "ĔĚ": 517,
      "Ęē": 518,
      "ĕĜ": 519,
      "ĜĜĜĜĜĜĜĜĜĜĜĜě": 520,
      "ĜĜĚě": 521,
      "ėĖ": 522,
      "$ě": 523,
      "Ę%": 524,
      "ė\"": 525,
      "ĜĜĜĜĜĜĝĜĜĜĜĜĜě": 526,
      "ĜĜĜĜĜĜ#ĜĜĜĜĜĜ\"ĜĜĜĜĜĜ": 527,
      "ěĝĜě": 528,
      "ĚĜę": 529,
      "ĜĜěĜĜĜĜĜĜĜĜĜĜĜĜĜĜĜĜĜĜĜĜĜĜĜĜĜĜĜĜĜĜĜĜĜĜĜĜĜĜĜĜĜ": 530,
      "ĜĜĜĜĜěĝ": 531,
      "Ġĕ": 532,
      "ĜĞĜě": 533,
      "ĝĜğ": 534,
      "ĜĜĜĜĜĜĝĜĜĜĜĜĜĜĜĜĜĜĜĜĜĜĜĜĜĜĜĜĜĜĜĜĜĜĜĜĜĜĜĜĜĜĜĜ": 535,
      "Ĕę": 536,
      "ĜĜěĜěĜě": 537,
      "ĖĜě": 538,
      "!ę": 539,
      "ĜĜěĜĜĜĜĜĜĜĜĜĜĜĜĜĜĜĜĜĜĜĜĜĜĜĜĜĜĜĜĜĜĜĜĜĜĜĜĜĜĜĜ": 540,
      "ĝĘ": 541,
      "ĜĜĜĜĜĜěĜĜĜĜĜĜĜĜĜĜĜĜĜĜĜĜĜĜĜĜĜĜĜĜĜĜĜĜĜĜĜĜĜĜĜĜĜ": 542,
      "#ĝ": 543,
      "ĕğ": 544,
      "ĝĝĜĝ": 545,
      "ĜĜē": 546,
      "ĔĜ": 547,
      "\"ĜĜĜĜĜĜĜĜĜĜĜĜĜĘĜĜĜĜĜĜ!ĜĜĜĜĜĜĘ": 548,
      "ęĜĚ": 549,
      "!ğ": 550,
      "ĜĜĜĜĜĝĜĜĜĜĜĜĜĜĜĜĜĜĜĜĜĜĜĜĜĜĜĜĜĜĜĜĜĜĜĜĜĜ": 551,
      "ěěĜĝ": 552,
      "ĘĝĚ": 553,
      "ĠĜĀ": 554,
      "ĜĜĜĜĞ": 555,
      "ĞěĜě": 556,
      "Ėė": 557,
      "ĜĜĜĜĜĜ#ĜĜĜĜĜĜĚĜĜĜĜĜĜĘĜĜĜĜĜĜ!": 558,
      "ĜĜĝĜĜĜĜĜĜĜĜĜĜĜĜĜĜĜĜĜĜĜĜĜĜĜĜĜĜĜĜĜĜĜĜĜĜĜĜĜĜĜĜĜ": 559,
      "ĜĜĜĜĜĜĕĜĜĜĜĜĜĚĜĜĜĜĜĜ": 560,
      "ėĜĘ": 561,
      "ĖĜĜ": 562,
      "ĜĜĜĜĜĜĜĜĜĜĜĜĝ": 563,
      "ĜĜĜĜĜĜĝĜĜĜĜĜĜĜĜĜĜĜĜĜĜĜĜĜĜĜĜĜĜĜĜĜĜĜĜĜĜĜĜĜĜ": 564,
      "ĜĞĞ": 565,
      "ĝěĜĝ": 566,
      "#ę": 567,
      "$ĜĜĜĜĜĜ#ĜĜĜĜĜĜ\"ĜĜĜĜĜĜ": 568,
      "\"ĜĜĜĜĜĜĜĜĜĜĜĜĜĘĜĜĜĜĜĜėĜĜĜĜĜĜĘ": 569,
      "đě": 570,
      "ĜĜĜĜĜĜĜĜĜĜĜĜĜ\"ĜĜĜĜĜĜĜĜĜĜĜĜĜė": 571,
      "ĜĜĜěĜĜĜĜĜĜĜĜĜĜĜĜĜĜĜĜĜĜĜĜĜĜĜĜĜĜĜĜĜĜĜĜĜĜĜĜĜĜĜĜ": 572,
      "ĜĜĜĜěĜĜĜĜĜĜĜĜĜĜĜĜĜĜĜĜĜĜĜĜĜĜĜĜĜĜĜĜĜĜĜĜĜĜ": 573,
      "Ěė": 574,
      "ĜĘĜě": 575,
      "\"ę": 576,
      "Ğ!": 577,
      "ĜĜĜěĜĜĜĜĜĜĜĜĜĜĜĜĜĜĜĜĜĜĜĜĜĜĜĜĜĜĜĜĜĜĜĜĜ": 578,
      "Ĝğě": 579,
      "ĘĞĜ": 580,
      "Ğė": 581,
      "ĘęĜĀ": 582,
      "%ě": 583,
      "ēĝ": 584,
      ")ĜĜĜĜĜĜĖĜĜĜĜĜĜĜĜĜĜĜĜĜ": 585,
      "ĜĜĜĝĜĜĜĜĜĜĜĜĜĜĜĜĜĜĜĜĜĜĜĜĜĜĜĜĜĜĜĜĜĜĜĜĜĜĜĜĜĜĜĜ": 586,
      "Ĝęĝ": 587,
      "ĞĀ": 588,
      "ęė": 589,
      "ĘĞě": 590,
      "ĝ!": 591,
      "ĕĀ": 592,
      "ĝĜĝĝ": 593,
      "ĕė": 594,
      "$Ĝ": 595,
      "Ēĝ": 596,
      "ěĜĝĜě": 597,
      "%ĜĜĜĜĜĜğĜĜĜĜĜĜĕĜĜĜĜĜĜĞĜĜĜĜĜĜ": 598,
      "ĘĚě": 599,
      "ēĚ": 600,
      "ĜĜĜĜĜĝĜĜĜĜĜĜĜĜĜĜĜĜĜĜĜĜĜĜĜĜĜĜĜĜĜĜĜĜĜĜĜĜĜĜĜĜĜ": 601,
      "ĜĚĞ": 602,
      "ĘĜĀ": 603,
      "\"Ğ": 604,
      "ĜĜĞĜĝ": 605,
      "ğĀ": 606,
      "ĜěĜĜĜĜ": 607,
      "ďĜĜĜĜĜĜĖĜĜĜĜĜĜĜĜĜĜĜĜĜ": 608,
      "ĜĜĜĜĜĜĜĜĜĜĜĜĜĜĜĜĜĜĜĜĜĜ": 609,
      "ēę": 610,
      "ĜĜ!": 611,
      "ĜĜĜĜěĜĜĜĜĜĜĜĜĜĜĜĜĜĜĜĜĜĜĜĜĜĜĜĜĜĜĜĜĜĜĜĜĜĜĜĜĜĜĜĜĜ": 612,
      "ēĜ": 613,
      "Ĕė": 614,
      "ĝĚĝ": 615,
      "ĝĝĞ": 616,
      "ēĜĜĜĜĜĜğĜĜĜĜĜĜ#ĜĜĜĜĜĜĞĜĜĜĜĜĜĘĜĜĜĜĜĜė": 617,
      "Ġ\"": 618,
      "ĜĜĜĜĝĜĜĜĜĜĜĜĜĜĜĜĜĜĜĜĜĜĜĜĜĜĜĜĜĜĜĜĜĜĜĜĜĜĜĜĜĜĜĜĜĜ": 619,
      "ěė": 620,
      "ĜĜĜĜěĝ": 621,
      "ĜĜĜĜĜĝĜĜĜĜĜĜĜĜĜĜĜĜĜĜĜĜĜĜĜĜĜĜĜĜĜĜĜĜĜĜĜĜĜĜ": 622,
      "ĜĜĜĜĜĜĝĜĜĜĜĜĜĜĜĜĜĜĜĜĜĜĜĜĜĜĜĜĜĜĜĜĜĜĜĜĜ": 623,
      "ĜĝĚ": 624,
      "ĜĜěěě": 625,
      "ěĘ": 626,
      "%ĜĜěĜĜĜ": 627,
      "ęĜĜĜĜĜĜ#ĜĜĜĜĜĜĚĜĜĜĜĜĜĘĜĜĜĜĜĜ!": 628,
      "ğĜĞ": 629,
      "ĜĜĝĝĝ": 630,
      "ĜĂ": 631,
      "ĜĜĝĜĝĜĝ": 632,
      "ĝė": 633,
      "ęĜĜĜĜĜĜĕĜĜĜĜĜĜĚĜĜĜĜĜĜ": 634,
      "ĜĜĜĝĜĜĜĜĜĜĜĜĜĜĜĜĜĜĜĜĜĜĜĜĜĜĜĜĜĜĜĜĜĜĜĜĜ": 635,
      "ĝěĞ": 636,
      "ĜĜĚĜě": 637,
      "&ě": 638,
      "ĕĜĜ": 639,
      "ĘĜğ": 640,
      "!Ā": 641,
      "\"Ā": 642,
      "ĜĜĞĝ": 643,
      "ĜĜĜĜĝĜĜĜĜĜĜĜĜĜĜĜĜĜĜĜĜĜĜĜĜĜĜĜĜĜĜĜĜĜĜĜĜĜ": 644,
      "ěĜĝě": 645,
      "Ēę": 646,
      "ĜĜĝĜĜĜĜĜĜĜĜĜĜĜĜĜĜĜĜĜĜĜĜĜĜĜĜĜĜĜĜĜĜĜĜĜĜĜĜ": 647,
      "ĜĚĚ": 648,
      "ĜĜĜĜĜěĜĜĜĜĜĜĜĜĜĜĜĜĜĜĜĜĜĜĜĜĜĜĜĜĜĜĜĜĜĜĜĜĜĜĜĜĜĜĜĜ": 649,
      "\"ė": 650,
      "ĒĚ": 651,
      "ěĜĞ": 652,
      "ĜĜĜĜĜěĜĜĜĜĜĜĜĜĜĜĜĜĜĜĜĜĜĜĜĜĜĜĜĜĜĜĜĜĜĜĜĜĜĜĜĜĜ": 653,
      "ĔĀ": 654,
      "ğė": 655,
      "ĜĀĞ": 656,
      "ğ!": 657,
      "ĜĜěĜĜĜĜĜĜĜĜĜĜĜĜĜĜĜĜĜĜĜĜĜĜĜĜĜĜĜĜĜĜĜĜĜĜ": 658,
      "ĘğĜ": 659,
      "ĝĜĜ": 660,
      "ĜĜĝĜĜĜĜĜĜĜĜĜĜĜĜĜĜĜĜĜĜĜĜĜĜĜĜĜĜĜĜĜĜĜĜĜĜĜĜĜ": 661,
      "#ė": 662,
      "ĒĜ": 663,
      "ĜĜěĜĜĜĜĜĜĜĜĜĜĜĜĜĜĜĜĜĜĜĜĜĜĜĜĜĜĜĜĜĜĜĜĜĜĜĜĜĜĜĜĜĜĜĜĜĜ": 664,
      "ĞĜĝě": 665,
      "$Ě": 666,
      "!ė": 667,
      "ĞĘ": 668,
      "ĜĜěĜĜĜĜĜĜĜĜĜĜĜĜĜĜĜĜĜĜĜĜĜĜĜĜĜĜĜĜĜĜĜĜĜĜĜĜĜ": 669,
      "ĘĜĖ": 670,
      "ĘęĜ": 671,
      "ğĘ": 672,
      "ĀĜĞ": 673,
      "đę": 674,
      "ĜęĜě": 675,
      "#Ğ": 676,
      "ĖĖ": 677,
      "ĜĜěĚ": 678,
      "ěěĚ": 679,
      "ĝěĜĜĝ": 680,
      "ĜĜĜĜĜĜěĜĜĜĜĜĜĜĜĜĜĜĜĜĜĜĜĜĜĜĜĜĜĜĜĜĜĜ": 681,
      "ėěĜĀ": 682,
      "ĜĜĜę": 683,
      "ĕĜě": 684,
      "Ĝğĝ": 685,
      "ěĜĝĝ": 686,
      "ĜĜĜĜĜĜĝĜĜĜĜĜĜĜĜĜĜĜĜĜĜĜĜĜĜĜĜĜĜĜĜĜĜĜ": 687,
      "ĘĜĜĀĜĜĜĜĜĜĜĜĜĜĜĜĜĜĜĜĜĜĜĜĜĜĜĜĜĜĜĜĜĜĜĜĜĜĜĜĜĜĜĜĜĜĜĜĜĜĜĜĜ": 688,
      "ĜĜ\"": 689,
      "đĚ": 690,
      "ĜĜĜĜĜĜĜĜĜ": 691,
      "ĘěĚ": 692,
      "ĜĜĜĜĜěĜĜĜĜĜĜĜĜĜĜĜĜĜĜĜĜĜĜĜĜĜĜĜĜĜĜĜĜĜĜĜĜ": 693,
      "ēĜĜĜĜĜĜĔĜĜĜĜĜĜĕĜĜĜĜĜĜĖĜĜĜĜĜĜĘĜĜĜĜĜĜĚ": 694,
      "ĠĔ": 695,
      "ĜĜĜĜĜĜěĜĜĜĜĜĜĜĜĜĜĜĜĜĜĜĜĜĜĜĜĜĜĜĜĜĜĜĜĜĜ": 696,
      "ĒĞ": 697,
      "ĜĜė": 698,
      "ĜĀĝ": 699,
      "ěĝĚ": 700,
      "ę!": 701,
      "ĝĜĝĜě": 702,
      "Đě": 703,
      "ēė": 704,
      "ĜĜĘ": 705,
      "ĀĜĜĝ": 706,
      "ĜĜĞĜě": 707,
      "đė": 708,
      "Ė!": 709,
      "ĜĜěĜĚ": 710,
      "ĜĜěĜĜĜĜĜĜĜĜĜĜĜĜĜĜĜĜĜĜĜĜĜĜĜĜĜĜĜĜĜĜĜĜĜĜĜĜ": 711,
      "ĀĞě": 712,
      "ěĜĘ": 713,
      "ĜĜĜĜĜĜĜĜĜĜĜĜĜĜĜĜĜĜĜĜĝ": 714,
      "Ġ4": 715,
      "ĜĜĜĜĜĜěĜě": 716,
      "Đė": 717,
      "Ę&": 718,
      "%Ĝ": 719,
      "#Ė": 720,
      "ĜĜĜĜĜĜĝĜĜĜĜĜĜĜĜĜĜĜĜĜĜĜĜĜĜĜĜĜĜĜĜĜĜ": 721,
      "ĜĜĜĜĜĜĜĜĝĜĜĜĜĜĜĜĜĜĜĜĜĜĜĜĜĜĜĜĜĜĜĜĜĜĜĜĜĜĜĜĜ": 722,
      "ĜĜĜĜĜĜĜĜĜĜĜĜĜĜĜĜĜĜĜĜě": 723,
      "ěĜė": 724,
      "ĜĜĜĜěĜĜĜĜĜĜĜĜĜĜĜĜĜĜĜĜĜĜĜĜĜĜĜĜĜĜĜĜĜĜĜĜĜĜĜĜĜĜĜĜĜĜĜĜ": 725,
      "ĚěĚ": 726,
      "ēĞ": 727,
      "ĖĜĚ": 728,
      "Ĝęě": 729,
      "ĜěĚ": 730,
      "ĜĚĜĝ": 731,
      "ěĜĝĜĝ": 732,
      "$ė": 733,
      "ĘĞĜĀ": 734,
      "Ęĝĝ": 735,
      "Ğĝě": 736,
      "ĚĜĘ": 737,
      "ĜĜĜĜěĜĜĜĜĜĜĜĜĜĜĜĜĜĜĜĜĜĜĜĜĜĜĜĜĜĜĜ": 738,
      "$ĝ": 739,
      "đĜ": 740,
      "ě!": 741,
      "đĝ": 742,
      "Ğěě": 743,
      "ĕĖ": 744,
      "ĝĜěĜĝ": 745,
      "%ĝ": 746,
      "\"ğ": 747,
      "ĝĜěĝ": 748,
      "ĘĜĚĀ": 749,
      "ĜĘĜĜĀ": 750,
      "ĜĜĝĜĜĜĜĜĜĜĜĜĜ": 751,
      "Ĕğ": 752,
      "ĜĜĜĜĜĜěĜĜĜĜĜĜĜĜĜĜĜĜĜĜĜĜĜĜĜĜĜĜĜĜĜĜĜĜĜĜĜĜĜĜ": 753,
      "ęĝě": 754,
      "Ġěĝ": 755,
      "ĕĘ": 756,
      "ĜĜĝĝě": 757,
      "Ġ#": 758,
      "ĜĜ%": 759,
      "$ę": 760,
      "ėĝě": 761,
      "ĞĝĞ": 762,
      "Ďę": 763,
      "ĝĜĝĜĜĜĜĜĜĜĜĜĜĜĜĜĜĜĜĜĜĜĜĜĜĜĜĜĜĜĜĜĜĜĜĜĜĜĜĜĜĜĜĜĜĜĜĜĜ": 764,
      "ĜĜĜĜĜěĜĜĜĜĜĜĜĜĜĜĜĜĜĜĜĜĜĜĜĜĜĜĜĜĜĜĜĜĜĜĜĜĜĜĜĜĜĜĜ": 765,
      "ĜĜĚĝ": 766,
      "ĐĚ": 767,
      "Ēė": 768,
      "ĎĚ": 769,
      "ęĘ": 770,
      "ěĜěě": 771,
      "ĜĘĜĜ": 772,
      "ĞĜĚ": 773,
      "ĞěĜĝ": 774,
      "ĜĜĜĜĝĜĜĜĜĜĜĜĜĜĜĜĜĜĜĜĜĜĜĜĜĜĜĜĜĜĜĜ": 775,
      "ĜēĜĜĜĜĜĜ": 776,
      "ĖĜĜĀ": 777,
      "ĜĜĜĜĜĜĝĜĝ": 778,
      "ĜĜĜĜĜĜěĜĜĜĜĜĜĜĜĜĜĜĜĜĜĜĜĜĜĜĜĜĜĜĜĜĜ": 779,
      "ĜĜĜĜĜĝĜĜĜĜĜĜĜĜĜĜĜĜĜĜĜĜĜĜĜĜĜĜĜĜĜĜĜĜĜĜĜĜĜĜĜĜĜĜĜ": 780,
      "ĘĜĕ": 781,
      "ėěĜ": 782,
      "ĀĜĚ": 783,
      "ĘĘĜĀ": 784,
      "ĀĝĞ": 785,
      "Đę": 786,
      "ĚĘ": 787,
      "ĜĜĜĝĜĜĜĜĜĜĜĜĜĜĜĜĜĜĜĜĜĜĜĜĜĜĜĜĜĜĜĜĜĜĜĜĜĜĜĜĜ": 788,
      "ĜĜĜĜĜěĜĜĜĜĜĜĜĜĜĜĜĜĜĜĜĜĜĜĜĜĜĜĜĜĜĜĜĜĜĜĜĜĜĜ": 789,
      "ĖĘ": 790,
      "ĜĜĜĄ": 791,
      "ĜĜĜĜĝĜĜĜĜĜĜĜĜĜĜĜĜĜĜĜĜĜĜĜĜĜĜĜĜĜĜĜĜĜĜĜĜĜĜĜĜĜĜĜĜ": 792,
      "ĜěĜĝ": 793,
      "ěěĜĜě": 794,
      "ĝĝĜĜĜĜĜĜĜĜĜĜĜĜĜĜĜĜĜĜĜĜĜĜĜĜĜĜĜĜĜĜĜĜĜĜĜĜĜĜĜ": 795,
      "Ğěĝ": 796,
      "%Ě": 797,
      "ĜĞĚ": 798,
      "ĜĜĜĜĜĜěĜĜĜĜĜĜĝ": 799,
      "ėĜĝ": 800,
      "ĜĜĜĜĝĜĜĜĜĜĜĜĜĜĜĜĜĜĜĜĜĜĜĜĜĜĜĜĜĜĜĜĜĜĜĜĜĜĜĜĜĜĜĜĜĜĜĜĜ": 801,
      "ĠĜğ": 802,
      "ĚĜė": 803,
      "Ĝěğ": 804,
      "ĜĜĜĜěĜĜĜĜĜĜĜĜĜĜĜĜĜĜĜĜĜĜĜĜĜĜĜĜĜĜĜĜĜĜĜĜĜ": 805,
      "ĜĜĜěĜĜĜĜĜĜĜĜĜĜĜĜĜĜĜĜĜĜĜĜĜĜĜĜĜĜĜĜĜĜĜĜĜĜĜĜĜ": 806,
      "ĜĜĜĜĜĝĜĜĜĜĜĜĜĜĜĜĜĜĜĜĜĜĜĜĜĜĜĜĜĜĜĜĜĜĜĜĜĜĜĜĜĜĜĜĜĜ": 807,
      "Ā\"": 808,
      "ĝ\"": 809,
      "ğ\"": 810,
      "Ġ5": 811,
      "ĜĜĜĜĜĜĜĝĜĜĜĜĜĜĜĜĜĜĜĜĜĜĜĜĜĜĜĜĜĜĜĜĜĜĜĜĜĜĜĜ": 812,
      "ĔĘ": 813,
      "ęĜĘ": 814,
      "Ġĝĝ": 815,
      "ĜĀĜĝ": 816,
      "Ğ\"": 817,
      "ĞĜĜě": 818,
      "ĜĜĜĝĜĜĝ": 819,
      "ğĝĝ": 820,
      "ĜĜĞĜĜĜĜĜĜĜĜĜĜĜĜĜĜĜĜĜĜĜĜĜĜĜĜĜĜĜĜĜĜĜĜĜĜĜĜĜĜĜĜĜĜĜĜĜĜ": 821,
      "ĜĜĜĝĜĜĜĜĜĜĜĜĜĜĜĜĜĜĜĜĜĜĜĜĜĜĜĜĜĜĜĜĜĜĜĜĜĜ": 822,
      "ďė": 823,
      "ďĜĜĜĜĜĜ": 824,
      "ęĜę": 825,
      "#Ā": 826,
      "ďě": 827,
      "Ġē": 828,
      "Ďė": 829,
      "ĜĜĝĜĞ": 830,
      "đĘ": 831,
      "!Ĝĝ": 832,
      "ğĖ": 833,
      "ěĝĜĜě": 834,
      "ĜĜĖ": 835,
      "ĐĜ": 836,
      "ĔĖ": 837,
      "ĒĘ": 838,
      "&Ĝ": 839,
      "'ė": 840,
      "ęĜė": 841,
      "ěĜĖ": 842,
      "ĜĜĜĜěěě": 843,
      "ĝĖ": 844,
      "ĜĜĝĞ": 845,
      "%ė": 846,
      "ĒĜĜĜĜĜĜ": 847,
      "ĞĜğ": 848,
      "#ğ": 849,
      "Āěĝ": 850,
      "ĞěĞ": 851,
      "ęĖ": 852,
      "Ě!": 853,
      "ĜĜĜĜĜĚ": 854,
      "ěěĞ": 855,
      "ĘĚĚ": 856,
      "ĀĝĜĝ": 857,
      "ēĜĜĜĜĜĜĜĜĜĜĜĜĜ\"ĜĜĜĜĜĜĜĜĜĜĜĜĜė": 858,
      "ēĜĜěĜĜĜ": 859,
      "Ę!Ĝ": 860,
      "ĜĜĜĜĜĜĝĝ": 861,
      "ěěĜĜĜĜĜĜĜĜĜĜĜĜĜĜĜĜĜĜĜĜĜĜĜĜĜĜĜĜĜĜĜĜĜĜĜĜĜĜĜ": 862,
      "ĝěĚ": 863,
      "ĜĜĜĜĜĜěĜĜĜĜĜĜĜĜĜĜĜĜĜĜĜĜĜĜĜĜĜĜĜĜĜĜĜĜĜĜĜĜĜĜĜĜ": 864,
      "ėĝĜĀ": 865,
      "ĜĘě": 866,
      "ĜĜĝĚ": 867,
      "$Ğ": 868,
      "ĝĜĜĜĝ": 869,
      "ĘĜĜĜĜĜĜ!ĜĜĜĜĜĜĘ": 870,
      "ēĘ": 871,
      "'ě": 872,
      "\"Ė": 873,
      "ĕ!": 874,
      "ĜĜĝĜĝĜĜĜĜĜĜĜĜĜĜĜĜĜĜĜĜĜĜĜĜĜĜĜĜĜĜĜĜĜĜĜĜĜĜĜĜĜĜĜ": 875,
      "ďę": 876,
      "ĝĜĚ": 877,
      "ĘĜĔ": 878,
      "ēğ": 879,
      "ĜĜĜĜĞĜĝ": 880,
      "&Ě": 881,
      "Ġěě": 882,
      "ĚěĜě": 883,
      "ĚěĜĝ": 884,
      "Ĝ*": 885,
      "ĀĞĝ": 886,
      "ĜěĜěĜě": 887,
      "&ė": 888,
      "ĜĜĜěĜĜĜĜĜĜĜĜĜĜĜĜĜĜĜĜĜĜĜĜĜĜĜĜĜĜĜĜĜĜĜĜ": 889,
      "ĜĜĜěĜĜě": 890,
      "ěĖ": 891,
      "ĝĚĜě": 892,
      "\"Ę": 893,
      "đĞ": 894,
      "#ĕ": 895,
      "ęĕ": 896,
      "ĚĜĞ": 897,
      "$Ė": 898,
      "ĜĜĚĜĝ": 899,
      "ĚĜĖ": 900,
      "ĜĜĜ%": 901,
      "ĞĖ": 902,
      "ĘğĜĀ": 903,
      "ĜĜĜĝĜĜĜĜĜĜĜĜĜĜĜĜĜĜĜĜĜĜĜĜĜĜĜĜĜĜĜĜĜĜĜĜ": 904,
      "ĜĜĜĜĜĜĝĜĜĜĜ": 905,
      "ěĜĜĜĜĜĜĜĜĜĜĜĜĜĜĜĜĜĜĜĜĜĜĜĜĜĜĜĜĜĜĜĜĜĜĜĜĜĜĜĜĜĜĜĜĜĜĜĜ": 906,
      "!Ę": 907,
      "ĚĖ": 908,
      ")ĜĜĜĜĜĜ": 909,
      "ĘĜē": 910,
      "ēĜĜĜĜĜĜ$ĜĜĜĜĜĜĕĜĜĜĜĜĜ\"ĜĜĜĜĜĜĘĜĜĜĜĜĜĞ": 911,
      "#Ę": 912,
      "ĔĜĜ": 913,
      "ĀĝĚ": 914,
      "%ę": 915,
      "'Ĝ": 916,
      "ěĜğ": 917,
      "ĐĘ": 918,
      "ĜĜĜğ": 919,
      "%ĜĜĜĜĜĜ$ĜĜĜĜĜĜ#ĜĜĜĜĜĜ\"ĜĜĜĜĜĜ": 920,
      "ĠĜĚ": 921,
      "ĘĜĜĜĜĜĜėĜĜĜĜĜĜĘ": 922,
      "ĜĜĜĜĝĜĜĜĜĜĜĜĜĜĜĜĜĜĜĜĜĜĜĜĜĜĜĜĜĜĜĜĜĜĜĜĜĜĜĜĜ": 923,
      "ĘĜĒ": 924,
      "ĜĜĜĜĝĜĝĜĜĜĜĜĜĜĜĜĜĜĜĜĜĜĜĜĜĜĜĜĜĜĜĜĜĜĜĜĜĜĜ": 925,
      "Āė": 926,
      "ěĜěĜĝ": 927,
      "ĘėĜĀ": 928,
      "!Ė": 929,
      "ĜĜĜĜĜĜĚ": 930,
      "ĜĜĝĜĝĜĜĜĜĜĜĜĜĜĜĜĜĜĜĜĜĜĜĜĜĜĜĜĜĜĜĜĜĜĜĜĜĜĜĜĜĜĜĜĜĜĜĜĜ": 931,
      "Ďě": 932,
      "ĜĜĜĘĜĜĀĜĜĜĜĜĜĜĜĜĜĜĜĜĜĜĜĜĜĜĜĜĜĜĜĜĜĜĜĜĜĜĜĜĜĜĜĜĜĜĜĜĜĜĜĜĜĜĜĜ": 933,
      "ĠĒ": 934,
      "ĕĕ": 935,
      "\"Ĝĝ": 936,
      "Đĝ": 937,
      "Ęěę": 938,
      "ĜĜĜěĜĜĜĜĜĜĜĜĜĜĜĜĜĜĜĜĜĜĜĜĜĜĜĜĜĜĜĜĜĜĜĜĜĜ": 939,
      "ěĝĞ": 940,
      "ĜĜĜěĜĜĜĜĜĜĜĜĜĜĜĜĜĜĜĜĜĜĜĜĜĜĜĜĜĜĜĜĜĜĜĜĜĜĜĜĜĜĜĜĜĜĜĜ": 941,
      "ďĚ": 942,
      "ĜĜĜĜěĜĜĜĜĜĜĜĜĜĜĜĜĜĜĜĜĜĜĜĜĜĜĜĜĜ": 943,
      "ěĜěĝ": 944,
      "&ĝ": 945,
      "ęĝĝ": 946,
      "ĜĜĜěĜĜĜĜĜĜĜĜĜĜĜĜĜĜĜĜĜĜĜĜĜĜĜĜĜĜĜĜĜĜĜĜĜĜĜĜĜĜĜĜĜ": 947,
      ")ĜĜěĜĜĜ": 948,
      "ĕĜĚ": 949,
      "ĝĜĝĜĜĜĜĜĜĜĜĜĜĜĜĜĜĜĜĜĜĜĜĜĜĜĜĜĜĜĜĜĜĜĜĜĜĜĜĜ": 950,
      "Ēğ": 951,
      "Ěĝĝ": 952,
      "Ĝđ": 953,
      "ĜĜěĝě": 954,
      "ĖĜę": 955,
      "ĜĜěĝĝ": 956,
      "ĜĜĜĝĜĜĜĜĜĜĜĜĜĜĜĜĜĜĜĜĜĜĜĜĜĜĜĜĜĜĜĜĜĜĜĜĜĜĜĜĜĜĜĜĜĜĜ": 957,
      "ĜĜĜĝĝě": 958,
      "ĜĜĜĜĜĜěĜĜĜ": 959,
      "ĀĞĜĝ": 960,
      "ęĜĖ": 961,
      "ğĜĚ": 962,
      "ĀĜę": 963,
      "ĀĜğ": 964,
      "ĜĐ": 965,
      "ĜĜěĜĜĜĜĜĜĜĜĜĜĜĜĜĜĜĜĜĜĜĜĜĜĜĜĜĜĜĜĜĜĜĜĜ": 966,
      "ĜĜĕ": 967,
      "ďĘ": 968,
      "ĜĜěĜĝĜĝ": 969,
      "ĜĜĜĜĜěĜĜĜĜĜĜĜĜĜĜĜĜĜĜĜĜĜĜĜĜĜĜĜĜĜĜ": 970,
      "%ĜĜĜĜĜĜęĜĜĜĜĜĜĕĜĜĜĜĜĜĚĜĜĜĜĜĜ": 971,
      "ĞěĚ": 972,
      "ğěě": 973,
      "ĜĜď": 974,
      "ĀĝĜĞ": 975,
      "ğěĝ": 976,
      "ĜĜ&": 977,
      "ĜĜĜĜĜĜĝĜĜĜĜĜĜĜĜĜĜĜĜĜĜĜĜĜĜĜĜĜĜĜĜĜĜĜĜĜĜĜĜĜĜĜĜ": 978,
      "ĝĝĜĜĝ": 979,
      "ėĕ": 980,
      "ĜĜĜĜěĜěĜĜĜĜĜĜĜĜĜĜĜĜĜĜĜĜĜĜĜĜĜĜĜĜĜĜĜĜĜĜĜĜ": 981,
      "đĖ": 982,
      "ĜĜĜĜĜěĜĜĜĜĜĜĜĜĜĜĜĜĜĜĜĜĜĜĜĜĜĜĜĜĜĜĜ": 983,
      "ĜĜĜĜĜĜěĜĜĜĜĜĜĜĜĜĜĜĜĜĜĜĜĜĜ": 984,
      "ĜĜĜĜĜĜĜĜĜĜĜĜĜěĜĜĜĜĜĜĜĜĜĜĜĜĜĜĜĜĜĜ": 985,
      "ėĜė": 986,
      "Ęĝę": 987,
      "ēĖ": 988,
      "ĘĞĚ": 989,
      "ěěĜĜĝ": 990,
      "Ĝ/": 991,
      "ĜĜĒ": 992,
      "ĜĜĜĜĜĜĝĜĜĜĜĜĜĜĜĜĜĜĜĜĜĜĜĜĜĜĜĜĜĜĜĜĜĜĜĜĜĜĜĜĜĜĜĜĜĜĜ": 993,
      "$Ā": 994,
      "ĜĜěĜěĜĜĜĜĜĜĜĜĜĜĜĜĜĜĜĜĜĜĜĜĜĜĜĜĜĜĜĜĜĜĜĜĜĜĜĜĜĜĜ": 995,
      "ĀĜĜ": 996,
      "ě\"": 997,
      "ěĜĝĜĜĜĜĜĜĜĜĜĜĜĜĜĜĜĜĜĜĜĜĜĜĜĜĜĜĜĜĜĜĜĜĜĜĜĜĜĜĜĜĜĜĜĜĜĜ": 998,
      "ĚĜĕ": 999,
      "ĝ#": 1000,
      "ĜĜĜĜĜĝĜĜĜĜĜĜĜĜĜĜĜĜĜĜĜĜĜĜĜĜĜĜĜĜĜĜ": 1001,
      "Ěěě": 1002,
      "\"ĕ": 1003,
      "ėĝĚ": 1004,
      "Ěĝě": 1005,
      "$ĕ": 1006,
      "Āğě": 1007,
      "ęĜĞ": 1008,
      "ĜĜĜĜĜĝĝĜĜĜĜĜĜĜĜĜĜĜĜĜĜĜĜĜĜĜĜĜĜĜĜĜĜĜĜĜĜĜĜ": 1009,
      "ĝĝĜĜĜĜ": 1010,
      "ĜĘĞ": 1011,
      "ęěě": 1012,
      "%Ė": 1013,
      "Ĝĝğ": 1014,
      "ĀĞĞ": 1015,
      "&Ė": 1016,
      "ěĜĜ": 1017,
      "ğĜğ": 1018,
      "ĜĜĝĜĜĜĜĜĜĜĜĜĜĜĜĜĜĜĜĜĜĜĜĜĜĜĜĜĜĜĜĜĜĜĜĜ": 1019,
      "ĕĜĜĀ": 1020,
      "ĜĜěĜěĜĜĜĜĜĜĜĜĜĜĜĜĜĜĜĜĜĜĜĜĜĜĜĜĜĜĜĜĜĜĜĜ": 1021,
      "ėĝĜ": 1022,
      "Ġĝě": 1023,
      "ĀĞĚ": 1024,
      "Ďĝ": 1025,
      "ĒĖ": 1026,
      "Ğ#": 1027,
      "ĜĜĝěě": 1028,
      "ĜĜĜěĜĜĜĜĜĜĜĜĜĜĜĜĜĜĜĜĜĜĜĜĜĜĜĜĜĜĜĜĜĜĜĜĜĜĜĜĜĜĜĜĜĜĜ": 1029,
      "ĜĀĜě": 1030,
      "ĜĘĜĚ": 1031,
      "Ęğě": 1032,
      "ĜĜěěĝ": 1033,
      "ěĚĜě": 1034,
      "ĜĜĜĜĝĜĝĜĜĜĜĜĜĜĜĜĜĜĜĜĜĜĜĜĜĜĜĜĜĜĜĜĜĜĜĜĜĜĜĜĜĜĜĜ": 1035,
      "!Ĝě": 1036,
      "Ę\"Ĝ": 1037,
      "ĜĜěěĜĝ": 1038,
      "'Ė": 1039,
      "ĝĝĚ": 1040,
      "ĐĖ": 1041,
      "ĜĜĜĜěĜĜĜĜĜĜĜĜĜĜĜĜĜĜĜĜĜĜĜĜĜĜĜĜĜĜĜĜĜĜĜĜĜĜĜĜĜĜĜĜ": 1042,
      "$ğ": 1043,
      "ĜĚĜĚ": 1044,
      "ĜĜĝĜĝĜĜĜĜĜĜĜĜĜĜĜĜĜĜĜĜĜĜĜĜĜĜĜĜĜĜĜĜĜĜĜĜ": 1045,
      "ďĝ": 1046,
      "ĕĜĜěĜĜĜ": 1047,
      "ĜĜĜĜĜĜĜĜĜěĜĜĜ": 1048,
      "ĀĜĜĞ": 1049,
      "ĜĘĜę": 1050,
      "ĜĜĜĜĜěĜě": 1051,
      "(ě": 1052,
      "ĎĘ": 1053,
      "ĜĜěĜĝĜě": 1054,
      "!ĕ": 1055,
      "%Ğ": 1056,
      "ĔĜě": 1057,
      "Ě\"": 1058,
      "ę\"": 1059,
      "ĀěĚ": 1060,
      "ĜĜ$": 1061,
      "ĜĜĜĜěĜěĜĜĜĜĜĜĜĜĜĜĜĜĜĜĜĜĜĜĜĜĜĜĜĜĜĜĜĜĜĜĜĜĜĜĜĜĜ": 1062,
      "ĜĜĜĜĝĝě": 1063,
      "!ĜĞ": 1064,
      "ęĜĜ": 1065,
      "Ĝ(": 1066,
      "ĘĝĞ": 1067,
      "Ĝ-": 1068,
      "ĠĜĜě": 1069,
      "ĜĜĝĜěĜě": 1070,
      "ĕĜĜĜĜĜĜĚĜĜĜĜĜĜ": 1071,
      "ĜĜĜĝĜĝě": 1072,
      "Ġ$": 1073,
      "Ěěę": 1074,
      "Ĕĕ": 1075,
      "Ęěė": 1076,
      "ďĜĜĜĜĜĜ\"ĜĜĜĜĜĜĜĜĜĜĜĜĜĘĜĜĜĜĜĜ!ĜĜĜĜĜĜĘ": 1077,
      "'Ě": 1078,
      "ėěě": 1079,
      "ĜĜĜĜĝĜĜĜĜĜĜĜĜĜĜĜĜĜĜĜĜĜĜĜĜĜĜĜĜĜ": 1080,
      "ėĚĜĀ": 1081,
      "ğĕ": 1082,
      "$Ę": 1083,
      "ĐĞ": 1084,
      "Ėĝě": 1085,
      "ĝĝĝě": 1086,
      "ďĜ": 1087,
      "ĜěěĜĜĜ": 1088,
      "ĜĜĜĝěĜě": 1089,
      "ĜĜěěĜĜĜĜĜĜĜĜĜĜĜĜĜĜĜĜĜĜĜĜĜĜĜĜĜĜĜĜĜĜĜĜĜĜĜĜĜĜĜ": 1090,
      "Ęěĝ": 1091,
      "ěĝě": 1092,
      "ĜĜĜěěĜĝ": 1093,
      "ĜĜĜĜĜĜĜĜĜĜĜĝĜĜĜĜĜĜĜĜĜĜĜĜĜĜĜĜĜĜĜĜĜĜĜĜĜĜĜĜĜĜĜĜ": 1094,
      "(ė": 1095,
      "#ĜĜĜĜĜĜĚĜĜĜĜĜĜĘĜĜĜĜĜĜ!": 1096,
      "*ė": 1097,
      "Ā#": 1098,
      "ĜěěĜĜĜĜĜĜĜĜĜĜĜĜĜĜĜĜĜĜĜĜĜĜĜĜĜĜĜĜĜĜĜĜĜĜĜĜĜĜĜĜĜĜĜ": 1099,
      "ĜĜĜĜĜĞ": 1100,
      "ĜĀğ": 1101,
      "ĜĜĜĜĜĝĜĜĜĜĜĜĜĜĜĜĜĜĜĜĜĜĜĜĜĜĜĜĜĜĜĜĜ": 1102,
      "ěĜĕ": 1103,
      "Ĝ+": 1104,
      "ĜĞĜĜĜĜĜĜĜĜĜĜĜĜĜĜĜĜĜĜĜĜĜĜĜĜĜĜĜĜĜĜĜĜĜĜĜĜĜĜĜĜĜĜĜĜ": 1105,
      "Ĝ,": 1106,
      "Ğĕ": 1107,
      "ĜĜĜĝĜĜĜĜĜĜĜĜĜĜĜĜĜĜĜĜĜĜĜĜĜĜĜĜĜĜĜĜĜĜĜĜĜĜĜĜ": 1108,
      "Ę!ě": 1109,
      "'ĝ": 1110,
      "ĜĜĜĜĚĜě": 1111,
      "&ę": 1112,
      "ĠĝĞ": 1113,
      "ĜĜĜěĜĜĜĜĜĜĜĜĜĜĜĜĜĜĜĜĜĜĜĜĜĜĜĜĜĜĜĜĜĜĜĜĜĜĜĜ": 1114,
      "!!": 1115,
      "ēĕ": 1116,
      "ĝĜĝĜĜĜĜĜĜĜĜĜĜĜĜĜĜĜĜĜĜĜĜĜĜĜĜĜĜĜĜĜĜĜĜĜĜĜĜĜĜĜĜĜĜĜĜ": 1117,
      "ĜěěĜĜĜĜĜĜĜĜĜĜĜĜĜĜĜĜĜĜĜĜĜĜĜĜĜĜĜĜĜĜĜĜĜĜĜĜĜĜĜĜ": 1118,
      "ĜĜĜĜĜĜĝĜĜĜĜĜĜĜĜĜĜĜĜĜĜĜĜĜĜĜĜ": 1119,
      "ĞĜĝĝ": 1120,
      "ĘėĜ": 1121,
      "Ėĕ": 1122,
      "ě#": 1123,
      "ĜĜĜĒ": 1124,
      "ĝěĜĜĜĜĜĜĜĜĜĜĜĜĜĜĜĜĜĜĜĜĜĜĜĜĜĜĜĜĜĜĜĜĜĜĜĜĜĜĜ": 1125,
      "ĚěĞ": 1126,
      "ĜĜĜĝĝĜě": 1127,
      "ĜĜĜĜĜĝĜĜĜĜĜĜĜĜĜĜĜĜĜĜĜĜĜĜĜĜĜĜĜĜĜĜĜĜĜĜ": 1128,
      "ĜĜĜĜĜĜĝĜĜĜĜĜĜĜĜĜĜĜĜĜĜĜĜĜĜ": 1129,
      "ďĜĜěĜĜĜ": 1130,
      "ěĝĝ": 1131,
      "đğ": 1132,
      "ĠěĜě": 1133,
      "%Ę": 1134,
      ")ė": 1135,
      "ĜĜĝĜĚ": 1136,
      "ğ#": 1137,
      "ĜĜĜĜĜĜ#": 1138,
      "ĝěğ": 1139,
      "ĜĝĝĜě": 1140,
      "ĝĚĞ": 1141,
      "ĘěĘ": 1142,
      "ēĜĜĜĜĜĜęĜĜĜĜĜĜ#ĜĜĜĜĜĜĚĜĜĜĜĜĜĘĜĜĜĜĜĜ!": 1143,
      "ėĜĖ": 1144,
      "ĝĝĜĜě": 1145,
      "'ę": 1146,
      "ĜĜĜĜĜĜĞ": 1147,
      "ĜĜĝĜĜĜĜĜĜĜĜĜĜĜĜĜĜĜĜĜĜĜĜĜĜĜĜĜĜĜĜĜĜ": 1148,
      "(Ě": 1149,
      "ęĜĕ": 1150,
      "ĜĝĜĜĜĜĜĜĜĜĜĜĜĜĜĜĜĜĜĜĜĜĜĜĜĜĜĜĜĜĜĜĜĜĜĜĜĜĜĜĜĜĜĜĜĜ": 1151,
      "ěěę": 1152,
      "ĜĜĜĜĜĜĜĜĜĜĜĜĜěĜĜĜĜĜĜĜĜĜĜĜĜĜĜĜĜĜĜĜĜĜĜĜĜĜ": 1153,
      "ĜĜěěĜĜĜĜĜĜĜĜĜĜĜĜĜĜĜĜĜĜĜĜĜĜĜĜĜĜĜĜĜĜĜĜĜĜĜĜĜĜĜĜ": 1154,
      "Ěěĝ": 1155,
      "Ġđ": 1156,
      "ĜĜĜĜĜĜěĜĜĜĜ": 1157,
      "#ĜĜĜĜĜĜ\"ĜĜĜĜĜĜ": 1158,
      "ĜĜ#": 1159,
      "\"!": 1160,
      "ĕĜę": 1161,
      "ĜĜĜĜĜĜĜĜĜĜĜĜĜĜĜĜĜĜĝ": 1162,
      "ĜĜĝĝĜě": 1163,
      ")ĜĜĜĜĜĜ\"ĜĜĜĜĜĜĜĜĜĜĜĜĜĘĜĜĜĜĜĜėĜĜĜĜĜĜĘ": 1164,
      "ĜĜĜĜěĜĚ": 1165,
      "ĘğĚ": 1166,
      "Ēĕ": 1167,
      "ěěĜĜĜĜ": 1168,
      "ĜĜĜĝĜĜĜĜĜĜĜĜĜĜĜĜĜĜĜĜĜĜĜĜĜĜĜĜĜĜĜĜĜĜ": 1169,
      "ĀěĞ": 1170,
      "ĠĜĝě": 1171,
      "ĔĜĜĀ": 1172,
      "Ĝĝĝě": 1173,
      "ĜĜěĜĜĜĜĜĜĜĜĜĜ": 1174,
      "ĜĜĜĝĝĝ": 1175,
      "ĘĜęĀ": 1176,
      "ĖĜĘ": 1177,
      "ĜĜĜĝĜĜĜĜĜĜĜĜĜĜĜĜĜĜĜĜĜĜĜĜĜĜĜĜĜĜĜĜĜĜĜĜĜĜĜĜĜĜĜĜĜ": 1178,
      "ğěĞ": 1179,
      "ę#": 1180,
      "ĚĜğ": 1181,
      "ėĞĜĀ": 1182,
      "ĘĒ": 1183,
      "ĠĎ": 1184,
      "ĜĜĜĚě": 1185,
      "ĜĞĜĜě": 1186,
      "ĜĜĜĜĜĜěĜĜĜĜĜĜĜĜĜĜĜĜĜĜĜĜĜĜĜĜĜĜĜĜĜĜĜĜĜ": 1187,
      "ĘĜđ": 1188,
      "ĘęĚ": 1189,
      "Ęğĝ": 1190,
      "ěĕ": 1191,
      "ĜěĜěĜĜĜĜĜĜĜĜĜĜĜĜĜĜĜĜĜĜĜĜĜĜĜĜĜĜĜĜĜĜĜĜĜĜĜĜĜ": 1192,
      "ĜĜĜĜĝĜĝĜĜĜĜĜĜĜĜĜĜĜĜĜĜĜĜĜĜĜĜĜĜĜĜĜĜĜĜĜĜĜĜĜĜĜĜĜĜĜ": 1193,
      "Ĝ'": 1194,
      "ğĝě": 1195,
      "ĜĀĜĜĜĜĜĜĜĜĜĜĜĜĜĜĜĜĜĜĜĜĜĜĜĜĜĜĜĜĜĜĜĜĜĜĜĜĜĜĜĜĜĜĜĜĜĜĜĜĜ": 1196,
      "ĜęĞ": 1197,
      "&Ğ": 1198,
      "ĖĜĝ": 1199,
      "ėĞě": 1200,
      "ĜĜĜĜĜĜĜĜĜĜĜěĜě": 1201,
      "ĜĜĜĜěĜĜĜĜĜĜĜĜĜĜĜĜĜĜĜĜĜĜĜĜĜĜĜĜĜĜĜĜĜĜĜĜĜĜĜĜ": 1202,
      "ĕĜĜĜĜĜĜ\"ĜĜĜĜĜĜĘĜĜĜĜĜĜĞ": 1203,
      "ĖĜė": 1204,
      "ėĞĜ": 1205,
      "ĚĜĜ": 1206,
      "ĜĜĜĂ": 1207,
      "ĄĜĜĜĜĜĜ": 1208,
      "ĜĜĜĜĜĜĜĜĜĜĜĜĜĜĜ": 1209,
      ")ě": 1210,
      "ĜĜĜěěě": 1211,
      "Āğĝ": 1212,
      "Ęęě": 1213,
      "ĜĜĜĜĜĜĜĜĜĜĜĜĜĜĜĜĜĜě": 1214,
      "ĜĜĜĚĜě": 1215,
      "ĜĜĜĝĜĜĜĜĜĜĜĜĜĜĜĜĜĜĜĜĜĜĜĜĜĜĜĜĜĜĜĜĜĜĜĜĜĜĜĜĜĜĜĜĜĜĜĜ": 1216,
      "ĜĜĜĜĜĜěĜĜĜĜĜĜĜĜĜĜĜĜĜĜĜĜĜĜĜĜĜĜĜĜĜĜĜĜĜĜĜĜĜĜĜĜĜĜĜĜ": 1217,
      "ĜĜĝěĜĜĜĜĜĜĜĜĜĜĜĜĜĜĜĜĜĜĜĜĜĜĜĜĜĜĜĜĜĜĜĜĜĜĜĜĜĜĜ": 1218,
      "Ġ%": 1219,
      "ĜĜĜĜěĜěĜĜĜĜĜĜĜĜĜĜĜĜĜĜĜĜĜĜĜĜĜĜĜĜĜĜĜĜĜĜĜĜĜĜĜĜĜĜĜ": 1220,
      "ēĀ": 1221,
      "ĔĔ": 1222,
      "ĜĜĝĜĜĜĜĜĜĜĜĜĜĜĜĜĜĜĜĜĜĜĜĜĜĜĜĜĜĜĜĜĜĜĜĜĜĜĜĜĜĜĜĜĜĜĜ": 1223,
      "ėĜĞ": 1224,
      "ĝĜę": 1225,
      "Ĝěę": 1226,
      "Ĝĝę": 1227,
      "ĜĜĜěěĜě": 1228,
      "ĜĜĜěĝĝ": 1229,
      "ĜĜĜěěĜĜĜĜĜĜĜĜĜĜĜĜĜĜĜĜĜĜĜĜĜĜĜĜĜĜĜĜĜĜĜĜĜĜĜĜĜĜĜ": 1230,
      "ĜĜĝĜĝě": 1231,
      "ĜĜĜĜĜĜěě": 1232,
      "ěĝę": 1233,
      "ĜĜĜĜĝĜĜĜĜĜĜĜĜĜĜĜĜĜĜĜĜĜĜĜĜĜĜĜĜĜĜĜĜĜĜĜĜĜĜĜĜĜĜĜĜĜĜĜ": 1234,
      "ĚĝĞ": 1235,
      "ĜĝĝĜĜĜĜĜĜĜĜĜĜĜĜĜĜĜĜĜĜĜĜĜĜĜĜĜĜĜĜĜĜĜĜĜĜĜĜĜĜĜĜ": 1236,
      "Ġ&": 1237,
      "ĜĜĜĜĜĜ)ĜĜĜĜĜĜĖĜĜĜĜĜĜĜĜĜĜĜĜĜ": 1238,
      "ĜĜĝěĜĝ": 1239,
      "ĜĜěĜĜĜĜĜĜĜĜĜĜĜĜĜĜĜĜĜĜĜĜĜĜĜĜĜĜĜĜĜĜ": 1240,
      "ĜĜĜĜĜĜĝĜĜĜĜĜĜĜĜĜĜĜ": 1241,
      "\"Ĕ": 1242,
      ".ě": 1243,
      "ĀĝĜě": 1244,
      "ĜĜĜĜĜěĝĜĜĜĜĜĜĜĜĜĜĜĜĜĜĜĜĜĜĜĜĜĜĜĜĜĜĜĜĜĜĜĜ": 1245,
      "ĜĜĜĜĜĝĜĝ": 1246,
      "ĀĝĜğ": 1247,
      "(Ė": 1248,
      "ĜĜĜĜĜĜďĜĜĜĜĜĜĖĜĜĜĜĜĜĜĜĜĜĜĜĜ": 1249,
      "ĜĜĝěĝ": 1250,
      "ĜĞğ": 1251,
      "#Ĕ": 1252,
      "ĜĀĚ": 1253,
      "ęěĚ": 1254,
      "ĝĕ": 1255,
      "ĜĜĜĜĜěĜĜĜĜĜĜĜĜĜĜĜĜĜĜĜĜĜĜĜĜĜĜĜĜĜĜĜĜĜĜĜĜĜĜĜĜĜĜĜĜĜ": 1256,
      "ĜĚğ": 1257,
      "ĜĝěĜĜĜ": 1258,
      "ĜĜĜěĜěĜĜĜĜĜĜĜĜĜĜĜĜĜĜĜĜĜĜĜĜĜĜĜĜĜĜĜĜĜĜĜĜĜĜĜĜĜ": 1259,
      "đĕ": 1260,
      "ĜĜěĞ": 1261,
      "\"Ĝě": 1262,
      "$Ĕ": 1263,
      "*Ě": 1264,
      "ĜĜĝĜěě": 1265,
      "ĘĚę": 1266,
      "ėĜěĀ": 1267,
      "ĜĞĜĞ": 1268,
      "ĜĜĝĜĜĜĝĜĜĜĜĜĜĜĜĜĜĜĜĜĜĜĜĜĜĜĜĜĜĜĜĜĜĜĜĜĜĜĜĜĜĜĜĜ": 1269,
      "*Ė": 1270,
      "ėĔ": 1271,
      "ĜĜĜĜĜĜĜĜĜĜĜĜĜĜĜě": 1272,
      "ĜĜĜěĝĜĝ": 1273,
      "&ĕ": 1274,
      "ğĝĞ": 1275,
      "ĜĝĜĜĜĜĜĜĜĜĜĜĜĜĜĜĜĜĜĜĜĜĜĜĜĜĜĜĜĜĜĜĜĜĜĜĜĜĜĜĜĜĜĜĜĜĜĜĜ": 1276,
      "ĜĜĝěĜě": 1277,
      "ęĜĔ": 1278,
      "%ĕ": 1279,
      "Ěĕ": 1280,
      "ĜěĝĜĜĜĜĜĜĜĜĜĜĜĜĜĜĜĜĜĜĜĜĜĜĜĜĜĜĜĜĜĜĜĜĜĜĜĜĜĜĜĜĜĜĜ": 1281,
      "!#": 1282,
      "ĜĜĜěĚ": 1283,
      "ēĜĜ": 1284,
      "ĜĝĜĜĜĝ": 1285,
      "ĝěĀ": 1286,
      "ĝĞĞ": 1287,
      "ĠěĜĝ": 1288,
      "ĜĜĔ": 1289,
      "ĝĝğ": 1290,
      "%Ā": 1291,
      "Ĝėĝ": 1292,
      "ĜĝĝĜĜĜĜĜĜĜĜĜĜĜĜĜĜĜĜĜĜĜĜĜĜĜĜĜĜĜĜĜĜĜĜĜĜĜĜĜĜĜĜĜĜĜ": 1293,
      "ĒĀ": 1294,
      "ĜĜĜĜĜĜĜĜĝĜĜĜĜĜĜĜĜĜĜĜĜĜĜĜĜĜĜĜĜĜĜĜĜĜĜĜĜĜĜĜĜĜĜ": 1295,
      "!\"": 1296,
      "ĎĖ": 1297,
      "ĠěĞ": 1298,
      "%Ĕ": 1299,
      "(Ĝ": 1300,
      "ĎĜ": 1301,
      "ĜĜĜĜĜĜĝĜě": 1302,
      "ĘĖĜĀ": 1303,
      "ěěĜĜĜĜĜĜĜĜĜĜĜĜĜĜĜĜĜĜĜĜĜĜĜĜĜĜĜĜĜĜĜĜĜĜĜĜĜĜĜĜĜĜĜĜ": 1304,
      "(ę": 1305,
      "ĘĜĜĝĜĜĜ": 1306,
      "ĜĜěĜĜĜĜĜĜĜĜĜĜĜĜĜĜĜĜĜĜĜĜĜĜĜĜĜĜĜ": 1307,
      "ĜĜĜĞĜĝ": 1308,
      "ĜĜĜĜĜĜĜĜĜĜĜĜĜĝĜĜĜĜĜĜĜĜĜĜĜĜĜĜĜĜĜĜ": 1309,
      "ĜĜĜĜĜĜĜĜĝĜĜĜĜĜĜĜĜĜĜĜĜĜĜĜĜĜĜĜĜĜĜĜĜĜĜĜĜĜĜ": 1310,
      ".ė": 1311,
      "ĞĜĜ": 1312,
      "ĜĜĜĜĜĜěĜĜĜĜĜĜĜĜĜĜĜĜĜĜĜĜĜĜĜĜĜĜĜ": 1313,
      "ĜĜěĜĜĜěĜĜĜĜĜĜĜĜĜĜĜĜĜĜĜĜĜĜĜĜĜĜĜĜĜĜĜĜĜĜĜĜĜĜĜĜĜ": 1314,
      "ĜĜĜĜĜĜĜĜĜĜĝĜĜĜĜĜĜĜĜĜĜĜĜĜĜĜĜĜĜĜĜĜĜĜĜĜĜĜĜĜĜĜĜ": 1315,
      "ĘĝĘ": 1316,
      "ĜĝĝĜĜĜĜĜĜĜĜĜĜĜĜĜĜĜĜĜĜĜĜĜĜĜĜĜĜĜĜĜĜĜĜĜĜĜĜĜĜĜĜĜĜĜĜĜĜ": 1317,
      "ĜĜĜĜĝĝĝ": 1318,
      "ĜğĞ": 1319,
      "ĜĜĜĜĝĜĞ": 1320,
      "ĞĚĜě": 1321,
      "ĚĜĔ": 1322,
      "%ğ": 1323,
      "Ġ1": 1324,
      "%ĜĜěĜĜĜğĜĜĜĜĜĜĕĜĜĜĜĜĜĞĜĜĜĜĜĜ": 1325,
      "ėĜĕ": 1326,
      "ĝ$": 1327,
      "ĝěě": 1328,
      "ĜĜĜĜĜĜĝě": 1329,
      "Ġć": 1330,
      "ĜęĜĚ": 1331,
      "ěěĜĜĜĜĜĜĜĜĜĜĜĜĜĜĜĜĜĜĜĜĜĜĜĜĜĜĜĜĜĜĜĜĜĜĜĜĜ": 1332,
      "ĜĜĜĝěĜĝ": 1333,
      "ĜĜĜĜĜěĜĜĜĜĜĜĜĜĜĜĜĜĜĜĜĜĜĜĜĜĜĜĜĜĜ": 1334,
      "ĜĜĜĜĜĜĜĜĜĜĜĜĜĝĜĜĜĜĜĜĜĜĜĜĜĜĜĜĜĜĜĜĜĜĜĜĜĜĜĜĜĜĜĜĜĜ": 1335,
      "ĜĜĜĜĝĜĜĜĜĜĜĜĜĜĜĜĜĜĜĜĜĜĜĜĜĜĜĜĜĜĜĜĜĜĜĜĜĜĜĜĜĜĜ": 1336,
      "Ĝěěĝ": 1337,
      "ĜėĜĜĀ": 1338,
      "ĜĜĝĜěĜĜĜĜĜĜĜĜĜĜĜĜĜĜĜĜĜĜĜĜĜĜĜĜĜĜĜĜĜĜĜĜĜĜĜĜĜĜĜĜĜĜĜĜ": 1339,
      "Ĝěĝĝ": 1340,
      "ĜĜěĝĜě": 1341,
      "ĜĜĜĜĜĜĜĝĜĜĜĜĜĜĜĜĜĜĜĜĜĜĜĜĜĜĜĜĜĜĜĜĜĜĜĜĜĜĜĜĜ": 1342,
      "ĜĜĜěĜĜĜĜĜĜĜĜĜĜĜĜĜĜĜĜĜĜĜĜĜĜĜĜĜĜĜĜĜĜ": 1343,
      "ĜĜĜĜĜĜĜĜĜĜĜĜĜ%ĜĜĜĜĜĜĜĜĜĜĜĜĜĖĜĜĜĜĜĜĜĜĜĜĜĜĜ!": 1344,
      "ĘěĞ": 1345,
      "ĜĜĜĜĝĜĝĜĜĜĜĜĜĜĜĜĜĜĜĜĜĜĜĜĜĜĜĜĜĜĜĜĜĜĜĜĜ": 1346,
      "ĜĜĝĝĜĜĜĜĜĜĜĜĜĜĜĜĜĜĜĜĜĜĜĜĜĜĜĜĜĜĜĜĜĜĜĜĜĜĜĜĜĜĜĜ": 1347,
      "ĜĜĜ%ĜĜĜĜĜĜĜĜĜĜĜĜĜĖĜĜĜĜĜĜĜĜĜĜĜĜĜ!": 1348,
      "ĜĜĜĜĜĜĜĜĜĜĜěĜĜĜĜĜĜĜĜĜĜĜĜĜĜĜĜĜĜĜĜĜĜĜĜĜ": 1349,
      "Ė\"": 1350,
      "ė#": 1351,
      "Ġ*": 1352,
      "ĜĝĜĜĜĜěĜĜĜĜĜĜĜĜĜĜĜĜĜĜĜĜĜĜĜĜĜĜĜĜĜĜĜĜĜĜĜĜĜĜĜĜĜĜĜ": 1353,
      "ēĔ": 1354,
      "ėěĚ": 1355,
      "ĜĜěĜĞ": 1356,
      "ěěĝĜě": 1357,
      "ĜĜĜĜĜĜĝĜĜĜĜĜĜĜĜĜĜĜĜĜĜĜĜĜĜĜĜĜĜĜ": 1358,
      "Āĝę": 1359,
      "ĜĜěĜĜĜĞ": 1360,
      "ėĜĔ": 1361,
      "ĘĚĝ": 1362,
      "ĜĜěĜĜĜĜĜĜĜĜĜĜĜĜĜĜĜĜĜĜĜĜĜĜĜĜĜĜĜĜĜĜĜĜĜĜĜĜĜĜĜĜĜĜĜĜ": 1363,
      "ĝěĝĝ": 1364,
      "ĜĜĜĜěĜĜĜĜĜĜĜĜĜĜĜĜĜĜĜĜĜĜĜĜĜĜĜĜĜĜĜĜĜĜĜĜĜĜĜĜĜĜĜĜĜĜĜ": 1365,
      "ĜĜĜĜĜĜěĜĜĜĜĜĜĜĜĜĜĜ": 1366,
      "&Ę": 1367,
      "ĠĐ": 1368,
      "ĜĜĜĜĜĜĜĜĜĜĜĜĜĜĜĝ": 1369,
      "ĜĜěĜĜĜĝĜĜĜĜĜĜĜĜĜĜĜĜĜĜĜĜĜĜĜĜĜĜĜĜĜĜĜĜĜĜĜĜĜĜĜĜĜĜĜ": 1370,
      "ĠĝĚ": 1371,
      "ĜĜěěĜě": 1372,
      "ĞĜĝĜĝ": 1373,
      "Āĝğ": 1374,
      "Ę\"ě": 1375,
      "ē!": 1376,
      "Ĕ!": 1377,
      "ęĜĜĀ": 1378,
      "ěěĝĝ": 1379,
      "ĜĜĜĜĜĜěĝ": 1380,
      "ĜĜĜĜĜěĜĝ": 1381,
      "ĠĞě": 1382,
      "ĜĜĜĞě": 1383,
      "ĜĚĜĜĝ": 1384,
      "ĘĝĖ": 1385,
      "ĜĜĜĜĜĜĜĜěĜĜĜĜĜĜĜĜĜĜĜĜĜĜĜĜĜĜĜĜĜĜĜĜĜĜĜĜĜĜĜĜ": 1386,
      "Ě#": 1387,
      "ěĜĜĜě": 1388,
      "ĘĜ!": 1389,
      "ęěę": 1390,
      "ėěę": 1391,
      "ĜĜĜĜĜĜĜĜěĜĜĜĜĜĜĜĜĜĜĜĜĜĜĜĜĜĜĜĜĜĜĜĜĜĜĜĜĜĜ": 1392,
      "'Ę": 1393,
      "ĝĘĜĜ": 1394,
      "ĜĜĜĝĝĜĜĜĜĜĜĜĜĜĜĜĜĜĜĜĜĜĜĜĜĜĜĜĜĜĜĜĜĜĜĜĜĜĜĜĜĜĜĜ": 1395,
      "ĕĜĜĜĜĜĜĞĜĜĜĜĜĜ": 1396,
      "ĜĜĜĜĜĜĜĜĜĜĜĜĜěĜĜĜĜ": 1397,
      "ėęĜĀ": 1398,
      "(ĕ": 1399,
      "Ġď": 1400,
      "ĜĜĜĚĝ": 1401,
      "ĝěĜĜĜě": 1402,
      "ĜěĝĜĜĜě": 1403,
      "Đĕ": 1404,
      "ĜĜĜĝĜěě": 1405,
      "ĒĜĜĜĜĜĜ%ĜĜĜĜĜĜĔĜĜĜĜĜĜ#ĜĜĜĜĜĜĖĜĜĜĜĜĜ": 1406,
      "ĠĝĜě": 1407,
      "ĠĜĜĚ": 1408,
      "ĕĜĜĜĜĜĜĖĜĜĜĜĜĜĘĜĜĜĜĜĜĚ": 1409,
      "ĜĜĜĝĜĝĜĜĜĜĜĜĜĜĜĜĜĜĜĜĜĜĜĜĜĜĜĜĜĜĜĜĜĜĜĜĜĜĜĜĜĜĜ": 1410,
      "ĜğĜĝ": 1411,
      "ĞĞĜě": 1412,
      "ĜēĜĜěĜĜĜ": 1413,
      "ėĝę": 1414,
      "Ĝ%ĜĜěĜĜĜ": 1415,
      "ĘĜĘĀ": 1416,
      "Ę#Ĝ": 1417,
      "Ė#": 1418,
      "ėğĜ": 1419,
      "ĜĜĜĜĜĜěĜĝ": 1420,
      "Ğĝğ": 1421,
      "Ěĝę": 1422,
      "ěĜĔ": 1423,
      "\"ĜĞ": 1424,
      "Đğ": 1425,
      "ĜĜĜĜĜĜĜĜĜĜĜĜĜĜĜĜĜ": 1426,
      "ěěěĝ": 1427,
      "ĜĜĜĝĜĜĜĜĜĜĜĜĜĜĜĜĜĜĜĜĜĜĜĜĜĜĜĜĜĜĜĜĜĜĜĜĜĜĜĜĜĜĜĜĜĜĜĜĜ": 1428,
      "ĜĜĜĜĜěĜĜĜĜĜĜĜĜĜĜĜĜĜĜĜĜĜĜĜĜĜĜĜĜĜĜĜĜĜĜ": 1429,
      "(ĝ": 1430,
      "ĜĜĜĜĜĜěĜĜĜĜĜĜěĜĜĜĜĜĜĜĜĜĜĜĜĜĜĜĜĜĜĜĜĜĜĜĜĜ": 1431,
      "ĜĘĚ": 1432,
      "$!": 1433,
      "'ĕ": 1434,
      "*ě": 1435,
      "Ġ3": 1436,
      "ĘĞę": 1437,
      "&Ā": 1438,
      "ĜĜĜĜĜĜĝĜĜĜĜĜĜĜĜĜĜĜĜĜĜĜĜĜĜĜĜĜĜĜĜĜĜĜĜĜĜĜĜĜĜĜĜĜĜĜĜĜ": 1439,
      "ĜėĜě": 1440,
      "ĘĜĐ": 1441,
      "ĜĜěĜĜĜěĜĜĜĜĜĜĜĜĜĜĜĜĜĜĜĜĜĜĜĜĜĜĜĜĜĜĜĜĜĜĜĜĜĜĜĜĜĜĜ": 1442,
      "/ė": 1443,
      "ĘĞĝ": 1444,
      "ĜĜĜĜěĜĜĜĜĜĜĜĜĜĜĜĜĜĜĜĜĜĜĜĜĜĜĜĜĜĜĜĜĜĜĜĜĜĜĜĜĜĜ": 1445,
      "ĜĜĜĜĜĝĜě": 1446,
      "ĜğĚ": 1447,
      "ĜĜĜĜĜěěĜĜĜĜĜĜĜĜĜĜĜĜĜĜĜĜĜĜĜĜĜĜĜĜĜĜĜĜĜĜĜĜĜĜĜĜĜĜĜ": 1448,
      "ēĜě": 1449,
      "ĜĜĜĜĜĜĜĜĜĜěĜĜĜĜĜĜĜĜĜĜĜĜĜĜĜĜĜĜĜĜĜĜĜĜĜĜĜĜĜĜĜĜ": 1450,
      "78": 1451,
      "ĜĜ.": 1452,
      "ĜĞĝĝ": 1453,
      "ĜěĝĜĜĜĜĜĜĜĜĜĜĜĜĜĜĜĜĜĜĜĜĜĜĜĜĜĜĜĜĜĜĜĜĜĜĜĜĜĜĜĜ": 1454,
      "ĜĝĝĜĜĜ": 1455,
      "ĜĜĝĜěĜĝ": 1456,
      "ďĖ": 1457,
      "ďĞ": 1458,
      "ĝěĜĜě": 1459,
      "ęěĜ": 1460,
      "ćę": 1461,
      "&Ĕ": 1462,
      "ĜĜĜĜĜěĜĜĜĜĜĜĜĜĜĜĜĜĜĜĜĜĜĜĜĜĜĜĜĜĜĜĜĜĜĜĜĜĜĜĜĜĜĜ": 1463,
      ")Ė": 1464,
      ")Ě": 1465,
      "ĜĚěě": 1466,
      "ĝěĜĜĜĜĜĜĜĜĜĜĜĜĜĜĜĜĜĜĜĜĜĜĜĜĜĜĜĜĜĜĜĜĜĜĜĜĜ": 1467,
      "ĀğĞ": 1468,
      "ĜĝĜĝĜĜĜĜĜĜĜĜĜĜĜĜĜĜĜĜĜĜĜĜĜĜĜĜĜĜĜĜĜĜĜĜĜĜĜĜĜ": 1469,
      "+ė": 1470,
      "ĜĚę": 1471,
      "ĜĝĜĜĜĜěĜĜĜĜĜĜĜĜĜĜĜĜĜĜĜĜĜĜĜĜĜĜĜĜĜĜĜĜĜĜĜĜ": 1472,
      "!ĘĜĜ": 1473,
      "Ě$": 1474,
      "ĜěĝĜĜĜĜĜĜĜĜĜĜĜĜĜĜĜĜĜĜĜĜĜĜĜĜĜĜĜĜĜĜĜĜĜĜĜĜĜĜĜĜĜĜĜĜĜĜ": 1475,
      "*ĕ": 1476,
      "ĎĞ": 1477,
      "ĒĜĜ": 1478,
      "ĜĜĜěĜĜĜĜĜĜĜĜĜĜĜĜĜĜĜĜĜĜĜĜĜĜĜĜĜĜĜĜĜĜĜĜĜĜĜĜĜĜĜĜĜĜĜĜĜ": 1479,
      "ĜĜĜĜĝěě": 1480,
      "ĜěĝĜĜĜĝ": 1481,
      "\"#": 1482,
      "\"ē": 1483,
      "ėĝĝ": 1484,
      "ğĔ": 1485,
      "ĜĜĜĜĜĜĜĜĜĜĜĜĜĜĜĜĜě": 1486,
      "ĜĝěĜě": 1487,
      "ĜĝĜĝĜĜĜĜĜĜĜĜĜĜĜĜĜĜĜĜĜĜĜĜĜĜĜĜĜĜĜĜĜĜĜĜĜĜĜĜĜĜĜ": 1488,
      ",Ė": 1489,
      "ğĘĜĜ": 1490,
      "ěěğ": 1491,
      "ĜĀĝĝ": 1492,
      "ěĜĝĜĜĜĜĜĜĜĜĜĜĜĜĜĜĜĜĜĜĜĜĜĜĜĜĜĜĜĜĜĜĜĜĜĜĜĜĜĜĜĜĜ": 1493,
      "ĜĜĝĜĜĜĝĜĜĜĜĜĜĜĜĜĜĜĜĜĜĜĜĜĜĜĜĜĜĜĜĜĜĜĜĜĜ": 1494,
      "'Ğ": 1495,
      "ę$": 1496,
      "ĠĘĜĜ": 1497,
      "ĜĜĜĜĜĜěĜĜĜĜĜĜĜĜĜĜĜĜĜĜĜĜĜĜĜĜ": 1498,
      "ĜĜĜĜěěĝ": 1499,
      "ćĚ": 1500,
      "ĠěĚ": 1501,
      "ĝĜěĜĜĜ": 1502,
      "ĘěĚĀ": 1503,
      "ĝĜ!": 1504,
      "ĀğĚ": 1505,
      "ĀĚĚ": 1506,
      "Ę*": 1507,
      "ě$": 1508,
      "ĝěĜĜĜĜĜĜĜĜĜĜĜĜĜĜĜĜĜĜĜĜĜĜĜĜĜĜĜĜĜĜĜĜĜĜĜĜĜĜĜĜĜĜĜĜ": 1509,
      "ĜĜĜĜĜĜěĜĜĜĜĜĜĜĜĜĜĜĜĜĜĜĜĜĜĜĜĜĜĜĜĜĜĜĜĜĜĜĜĜĜĜĜĜĜĜĜĜ": 1510,
      "ĘěĖ": 1511,
      "ĜĜĜĜĝĝĜĜĜĜĜĜĜĜĜĜĜĜĜĜĜĜĜĜĜĜĜĜĜĜĜĜĜĜĜĜĜĜĜ": 1512,
      "ĝ%": 1513,
      "ĠĚĝ": 1514,
      "ĜĜĜěĝĜě": 1515,
      "Ğĝěě": 1516,
      "ĝĞĜě": 1517,
      "ĜĜěĜĜĜĚ": 1518,
      "#!": 1519,
      "ęĝĚ": 1520,
      "ĜĜĜěĝĜĜĜĜĜĜĜĜĜĜĜĜĜĜĜĜĜĜĜĜĜĜĜĜĜĜĜĜĜĜĜĜĜĜĜĜĜĜĜ": 1521,
      "ĜęĚ": 1522,
      "ĜĘğ": 1523,
      "ĞĜĝĜĜĜĜĜĜĜĜĜĜĜĜĜĜĜĜĜĜĜĜĜĜĜĜĜĜĜĜĜĜĜĜĜĜĜĜĜĜĜĜĜĜĜĜ": 1524,
      "ĜĜĜĜĜĜĜěĜĜĜĜĜĜĜĜĜĜĜĜĜĜĜĜĜĜĜĜĜĜĜĜĜĜĜĜĜĜĜĜĜ": 1525,
      "ĀĘ": 1526,
      "ĒĔ": 1527,
      "ĝĔ": 1528,
      "Ĝğğ": 1529,
      "#ĜĜĜĜĜĜĖĜĜĜĜĜĜ": 1530,
      "ĀĞĜě": 1531,
      "ĚĜē": 1532,
      "Ġ'": 1533,
      "ĝĜĝĜĜě": 1534,
      "-ė": 1535,
      "Ĝć": 1536,
      "ĜĜěĜĜěě": 1537,
      "ĜĜĝĜĜĜĞ": 1538,
      "ĀĚě": 1539,
      "ĠĜĜĝ": 1540,
      "/Ė": 1541,
      "ěĝĜĜĜĜĜĜĜĜĜĜĜĜĜĜĜĜĜĜĜĜĜĜĜĜĜĜĜĜĜĜĜĜĜĜĜĜĜĜĜĜĜĜĜĜ": 1542,
      "ĜĜěĜĝĜĜĜĜĜĜĜĜĜĜĜĜĜĜĜĜĜĜĜĜĜĜĜĜĜĜĜĜĜĜĜĜĜĜĜĜĜĜĜĜĜ": 1543,
      "(Ĕ": 1544,
      "-Ė": 1545,
      "ĞĘĜĜ": 1546,
      "ĜĚĜĜĜĜĜĜĜĜĜĜĜĜĜĜĜĜĜĜĜĜĜĜĜĜĜĜĜĜĜĜĜĜĜĜĜĜĜĜĜĜĜĜĜĜ": 1547,
      "ĜĜĜĜĜĝĜĜĜĜĜĜĜĜĜĜĜĜĜĜĜĜĜĜĜĜĜĜĜĜĜĜĜĜĜĜĜĜĜĜĜĜĜĜ": 1548,
      "ĜĜĜĜěěĜĜĜĜĜĜĜĜĜĜĜĜĜĜĜĜĜĜĜĜĜĜĜĜĜĜĜĜĜĜĜĜĜĜĜĜĜĜĜĜ": 1549,
      ",ė": 1550,
      "ĀĜ": 1551,
      "Ğ$": 1552,
      "ĜěĜĜĜĜĜĜĜĜĜĜĜĜĜĜĜĜĜĜĜĜĜĜĜĜĜĜĜĜĜĜĜĜĜĜĜĜĜĜĜĜĜĜĜĜĜĜĜ": 1553,
      "ĝĝĜĜĜĜĜĜĜĜĜĜĜĜĜĜĜĜĜĜĜĜĜĜĜĜĜĜĜĜĜĜĜĜĜĜĜĜĜ": 1554,
      "ĜĞę": 1555,
      "ĜĜĜĜěĝě": 1556,
      "ĜĜĜĜĜěĜĜĜĜĜĜĜĜĜĜĜĜĜĜĜĜĜĜĜĜĜĜĜĜĜĜĜĜĜĜĜĜĜĜĜĜĜĜĜĜĜĜĜ": 1557,
      "ĜĜęĜě": 1558,
      "đĀ": 1559,
      "ĜĜĜĜĜĜĜěĜĜĜĜĜĜĜĜĜĜĜĜĜĜĜĜĜĜĜĜĜĜĜĜĜĜĜĜĜĜĜĜ": 1560,
      "ĔĜĚ": 1561,
      "ĕĜĝ": 1562,
      "ęěĝ": 1563,
      "ĠĚě": 1564,
      "ěĜěĜĜĝ": 1565,
      "ćě": 1566,
      "Ē!": 1567,
      "ĜĜĜěěĝ": 1568,
      "ĝĜĝĜĜĜĝ": 1569,
      "ěĚĞ": 1570,
      "ĜĝěĜĜĜĜĜĜĜĜĜĜĜĜĜĜĜĜĜĜĜĜĜĜĜĜĜĜĜĜĜĜĜĜĜĜĜĜĜĜĜĜĜĜĜ": 1571,
      "ĜĜĜĜĜĜĜěĜĜĜĜĜĜĜĜĜĜĜĜĜĜĜĜĜĜĜĜĜĜĜĜĜ": 1572,
      "\"\"": 1573,
      "ĀĜĜĝĜĜĜĜĜĜĜĜĜĜĜĜĜĜĜĜĜĜĜĜĜĜĜĜĜĜĜĜĜĜĜĜĜĜĜĜĜĜĜĜĜĜĜĜĜĜ": 1574,
      "ğ$": 1575,
      "ĜĞĜĜĝ": 1576,
      "ĝĚĚ": 1577,
      "ĀĝĜ": 1578,
      "ĀĞĝĝ": 1579,
      "ĘĖĜ": 1580,
      "*ę": 1581,
      "ĀĖ": 1582,
      "ğē": 1583,
      "ĜĜĜĜĜĜĜĜĜĜĜĜĜĜĜĜĜĝ": 1584,
      "ĝěĜ": 1585,
      "ĜĜĚĜĜĜ": 1586,
      "ĜĜĝĜĝĜě": 1587,
      "ĖěĜĀ": 1588,
      "ĝĝĝĜĜĜ": 1589,
      "ĜĒĜĜĜĜĜĜ": 1590,
      "+Ė": 1591,
      "ĜĘę": 1592,
      "ĜĄĜĜĜĜĜĜ": 1593,
      "ĜĜĞĜĝĜĜĜĜĜĜĜĜĜĜĜĜĜĜĜĜĜĜĜĜĜĜĜĜĜĜĜĜĜĜĜĜĜĜĜĜĜĜĜĜĜĜĜĜ": 1594,
      "ĀěĜĝ": 1595,
      "ĜĜěĜĜĜĜĜĜĜĜ": 1596,
      "ĜĜĜĜĜĜěĜĜĜĜĜĜĜĜĜĜĜĜĜĜĜĜĜĜĜ": 1597,
      "ĜĘěĜ": 1598,
      "ĜĜĜĜĜĜĝĜĜĜĜĜĜĜĜĜĜĜĜĜĜĜĜĜĜĜĜĜĜĜĜĜĜĜĜĜ": 1599,
      "ĘĝęĀ": 1600,
      "ĘĕĜĀ": 1601,
      ")ĕ": 1602,
      "Ĉė": 1603,
      "Ęđ": 1604,
      "ęĜĒ": 1605,
      "ěěěĜĜĜ": 1606,
      "ĀĜĜğ": 1607,
      "ĝĝěě": 1608,
      "ĜĜĜĝĞ": 1609,
      "ĜĜĜĜĜĜěĜĜĜĜĜĜĜĜĜĜĜĜĜĝ": 1610,
      "Āěğ": 1611,
      "ĚĜĝĜě": 1612,
      "ĜĜĜēĜĜĜĜĜĜĜĜĜĜĜĜĜ\"ĜĜĜĜĜĜĜĜĜĜĜĜĜė": 1613,
      "Āěę": 1614,
      "!Ĕ": 1615,
      "ěĔ": 1616,
      "ĠęĀ": 1617,
      "ĜĜĜĜĜĜĜĜĜĜĜĜĜĜĜĜĜĜĜě": 1618,
      "ĝĚĜĝ": 1619,
      "ĜěĜěĜĜĜĜĜĜĜĜĜĜĜĜĜĜĜĜĜĜĜĜĜĜĜĜĜĜĜĜĜĜĜĜĜĜĜĜĜĜĜ": 1620,
      "ĜĜĝĜĝĜĝĜĜĜĜĜĜĜĜĜĜĜĜĜĜĜĜĜĜĜĜĜĜĜĜĜĜĜĜĜĜĜĜĜĜĜĜĜ": 1621,
      ",ĕ": 1622,
      "ĀĝĜĜĜĜĜĜĜĜĜĜĜĜĜĜĜĜĜĜĜĜĜĜĜĜĜĜĜĜĜĜĜĜĜĜĜĜĜĜĜĜĜĜĜĜĜĜĜĜ": 1623,
      "ĞĔ": 1624,
      "ĠĜĜĜĜĜĜĜĜĜĜĜĜĜĜĜĜĜĜĜĜĜĜĜĜĜĜĜĜĜĜĜĜĜĜĜĜĜĜĜĜĜĜĜĜĜĜ": 1625,
      "ĜĜĜĜěĜĝĜĜĜĜĜĜĜĜĜĜĜĜĜĜĜĜĜĜĜĜĜĜĜĜĜĜĜĜĜĜĜĜĜĜĜĜĜ": 1626,
      "ěĝĜĜĝ": 1627,
      "ĜĜĜĜĜĜĝĜĜĜĜĜĜĜĜĜĜĜĜĜĜĜĜĜĜĜ": 1628,
      "#Ĝĝ": 1629,
      "$ē": 1630,
      "ęĔ": 1631,
      "ĜĜĎ": 1632,
      "ĜĜĜĜĜĜĜĜĜĜĜĜĜĜĜĜĜĜĜĝ": 1633,
      "ĜĜĝĜĜĜěĜĜĜĜĜĜĜĜĜĜĜĜĜĜĜĜĜĜĜĜĜĜĜĜĜĜĜĜĜĜĜĜĜĜĜĜĜĜĜ": 1634,
      "#ē": 1635,
      "ĝĜĝĜĜĜĜĜĜĜĜĜĜĜĜĜĜĜĜĜĜĜĜĜĜĜĜĜĜĜĜĜĜĜĜĜĜĜĜĜĜĜĜĜ": 1636,
      "ęĝę": 1637,
      "ĀĞĜĞ": 1638,
      "Ęğę": 1639,
      "ėĜĀ": 1640,
      "ėĜē": 1641,
      "ĝĞĝ": 1642,
      "ĜĚĝě": 1643,
      "ěĜěĜĜĜĜĜĜĜĜĜĜĜĜĜĜĜĜĜĜĜĜĜĜĜĜĜĜĜĜĜĜĜĜĜĜĜĜĜĜĜĜĜĜĜĜĜĜ": 1644,
      "ĜĜěĜĜĜĝĜĜěĜĜĜĝ": 1645,
      "ĜĜĜĜĜĜĜĜĜĝĜĜĜĜĜĜĜĜĜĜĜĜĜĜĜĜĜĜĜĜĜĜĜĜĜĜĜ": 1646,
      ".ĕ": 1647,
      "ėē": 1648,
      "ĜĜĜĜĝěĝ": 1649,
      "&ğ": 1650,
      "+ĕ": 1651,
      "ĜĜĝĜĜĜĜĜĜĜĜ": 1652,
      "ĜĜěĜĜĝě": 1653,
      "ĘĚė": 1654,
      "ęĝĜ": 1655,
      "ĘĞĞ": 1656,
      "*ĝ": 1657,
      "ĜĜĝĜĜěĝ": 1658,
      "ĜĚĜĜě": 1659,
      "ĜĀĜĞ": 1660,
      "ĜĜĜĜĜĜĜĜĜĜĜĝĜĜĜĜĜĜĜĜĜĜĜĜĜĜĜĜĜĜĜĜĜĜĜĜĜĜĜ": 1661,
      "ĝ&": 1662,
      "ĜĜĜĜěĜ": 1663,
      "ĜĘĚĜ": 1664,
      "ďğ": 1665,
      "ĜĜ)": 1666,
      "ĜĜěĝĜĝ": 1667,
      "ĜĀę": 1668,
      "Ęĝė": 1669,
      "ĝĜĞĜĝ": 1670,
      "ĘěěĀ": 1671,
      "ěĜ!": 1672,
      "ĜĜğě": 1673,
      "Ğěğ": 1674,
      "ĝĜěĜĜĜĜĜĜĜĜĜĜĜĜĜĜĜĜĜĜĜĜĜĜĜĜĜĜĜĜĜĜĜĜĜĜĜĜĜĜĜĜĜĜĜ": 1675,
      "ĜğĜě": 1676,
      "Ęěĕ": 1677,
      "ęěĞ": 1678,
      "ĜĜěĜĝĜĜĜĜĜĜĜĜĜĜĜĜĜĜĜĜĜĜĜĜĜĜĜĜĜĜĜĜĜĜĜĜĜĜĜĜĜĜĜ": 1679,
      "đĔ": 1680,
      "ěěěĜě": 1681,
      "ėĝĘ": 1682,
      "ĜĜĝěĜĜĜĜĜĜĜĜĜĜĜĜĜĜĜĜĜĜĜĜĜĜĜĜĜĜĜĜĜĜĜĜĜĜĜĜĜĜĜĜĜĜĜĜĜ": 1683,
      "!Ĝğ": 1684,
      "Ďĕ": 1685,
      "ĜĜĜěĝě": 1686,
      "ĜĜĜěĝĜĜĜĜĜĜĜĜĜĜĜĜĜĜĜĜĜĜĜĜĜĜĜĜĜĜĜĜĜĜĜĜ": 1687,
      "ĜęĜĝ": 1688,
      "Ęĝğ": 1689,
      "ĜĜĜĜěĜěĜĜĜĜĜĜĜĜĜĜĜĜĜĜĜĜĜĜĜĜĜĜĜĜĜĜĜĜĜĜ": 1690,
      "ĜĜĜĜĜĜĜĜĜěĜĜĜĜĜĜĜĜĜĜĜĜĜĜĜĜĜĜĜĜĜĜĜĜĜĜĜ": 1691,
      "ĜĜĜēĜĜěĜĜĜ": 1692,
      "ĞĜ!": 1693,
      "ĜĘĜĝ": 1694,
      "ĜĜĜĜĝĜ": 1695,
      "ĝĚğ": 1696,
      "ĘĜĜĜĜĜĜ!": 1697,
      "ĜĜĚĚ": 1698,
      "#Ĝě": 1699,
      "ĜĜĄ": 1700,
      "ĝĝĜĜĜĝ": 1701,
      "(Ğ": 1702,
      "ĀĜĜě": 1703,
      "Ę'": 1704,
      "ęĜē": 1705,
      "ě%": 1706,
      "ĠĈ": 1707,
      "ĜĜĜ&": 1708,
      "ĜĚĜ": 1709,
      "ĜĚěĜĝ": 1710,
      "ĜĜĜĜĜĜěĜĜĜĜĜĜĝĜĜĜĜĜĜĜĜĜĜĜĜĜĜĜĜĜĜĜĜĜĜĜĜĜĜĜĜĜĜĜĜ": 1711,
      "ĜĜĞĜĞ": 1712,
      "#ĜĜĜĜĜĜĞĜĜĜĜĜĜĘĜĜĜĜĜĜė": 1713,
      "ĜĜĝĝĜĜĜĜĜĜĜĜĜĜĜĜĜĜĜĜĜĜĜĜĜĜĜĜĜĜĜĜĜĜĜĜĜĜĜĜĜĜĜĜĜĜĜĜĜ": 1714,
      "ćė": 1715,
      "ĖĝĜ": 1716,
      "Ę)": 1717,
      "ĘĘĜ": 1718,
      "ĜĜĝĝĜĜĜĜĜĜĜĜĜĜĜĜĜĜĜĜĜĜĜĜĜĜĜĜĜĜĜĜĜĜĜĜĜĜĜĜĜĜĜ": 1719,
      "ĞĚĞ": 1720,
      "Ęęę": 1721,
      "ĜĜěĜěĜĜĜĜĜĜĜĜĜĜĜĜĜĜĜĜĜĜĜĜĜĜĜĜĜĜĜĜĜĜĜĜĜĜĜĜĜĜĜĜĜĜĜĜ": 1722,
      "ĞĜěĜĝ": 1723,
      "ėğĜĀ": 1724,
      "ćĝ": 1725,
      "ĜĜęĝ": 1726,
      "ĜĜĝĜĜĜĜĜĜěĜĜĜ": 1727,
      "ĜĘĜĘ": 1728,
      "ěĝğ": 1729,
      "ĜĜĞĝĝ": 1730,
      "ĀĚĞ": 1731,
      ")ĜĜěĜĜĜĖĜĜĜĜĜĜĜĜĜĜĜĜĜ": 1732,
      "#\"": 1733,
      "ĔĜę": 1734,
      "ĕ\"": 1735,
      "ĖĜĀ": 1736,
      "ĚěĜĜě": 1737,
      "ĜĜĜĜĜĜĝĜĜĜĜĜĜĜĜĜĜĜĜĜĜĜĜĜĜĜĜĜĜĜĜĜĜĜĜĜĜĜĜĜĜĜĜĜĜ": 1738,
      "ĘĚĘ": 1739,
      "ĘĜĝĀ": 1740,
      "ĜĜĜĝěĜĜĜĜĜĜĜĜĜĜĜĜĜĜĜĜĜĜĜĜĜĜĜĜĜĜĜĜĜĜĜĜĜĜĜĜĜĜĜ": 1741,
      "(ē": 1742,
      "Ďğ": 1743,
      "ĖĝĚ": 1744,
      "ęĜğ": 1745,
      "ĜĚĝĜě": 1746,
      "ĜĝěĜĜĝ": 1747,
      "ĜĜěĜěĜĝ": 1748,
      "Ēē": 1749,
      "ĜĜĜĜěĜěĜě": 1750,
      "ĝĜĝĜĜĜĜĜĜĜĜĜĜ": 1751,
      "ĀĚĝ": 1752,
      "đē": 1753,
      "ĝĝěĜĝ": 1754,
      "ĜĜĜěĜĝĝ": 1755,
      "Ěěė": 1756,
      "ĞĚĚ": 1757,
      "ĘĐ": 1758,
      "ĜĈ": 1759,
      "ĜĜĜĝěě": 1760,
      "Ĝėě": 1761,
      "ĜėĞ": 1762,
      "ĒĘĜĜĀ": 1763,
      "ĘĘě": 1764,
      "ĜĜĜĝĜĜ": 1765,
      "ĘĜ\"": 1766,
      "ĝĞĜĝ": 1767,
      "%ē": 1768,
      "*Ĕ": 1769,
      "ĔĜĜĝĜĜĜ": 1770,
      "ĖĔ": 1771,
      "ĚĔ": 1772,
      "ĜĜĜ.": 1773,
      "ĘĕĜ": 1774,
      "\"ĘĜĜ": 1775,
      "ďĕ": 1776,
      "ĜĜěĜĚĜě": 1777,
      "ĜĜĜĘĜěĀ": 1778,
      "ĝĝĜĜĜĜě": 1779,
      "Ęěē": 1780,
      "ĝĝěĜĜĜĜĜĜĜĜĜĜĜĜĜĜĜĜĜĜĜĜĜĜĜĜĜĜĜĜĜĜĜĜĜĜĜĜĜĜ": 1781,
      "ĜĜĜĜĜĜĜĝĜĜĜĜĜĜĜĜĜĜĜĜĜĜĜĜĜĜĜĜĜĜĜĜĜ": 1782,
      "!ěĝ": 1783,
      "##": 1784,
      "+ę": 1785,
      "ĜĘĜė": 1786,
      "ęěĖ": 1787,
      "ĀĞěĝ": 1788,
      "ĝĜ\"": 1789,
      "ĖĝĜĀ": 1790,
      "ĜĜěĜěĜěĜĜĜĜĜĜĜĜĜĜĜĜĜĜĜĜĜĜĜĜĜĜĜĜĜĜĜĜĜĜĜĜĜĜĜĜĜ": 1791,
      "!$": 1792,
      ")ē": 1793,
      "ĘĜĜěĜĜĜ": 1794,
      "ĜĜĜĜę": 1795,
      "ĜĜĝĜĜĜĜĜĜĜĜĜĜĜĜĜĜĜĜĜĜĜĜĜĜĜĜĜĜĜ": 1796,
      "ěěĘ": 1797,
      "Ę!ĜĀ": 1798,
      "ĜĜěĜĜĜěĜĜĜĜĜĜĜĜĜĜĜĜĜĜĜĜĜĜĜĜĜĜĜĜĜĜĜĜĜĜĜĜĜĜĜĜ": 1799,
      ")ĝ": 1800,
      "ĖĜĖ": 1801,
      "ğěĜě": 1802,
      "Ġ-": 1803,
      "ĠĜę": 1804,
      "ĠĜ!": 1805,
      "ĜĜĝĜĜěě": 1806,
      "ĚěĜ": 1807,
      "ĜĜĜĜĜĜĝĜĜĜĜĜĜěĜĜĜĜĜĜĜĜĜĜĜĜĜĜĜĜĜĜĜĜĜĜĜĜĜ": 1808,
      "ĜĜĜĜĝĜĜĜĜĜĜĝĜĜĜĜĜĜĜĜĜĜĜĜĜĜĜĜĜĜĜĜĜĜĜĜĜĜĜĜĜĜĜĜ": 1809,
      "ĀĞę": 1810,
      "ĜĜĝĜěĜĜĜĜĜĜĜĜĜĜĜĜĜĜĜĜĜĜĜĜĜĜĜĜĜĜĜĜĜĜĜĜĜĜĜĜĜĜĜ": 1811,
      "ĜĜĜĜĜĜĜĜĜĜĜĜĜĝĜĜĜĜĜĜĜĜĜĜĜĜĜĜĜĜĜĜĜĜ": 1812,
      ")Ĕ": 1813,
      ")ę": 1814,
      "/ĕ": 1815,
      "ĜěĜ": 1816,
      "ĜĜěĜĝĝ": 1817,
      "Ğěĝĝ": 1818,
      "Ęěğ": 1819,
      "ĜĜĝěĜĜĜĜĜĜĜĜĜĜĜĜĜĜĜĜĜĜĜĜĜĜĜĜĜĜĜĜĜĜĜĜĜĜĜĜĜĜĜĜ": 1820,
      "ĜĜĜĜĜĜĜĜĜĜĜěĜĜĜĜĜĜĜĜĜĜĜĜĜĜĜĜĜĜĜĜĜĜĜĜĜĜĜĜĜĜĜĜ": 1821,
      "&ē": 1822,
      "+Ě": 1823,
      "Ā$": 1824,
      "ĕ#": 1825,
      "Ėěě": 1826,
      "Ġ6": 1827,
      "ĞěĀ": 1828,
      "ĜĜĞĞ": 1829,
      "ĜĝĜĜĝĜĜĜĜĜĜĜĜĜĜĜĜĜĜĜĜĜĜĜĜĜĜĜĜĜĜĜĜĜĜĜĜĜĜ": 1830,
      "'Ĕ": 1831,
      ".Ě": 1832,
      "ĐĘĜĜĀ": 1833,
      "Ġ(": 1834,
      "ĜĜĜĞĝ": 1835,
      "ĚĚĚ": 1836,
      "ĀĜĝĜĜĜĜĜĜĜĜĜĜĜĜĜĜĜĜĜĜĜĜĜĜĜĜĜĜĜĜĜĜĜĜĜĜĜĜĜĜĜĜĜĜĜĜĜĜĜ": 1837,
      "&Ē": 1838,
      "ė$": 1839,
      "ėğě": 1840,
      "ĝĝĝĜĝ": 1841,
      "ĜĞěĜě": 1842,
      "ĜĜĜĜĜĜĝĜĜĜĜĜĜĝĜĜĜĜĜĜĜĜĜĜĜĜĜĜĜĜĜĜĜĜĜĜĜĜĜĜĜĜĜĜĜĜ": 1843,
      "ĜĝěĜĜĜě": 1844,
      "ĜĝĜĝĜĝ": 1845,
      "ĚĜĒ": 1846,
      "Ę$Ĝ": 1847,
      "ėĘĜĀ": 1848,
      "ĠĀğ": 1849,
      "ĜĜĜĜĜĜĕĜĜěĜĜĜ": 1850,
      "ĜĞĝĜě": 1851,
      "ĜĜĜĜĜĝĜĜĜĜĜĜĜĜĜĜĜĜĜĜĜĜĜĜĜĜĜĜĜĜĜĜĜĜĜĜĜĜĜĜĜĜĜĜĜĜĜĜĜ": 1852,
      "ĝĜěĜĜĜĜĜĜĜĜĜĜĜĜĜĜĜĜĜĜĜĜĜĜĜĜĜĜĜĜĜĜĜĜĜĜĜĜĜĜĜĜĜĜĜĜĜĜ": 1853,
      "*Ğ": 1854,
      "ěĜē": 1855,
      "ĜĚĜĜĜě": 1856,
      "ĝěĝĜĝ": 1857,
      "ěĝĜĜĜĜ": 1858,
      "ěĚĚ": 1859,
      "ĀĝĜĚ": 1860,
      "ĜĜĝĜěĜĜĜĜĜĜĜĜĜĜĜĜĜĜĜĜĜĜĜĜĜĜĜĜĜĜĜĜĜĜĜĜĜĜĜĜĜĜĜĜĜ": 1861,
      "%Ē": 1862,
      "Ęėě": 1863,
      "Ġğě": 1864,
      "Ĝĝ!": 1865,
      "ĜĝĜ": 1866,
      "ĜĜĜĞĜě": 1867,
      "ĝĞĚ": 1868,
      "ĜěĝĜĜě": 1869,
      ".ĝ": 1870,
      "ĕĔ": 1871,
      "ğ%": 1872,
      "ĜĜĜĝĝĜĜĜĜĜĜĜĜĜĜĜĜĜĜĜĜĜĜĜĜĜĜĜĜĜĜĜĜĜĜĜĜ": 1873,
      "ĜĜĜĜĜĝĜĜĜĜĜĜĜĜĜĜĜĜĜĜĜĜĜĜĜĜĜĜĜĜĜĜĜĜĜĜĜĜĜĜĜĜĜĜĜĜĜ": 1874,
      "ĜĜĞĜĜĜĝ": 1875,
      "ĘĞĘ": 1876,
      "ėĜĒ": 1877,
      "(Ā": 1878,
      "đĘĜĜĀ": 1879,
      "ĚĜĜĀ": 1880,
      "ĠĞĚ": 1881,
      "ĜĜĜĝĚ": 1882,
      "ĚěĘ": 1883,
      "ėĝė": 1884,
      "Ĉę": 1885,
      "ĜĞĝě": 1886,
      "ĜĜĞĜĝĜĝ": 1887,
      "ĘĞė": 1888,
      "ĜĜĝĜěĜĜĜĜĜĜĜĜĜĜĜĜĜĜĜĜĜĜĜĜĜĜĜĜĜĜĜĜĜĜĜĜĜĜĜĜĜĜ": 1889,
      "'Ā": 1890,
      "ĐĔ": 1891,
      "ĒĜĀ": 1892,
      "Ęęĝ": 1893,
      "Ğ&": 1894,
      "ğĜ!": 1895,
      "ĜĜĜď": 1896,
      "ěěĜĜĜĜě": 1897,
      "ĜĜĜĜĜěĝĜĜĜĜĜĜĜĜĜĜĜĜĜĜĜĜĜĜĜĜĜĜĜĜĜĜĜĜĜĜĜĜĜĜĜĜĜĜĜ": 1898,
      "ĜĜĜĜĜĝĝĜĜĜĜĜĜĜĜĜĜĜĜĜĜĜĜĜĜĜĜĜĜĜĜĜĜĜĜĜĜĜĜĜĜĜĜĜĜĜ": 1899,
      "Āĝěě": 1900,
      "ĀĞğ": 1901,
      "ĜĜĜĜĜĜĜĜĜĝĜĜĜĜĜĜĜĜĜĜĜĜĜĜĜĜĜĜĜĜĜĜĜĜĜĜĜĜĜĜĜĜĜĜ": 1902,
      "ĒĜĜĜĜĜĜēĜĜĜĜĜĜĔĜĜĜĜĜĜĕĜĜĜĜĜĜĖĜĜĜĜĜĜĘĜĜĜĜĜĜĚ": 1903,
      "+ě": 1904,
      ".Ė": 1905,
      "ĕĜĘ": 1906,
      "ė!Ĝ": 1907,
      "ĜĜĜĜĜĜĜĜĜĜĜĜĜĜĜĜĝ": 1908,
      "ĜĜěĜĝě": 1909,
      "ěěė": 1910,
      "ĜĞěĜĝ": 1911,
      "ĜĜĜĜĜĜěĜĜĜĜĜĜĜĜĜĜĜĜĜĜĜĜĜĜĜĜĜĜĜĜĜĜĜĜĜĜĜĜĜĜĜĜĜĜ": 1912,
      "ĜĜĜĜĜĜĝĜĜĜĜĜĜĜĜĜĜĜĜĜě": 1913,
      "đ!": 1914,
      "ĜĚĀ": 1915,
      "Ĝęğ": 1916,
      "ĘęĘ": 1917,
      "ĝĜ#": 1918,
      "ėĞę": 1919,
      ",Ē": 1920,
      "-Ĕ": 1921,
      "ĠĜĜ": 1922,
      "ĜĜĜĜĝĜěĜĜĜĜĜĜĜĜĜĜĜĜĜĜĜĜĜĜĜĜĜĜĜĜĜĜĜĜĜĜĜĜĜĜĜĜĜ": 1923,
      "ĜĜĜĜĜĜĝĜĜĜĜĜĜěĜĜĜĜĜĜĜĜĜĜĜĜĜĜĜĜĜĜ": 1924,
      "'ğ": 1925,
      ")Ğ": 1926,
      "Đ!": 1927,
      "Ġ2": 1928,
      "ĠĜěě": 1929,
      "ĜĜĜĜĜĜĕ": 1930,
      "ĘěĔ": 1931,
      "ĞĞĞ": 1932,
      ")Ĝ": 1933,
      "Ġą": 1934,
      "ĠĀĞ": 1935,
      "ĜĜĜĜěĜĜĜĜĜĜěĜĜĜĜĜĜĜĜĜĜĜĜĜĜĜĜĜĜĜĜĜĜĜĜĜ": 1936,
      "ĜĘĝě": 1937,
      "ĜĜĜĜĝĜĜĜĜĜĜĜĜĜĜĜĜĜĜĜĜĜĜĜĜĜĜĜĜĜĜĜĜĜ": 1938,
      "!ěě": 1939,
      "'ē": 1940,
      "Ěē": 1941,
      "ĚĝĚ": 1942,
      "ĜĝĀ": 1943,
      "ĞĝĜĜĝ": 1944,
      "ĘĚĖ": 1945,
      "Ę!Ě": 1946,
      "ĜĜĜĜĜĜĝĜĜĜĜĜĜĝĜĜĜĜ": 1947,
      "#Ē": 1948,
      ",ę": 1949,
      "ćĞ": 1950,
      "ĎĘĜĜĀ": 1951,
      "ĕĝĚ": 1952,
      "ĖĜĔ": 1953,
      "ėĚě": 1954,
      "Ĝě!": 1955,
      "ĜĜěĜěě": 1956,
      "ĜĜĜĘěĜĀ": 1957,
      "ĝĜěĜĜĜĜĜĜĜĜĜĜĜĜĜĜĜĜĜĜĜĜĜĜĜĜĜĜĜĜĜĜĜĜĜĜĜĜĜĜĜĜĜĜĜĜ": 1958,
      "ĜĜĝĜĜĜĝĜĜĜĜĜĜĜĜĜĜĜĜĜĜĜĜĜĜĜĜĜĜĜĜĜĜĜĜĜĜĜĜĜĜĜĜ": 1959,
      ",ě": 1960,
      "ĝĜĜĜě": 1961,
      "ĜĜĝĜĜĜĜĜĜĜĜĜĜĜĜĜĜĜĜĜĜĜĜĜĜĜĜĜĜĜĜĜĜĜĜĜĜĜĜĜĜ": 1962,
      "ěěĝě": 1963,
      "ĝĜĝĜĞ": 1964,
      "ĝĞğ": 1965,
      "ĜĜĜĜĝĝĜĜĜĜĜĜĜĜĜĜĜĜĜĜĜĜĜĜĜĜĜĜĜĜĜĜĜĜĜĜĜĜĜĜĜĜĜĜĜĜ": 1966,
      "ĘĝěĀ": 1967,
      "'Ē": 1968,
      "(Ę": 1969,
      "+Ĕ": 1970,
      "ēěĜěĜĜĜ": 1971,
      "Ğ%": 1972,
      "ĠĜĞě": 1973,
      "ĜĜĜ)": 1974,
      "ĜĜĜĜĜĜĜĜĜĜĜĜĜĜĜĜĜĜĜĜĜĜĜĜĜĜĜě": 1975,
      "ĞěĜĜĜĜĜĜĜĜĜĜĜĜĜĜĜĜĜĜĜĜĜĜĜĜĜĜĜĜĜĜĜĜĜĜĜĜĜĜĜĜĜĜĜĜĜ": 1976,
      "ęěė": 1977,
      "Ęęė": 1978,
      "ĘğĞ": 1979,
      "ĀğĜĝ": 1980,
      "ėĝĖ": 1981,
      "ĜĜĜĝĜĝĜĜĜĜĜĜĜĜĜĜĜĜĜĜĜĜĜĜĜĜĜĜĜĜĜĜĜĜĜĜĜĜĜĜĜĜĜĜĜ": 1982,
      "ĝĒ": 1983,
      "ĝē": 1984,
      "ĜĜęě": 1985,
      "ĜěĜĜĜě": 1986,
      "ĜĜĝĝĜĝ": 1987,
      "ĜĜĝĜĜĝě": 1988,
      "ĜĜěĜěĝ": 1989,
      "ĝĝĜĜĜĜĜĜĜĜĜĜĜĜĜĜĜĜĜĜĜĜĜĜĜĜĜĜĜĜĜĜĜĜ": 1990,
      "ĜĜĜĜĜĜěĜĜĜĜĜĜĜĜĜĜĜĜĜĜĜĜĜĜĜĜĜĜĜĜĜĜĜĜĜĜĜ": 1991,
      "ĜĜĜĜĜĝĜĜĜĜĜĜĜĜĜĜĜĜĜĜĜĜĜĜĜĜĜĜĜĜĜĜĜĜĜĜĜ": 1992,
      "ĘĜĖĀ": 1993,
      "ĜĜĜĜĜĜěĜĜĜĜĜĜěĜĜĜĜ": 1994,
      "ě-": 1995,
      "ĜĜĜĜĞě": 1996,
      "ĜĜĜĜĚĜĝ": 1997,
      "ěěĜĜĜĜĜĜĜĜĜĜĜĜĜĜĜĜĜĜĜĜĜĜĜĜĜĜĜĜĜĜĜĜĜĜĜĜĜĜĜĜĜĜĜ": 1998,
      "ĜĜěĜĜĜěĜĜĜĜĜĜĜĜĜĜĜĜĜĜĜĜĜĜĜĜĜĜĜĜĜĜĜĜĜĜ": 1999,
      "ĜĜĜĜĜĜĜĜĜěĜĜĜĜĜĜĜĜĜĜĜĜĜĜĜĜĜĜĜĜĜĜĜĜĜĜĜĜĜĜĜĜĜ": 2000,
      "Ę%Ĝ": 2001,
      "*ē": 2002,
      "ĕĝě": 2003,
      "ĞĜę": 2004,
      "ĠĆ": 2005,
      "ĜĜĜĜĜĜĜĜĜĜĜĜĜĜĜĜě": 2006,
      "ĜĜĜĝĝĜĝ": 2007,
      "ĜęĀ": 2008,
      "ĜĜĜĜĜĝĜĜĜĜĜĜĜĜĜĜĜĜĜĜĜĜĜĜĜĜĜĜĜĜĜ": 2009,
      "ĝĜěĜĜĜĜĜĜĜĜĜĜĜĜĜĜĜĜĜĜĜĜĜĜĜĜĜĜĜĜĜĜĜĜĜĜĜĜĜĜĜĜĜ": 2010,
      "ĜĜğĜĝ": 2011,
      "ĜĜĝĜĜĜĝĜĜĜĜĜĜĜĜĜĜĜĜĜĜĜĜĜĜĜĜĜĜĜĜĜĜĜĜĜĜĜĜĜĜĜĜĜĜĜ": 2012,
      "ĜĜěĜĜĝĜĜĜĜĜĜĜĜĜĜĜĜĜĜĜĜĜĜĜĜĜĜĜĜĜĜĜĜĜĜĜĜĜĜĜĜĜĜĜĜ": 2013,
      "ĜĜĜĜĜĜĜĜĜĜĜěĜĜĜĜĜĜĜĜĜĜĜĜĜĜĜĜĜĜĜĜĜĜĜĜĜĜĜ": 2014,
      "\"$": 2015,
      "ďĔ": 2016,
      "ĝĜĖ": 2017,
      "ĠĝĜĝ": 2018,
      "ĜĜĜěĜĚ": 2019,
      "ĜĜĜĜěĜĜĜĜĜĜĝĜĜĜĜĜĜĜĜĜĜĜĜĜĜĜĜĜĜĜĜĜĜĜĜĜĜĜĜĜĜĜĜ": 2020,
      "ĘğĘ": 2021,
      "ĜĜĜĜĝĜĝĜĜĜĜĝĜĝ": 2022,
      "ĜĜěĝĜĜĜĜĜĜĜĜĜĜĜĜĜĜĜĜĜĜĜĜĜĜĜĜĜĜĜĜĜĜĜĜĜĜĜĜĜĜĜĜ": 2023,
      "!ē": 2024,
      ".ę": 2025,
      "ĐĀ": 2026,
      "ĠĄ": 2027,
      "ĜĜĝĜĜĝĝ": 2028,
      "ĜĜĜěĜěě": 2029,
      "ĜĜĜĜĜĜĜĜĜĜĜĜĜĜĜĜĜĜĜĜĜĜĜĜĜĜĜĝ": 2030,
      "Ěěğ": 2031,
      "ĞĚĜĝ": 2032,
      "ĜĜěĜĜĜĘ": 2033,
      "ĀěĜĚ": 2034,
      "ĝĜĝĜĝĜĜĜĜĜĜĜĜĜĜĜĜĜĜĜĜĜĜĜĜĜĜĜĜĜĜĜĜĜĜĜĜĜĜĜĜĜĜĜĜĜĜĜĜ": 2035,
      "\"ĜĜĜĜĜĜĜĜĜěĜĜĜ": 2036,
      ",Ě": 2037,
      "/ě": 2038,
      "ĝĜĘ": 2039,
      "Ğē": 2040,
      "ĠĜĘ": 2041,
      "ĜĀĝě": 2042,
      "ĜĜĜĜĜĜěĜĜĜĜĜĜĝĜĜĜĜĜĜĜĜĜĜĜĜĜĜĜĜĜĜĜĜĜĜĜĜĜ": 2043,
      "Ĝęĝě": 2044,
      "ĜĜĜĜĜěĜĜĜĜĜĜĜĜĜĜĜĜĜĜĜĜĜĜĜĜĜĜĜĜĜĜĜĜĜĜĜ": 2045,
      "ĘĚĞ": 2046,
      "ĜĜěĜĜĜěĜĜĜĜĜĜĜĜĜĜĜĜĜĜĜĜĜĜĜĜĜĜĜĜĜĜĜĜĜĜĜĜĜ": 2047
    },
    "merges": [
      [
        "Ĝ",
        "Ĝ"
      ],
      [
        "ĜĜ",
        "ĜĜ"
      ],
      [
        "ĜĜĜĜ",
        "ĜĜĜĜ"
      ],
      [
        "ĜĜĜĜĜĜĜĜ",
        "ĜĜĜĜĜĜĜĜ"
      ],
      [
        "Ĝ",
        "ě"
      ],
      [
        "ĜĜĜĜ",
        "ĜĜ"
      ],
      [
        "Ĝ",
        "ĝ"
      ],
      [
        "ĜĜĜĜĜĜĜĜĜĜĜĜĜĜĜĜ",
        "ĜĜĜĜĜĜĜĜĜĜĜĜĜĜĜĜ"
      ],
      [
        "ĜĜ",
        "ĝ"
      ],
      [
        "ĜĜ",
        "ě"
      ],
      [
        "ĜĜĜĜĜĜĜĜĜĜĜĜĜĜĜĜĜĜĜĜĜĜĜĜĜĜĜĜĜĜĜĜ",
        "ĜĜĜĜĜĜĜĜ"
      ],
      [
        "ĜĜ",
        "Ĝ"
      ],
      [
        "ĜĜĜĜ",
        "Ĝ"
      ],
      [
        "ĝ",
        "ĝ"
      ],
      [
        "ě",
        "ě"
      ],
      [
        "Ĝ",
        "Ě"
      ],
      [
        "ĜĜ",
        "Ĝě"
      ],
      [
        "Ĝ",
        "Ğ"
      ],
      [
        "ĜĜĜĜĜĜĜĜĜĜĜĜĜĜĜĜ",
        "ĜĜĜĜĜĜĜĜ"
      ],
      [
        "ĜĜ",
        "Ĝĝ"
      ],
      [
        "ĝ",
        "ě"
      ],
      [
        "ĜĜĜĜĜĜ",
        "Ĝ"
      ],
      [
        "ĜĜĜĜ",
        "ě"
      ],
      [
        "Ĝ",
        "Ā"
      ],
      [
        "ĝ",
        "ĜĜĜĜĜĜĜĜĜĜĜĜĜĜĜĜĜĜĜĜĜĜĜĜĜĜĜĜĜĜĜĜ"
      ],
      [
        "ĜĜĜĜĜĜ",
        "ě"
      ],
      [
        "ĝ",
        "Ĝĝ"
      ],
      [
        "Ĝ",
        "ę"
      ],
      [
        "Ĝ",
        "Ę"
      ],
      [
        "ĜĜĜĜ",
        "Ĝě"
      ],
      [
        "ě",
        "ĝ"
      ],
      [
        "ĜĜĜĜ",
        "Ĝĝ"
      ],
      [
        "ĜĜĜĜĜĜĜĜĜĜĜĜĜĜĜĜĜĜĜĜĜĜĜĜĜĜĜĜĜĜĜĜ",
        "ĜĜĜĜĜĜĜ"
      ],
      [
        "Ğ",
        "ě"
      ],
      [
        "ĝ",
        "Ĝě"
      ],
      [
        "Ĝ",
        "ğ"
      ],
      [
        "ĜĜĜĜĜĜĜĜĜĜĜĜĜĜĜĜĜĜĜĜĜĜĜĜĜĜĜĜĜĜĜĜ",
        "ĜĜĜĜĜ"
      ],
      [
        "Ě",
        "ě"
      ],
      [
        "ĜĜĜĜĜĜ",
        "ĝ"
      ],
      [
        "ĜĜĜĜĜĜĜĜ",
        "ĜĜĜĜĜ"
      ],
      [
        "ĜĜĜĜĜĜĜĜĜĜĜĜĜĜĜĜĜĜĜĜĜĜĜĜĜĜĜĜĜĜĜĜĜĜĜĜĜĜĜĜ",
        "ĜĜĜ"
      ],
      [
        "ĜĜĜĜ",
        "ĝ"
      ],
      [
        "ĜĜ",
        "Ā"
      ],
      [
        "ĜĜĜĜĜĜĜĜĜĜĜĜĜĜĜĜĜĜĜĜĜĜĜĜĜĜĜĜĜĜĜĜĜĜĜĜĜĜĜĜ",
        "ĜĜĜĜ"
      ],
      [
        "ĝ",
        "Ě"
      ],
      [
        "ě",
        "Ĝě"
      ],
      [
        "Ę",
        "ě"
      ],
      [
        "Ğ",
        "ĝ"
      ],
      [
        "ě",
        "Ĝĝ"
      ],
      [
        "Ĝ",
        "ė"
      ],
      [
        "Ġ",
        "ĜĜĜĜĜĜ"
      ],
      [
        "ĜĜĜĜĜĜĜĜĜĜĜĜĜĜĜĜĜĜĜĜĜĜĜĜĜĜĜĜĜĜĜĜ",
        "Ĝ"
      ],
      [
        "Ě",
        "ĝ"
      ],
      [
        "Ę",
        "ĜĜĜĜĜĜ"
      ],
      [
        "ĜĜ",
        "Ğ"
      ],
      [
        "ĜĜĜĜĜĜĜĜĜĜĜĜĜĜĜĜĜĜĜĜĜĜĜĜĜĜĜĜĜĜĜĜĜĜĜĜĜĜĜĜ",
        "ĜĜĜĜĜĜ"
      ],
      [
        "ĜĜĜĜĜĜĜĜĜĜĜĜĜĜĜĜĜĜĜĜĜĜĜĜĜĜĜĜĜĜĜĜĜĜĜĜĜĜĜĜ",
        "Ĝ"
      ],
      [
        "Ę",
        "ĝ"
      ],
      [
        "ĜĜĜĜĜĜĜĜĜĜĜĜĜĜĜĜĜĜĜĜĜĜĜĜĜĜĜĜĜĜĜĜ",
        "ĜĜ"
      ],
      [
        "Ę",
        "Ĝ"
      ],
      [
        "ě",
        "Ě"
      ],
      [
        "ĜĜĜĜĜĜĜĜĜĜĜĜĜĜĜĜĜĜĜĜĜĜĜĜ",
        "ĜĜĜĜĜĜ"
      ],
      [
        "ĜĜ",
        "Ě"
      ],
      [
        "ĜĜĜĜĜĜ",
        "ĝĜĜĜĜĜĜĜĜĜĜĜĜĜĜĜĜĜĜĜĜĜĜĜĜĜĜĜĜĜĜĜĜ"
      ],
      [
        "Ę",
        "Ě"
      ],
      [
        "ĝ",
        "Ğ"
      ],
      [
        "ĜĜĜĜĜĜĜĜĜĜĜĜĜĜĜĜĜĜĜĜĜĜĜĜ",
        "Ĝ"
      ],
      [
        "ę",
        "ě"
      ],
      [
        "Ğ",
        "Ĝĝ"
      ],
      [
        "Ğ",
        "Ě"
      ],
      [
        "ğ",
        "ě"
      ],
      [
        "Ĝě",
        "ě"
      ],
      [
        "ĜĜĜĜĜĜĜĜĜĜĜĜĜĜĜĜĜĜĜĜĜĜĜĜĜĜĜĜĜĜĜĜ",
        "ĜĜĜĜĜĜĜĜĜĜĜĜĜĜĜĜ"
      ],
      [
        "Ĝě",
        "ĝ"
      ],
      [
        "ĜĜĜĜ",
        "ĝĜĜĜĜĜĜĜĜĜĜĜĜĜĜĜĜĜĜĜĜĜĜĜĜĜĜĜĜĜĜĜĜ"
      ],
      [
        "Ā",
        "ĝ"
      ],
      [
        "ĜĜĜĜĜĜ",
        "ĘĜĜĜĜĜĜ"
      ],
      [
        "ĜĜĜĜĜĜĜĜĜĜĜĜĜĜĜĜĜĜĜĜĜĜĜĜ",
        "ĜĜĜ"
      ],
      [
        "ĕ",
        "ĜĜĜĜĜĜ"
      ],
      [
        "#",
        "ĜĜĜĜĜĜ"
      ],
      [
        "ę",
        "ĝ"
      ],
      [
        "Ĝĝ",
        "ě"
      ],
      [
        "Ĝě",
        "Ĝě"
      ],
      [
        "Ĝ",
        "Ė"
      ],
      [
        "Ę",
        "Ğ"
      ],
      [
        "ĜĜĜĜĜĜĜĜĜĜĜĜĜĜĜĜĜĜĜĜĜĜĜĜĜĜĜĜĜĜĜĜ",
        "ĜĜĜĜ"
      ],
      [
        "ĜĜě",
        "ĜĜĜ"
      ],
      [
        "Ā",
        "Ğ"
      ],
      [
        "ĜĜĜĜĜĜĜĜĜĜĜĜĜĜĜĜĜĜĜĜĜĜĜĜĜĜĜĜĜĜĜĜĜĜĜĜĜĜĜĜĜĜĜĜĜĜĜĜ",
        "Ĝ"
      ],
      [
        "Ĝĝ",
        "ĝ"
      ],
      [
        "Ę",
        "ę"
      ],
      [
        "Ě",
        "Ě"
      ],
      [
        "ė",
        "ě"
      ],
      [
        "Ā",
        "ě"
      ],
      [
        "ĝ",
        "Ĝ"
      ],
      [
        "ĜĜĜĜĜĜĜĜĜĜĜĜĜĜĜĜĜĜĜĜĜĜĜĜĜĜĜĜĜĜĜĜ",
        "ĜĜĜĜĜĜ"
      ],
      [
        "ĜĜĝ",
        "Ĝĝ"
      ],
      [
        "Ę",
        "ğ"
      ],
      [
        "Ę",
        "ĜĜĀ"
      ],
      [
        "Ġ",
        "ě"
      ],
      [
        "Ā",
        "ğ"
      ],
      [
        "ĜĜĜĜĜĜ",
        "#ĜĜĜĜĜĜ"
      ],
      [
        "ĜĜĜĜĜĜ",
        "ĕĜĜĜĜĜĜ"
      ],
      [
        "Ğ",
        "Ğ"
      ],
      [
        "ĜĜĜĜĜĜĜĜĜĜĜĜĜĜĜĜĜĜĜĜĜĜĜĜ",
        "ĜĜ"
      ],
      [
        "Ĝ",
        "ĕ"
      ],
      [
        "Ĝ",
        "ē"
      ],
      [
        "Ę",
        "Ĝě"
      ],
      [
        "Ė",
        "ĜĜĜĜĜĜĜĜĜĜĜĜĜ"
      ],
      [
        "ĜĜě",
        "Ĝě"
      ],
      [
        "Ę",
        "ĜĜ"
      ],
      [
        "Ĝ",
        "!"
      ],
      [
        "ė",
        "ĝ"
      ],
      [
        "ę",
        "Ě"
      ],
      [
        "ĜĜě",
        "ě"
      ],
      [
        "ğ",
        "ĝ"
      ],
      [
        "ĜĜĜĜĜĜĜĜĜĜĜĜĜĜĜĜĜĜĜĜĜĜĜĜĜĜĜĜĜĜĜĜĜĜĜĜĜĜĜĜ",
        "ĜĜĜĜĜ"
      ],
      [
        "ĜĜĝ",
        "ě"
      ],
      [
        "Ğ",
        "Ĝ"
      ],
      [
        "Ĝĝ",
        "Ĝĝ"
      ],
      [
        "ĜĜĜĜ",
        "ĝĜĝ"
      ],
      [
        "Ě",
        "Ĝě"
      ],
      [
        "Ğ",
        "Ĝě"
      ],
      [
        "Ę",
        "ė"
      ],
      [
        "Ā",
        "Ě"
      ],
      [
        "ğ",
        "Ě"
      ],
      [
        "ĜĜĜĜě",
        "Ĝě"
      ],
      [
        "ě",
        "Ğ"
      ],
      [
        "ĠĜĜĜĜĜĜ",
        "ė"
      ],
      [
        "ę",
        "Ĝ"
      ],
      [
        "ě",
        "Ĝ"
      ],
      [
        "ę",
        "Ğ"
      ],
      [
        "Ġ",
        "Ĝ"
      ],
      [
        "ĜĜĜĜĜĜĜĜĜĜĜĜĜĜĜĜĜĜĜĜĜĜĜĜ",
        "ĜĜĜĜĜĜĜ"
      ],
      [
        "Ġ",
        "ĝ"
      ],
      [
        "!",
        "ĜĜĜĜĜĜ"
      ],
      [
        "ĜĜĜĜĜĜĜĜĜĜĜĜĜĜĜĜ",
        "ĜĜ"
      ],
      [
        "Ě",
        "Ĝ"
      ],
      [
        "ĜĜĝ",
        "ĜĜĜ"
      ],
      [
        "Ę",
        "!"
      ],
      [
        "\"",
        "ĜĜĜĜĜĜĜĜĜĜĜĜĜ"
      ],
      [
        "ĜĜĝ",
        "ĝ"
      ],
      [
        "ę",
        "Ā"
      ],
      [
        "ğ",
        "Ĝ"
      ],
      [
        "Ġ",
        "Ě"
      ],
      [
        "ĜĜě",
        "Ĝĝ"
      ],
      [
        "ĜĜĝ",
        "Ĝě"
      ],
      [
        "Ę",
        "Ę"
      ],
      [
        "%",
        "ĜĜĜĜĜĜ"
      ],
      [
        "ĜĜ",
        "ğ"
      ],
      [
        "ĜĜě",
        "ĜĜĜě"
      ],
      [
        "ĝĝ",
        "ě"
      ],
      [
        "ĜĜĝ",
        "ĜĜĜĝ"
      ],
      [
        "ĜĜĜĜĜĜĜĜ",
        "ĜĜĜĜĜě"
      ],
      [
        "Ě",
        "Ğ"
      ],
      [
        "ė",
        "Ğ"
      ],
      [
        "Ė",
        "ě"
      ],
      [
        "ė",
        "Ĝ"
      ],
      [
        "ĜĜĜĜĜĜ",
        "Ĝĝ"
      ],
      [
        "ĝ",
        "ę"
      ],
      [
        "ė",
        "Ě"
      ],
      [
        "Ę",
        "ĜĚ"
      ],
      [
        "ĜĜĜĜ",
        "ěě"
      ],
      [
        "Ě",
        "Ĝĝ"
      ],
      [
        "ĝĝ",
        "ĝ"
      ],
      [
        "ĜĜ",
        "ę"
      ],
      [
        "ĝ",
        "ğ"
      ],
      [
        "!",
        "ě"
      ],
      [
        "ĜĜě",
        "ĝ"
      ],
      [
        "ĜĜĜĜĜĜĜĜ",
        "ĜĜĜĜĜĝ"
      ],
      [
        "ĜĜĜĜĜĜĜĜĜĜĜĜĜĜĜĜ",
        "ĜĜĜĜ"
      ],
      [
        "Ė",
        "ĝ"
      ],
      [
        "Ā",
        "Ĝĝ"
      ],
      [
        "ĜĜĜĜĜĜĜĜĜĜĜĜĜĜĜĜ",
        "ĜĜĜĜĜĜĜ"
      ],
      [
        "ę",
        "ę"
      ],
      [
        "ĜĜĜĜĜĜĜĜĜĜĜĜĜĜĜĜĜĜĜĜĜĜĜĜ",
        "ĜĜĜĜĜ"
      ],
      [
        "ĜĚ",
        "ĝ"
      ],
      [
        "ğ",
        "Ğ"
      ],
      [
        "ĜĜĜĜĜĜ",
        "Ĝě"
      ],
      [
        "Ę",
        "\""
      ],
      [
        "ĜĞ",
        "ě"
      ],
      [
        "ē",
        "ĜĜĜĜĜĜ"
      ],
      [
        "Ę",
        "Ė"
      ],
      [
        "Ę",
        "Ā"
      ],
      [
        "ĕ",
        "ě"
      ],
      [
        "ĝě",
        "ĝ"
      ],
      [
        "ĜĜĜ",
        "Ě"
      ],
      [
        "Ġ",
        "Ğ"
      ],
      [
        "ę",
        "Ĝě"
      ],
      [
        "ĜĜĜě",
        "ě"
      ],
      [
        "ĜĚ",
        "Ĝě"
      ],
      [
        "ĜĜĜĜĜĜĜĜ",
        "ĜĜĜ"
      ],
      [
        "ę",
        "ğ"
      ],
      [
        "Ĝ",
        "Ē"
      ],
      [
        "ĝ",
        "ĜĞ"
      ],
      [
        "ĝĜĜĜĜĜĜĜĜĜĜĜĜĜĜĜĜĜĜĜĜĜĜĜĜĜĜĜĜĜĜĜĜ",
        "ĜĜĜĜĜĜĜ"
      ],
      [
        "\"",
        "ě"
      ],
      [
        "ěě",
        "ě"
      ],
      [
        "ĜĜě",
        "ĜĜĜĝ"
      ],
      [
        "ĜĜĜĜĜĜě",
        "ĜĜĜĜĜĜĜĜĜĜĜĜĜĜĜĜĜĜĜĜĜĜĜĜĜĜĜĜĜĜĜĜ"
      ],
      [
        "ĜĜĜĜ",
        "ĝĝ"
      ],
      [
        "ė",
        "ğ"
      ],
      [
        "!",
        "Ĝ"
      ],
      [
        "ĜĜĜě",
        "Ĝě"
      ],
      [
        "ěě",
        "ĝ"
      ],
      [
        "Ğ",
        "ĜĜĜĜĜĜ"
      ],
      [
        "Ĝĝ",
        "Ĝě"
      ],
      [
        "Ġ",
        "8"
      ],
      [
        "Ę",
        "Ĝę"
      ],
      [
        "Ā",
        "Ĝě"
      ],
      [
        "ĜĜĜĜĜĜĜĜĜĜĜĜĜĜĜĜĜĜĜĜĜĜĜĜĜĜĜĜĜĜĜĜĜĜĜĜĜĜĜĜ",
        "ĜĜĜĜĜĜĜ"
      ],
      [
        "Ğ",
        "ğ"
      ],
      [
        "Ġ",
        "ğ"
      ],
      [
        "ė",
        "Ĝě"
      ],
      [
        "ė",
        "ĜĜ"
      ],
      [
        "ĜĚ",
        "ě"
      ],
      [
        "Ĝ",
        "\""
      ],
      [
        "Ę",
        "Ĝĝ"
      ],
      [
        "ė",
        "ę"
      ],
      [
        "Ě",
        "ę"
      ],
      [
        "ĜĜĜĜĜĜĜĜ",
        "ě"
      ],
      [
        "#",
        "ě"
      ],
      [
        "Ę",
        "ĕ"
      ],
      [
        "Ĝĝ",
        "ĜĜĜĜě"
      ],
      [
        "Ğ",
        "ę"
      ],
      [
        "ĜĞ",
        "ĝ"
      ],
      [
        "ĜĜĜĜĜě",
        "ě"
      ],
      [
        "ĜĜĝ",
        "ĜĜĜĜĜĜĜĜĜĜĜĜĜĜĜĜĜĜĜĜĜĜĜĜĜĜĜĜĜĜĜĜĜĜĜĜĜĜĜĜĜĜĜĜĜĜ"
      ],
      [
        "ĜĜĜĜĜĜĜĜ",
        "ĜĜĜĝ"
      ],
      [
        "ė",
        "ĜĜĀ"
      ],
      [
        "ĝ",
        "ĜĜĜĜĜ"
      ],
      [
        "Ĝ",
        "%"
      ],
      [
        "ĜĜě",
        "ĜĜĝ"
      ],
      [
        "ě",
        "ę"
      ],
      [
        "Ĝ",
        "Ĕ"
      ],
      [
        "Ė",
        "ĜĜĜĜĜĜ"
      ],
      [
        "Ġ",
        "ę"
      ],
      [
        "ĜĜĜĜĜĜĜĜ",
        "Ĝě"
      ],
      [
        "ĠĜĜĜĜĜĜ",
        "Ě"
      ],
      [
        "Ĝĝ",
        "ĜĜě"
      ],
      [
        "!",
        "Ě"
      ],
      [
        "ĜĜĜĜ",
        "ĝĜě"
      ],
      [
        "\"ĜĜĜĜĜĜĜĜĜĜĜĜĜ",
        "ĘĜĜĜĜĜĜ"
      ],
      [
        "ĜĜĜĜĜĜĜĜĜĜĜĜĜĜĜĜ",
        "ĜĜĜ"
      ],
      [
        "Ā",
        "ĝĝ"
      ],
      [
        "ĜĜĜĜĜĜ",
        "ĖĜĜĜĜĜĜĜĜĜĜĜĜĜ"
      ],
      [
        "Ā",
        "ę"
      ],
      [
        "Ě",
        "ĜĜĜĜĜĜ"
      ],
      [
        "ĠĜĜĜĜĜĜė",
        "ĜĜĜĜĜĜ"
      ],
      [
        "ĜĜĜĜĜĜě",
        "ĜĜĜĜĜĜĜĜĜĜĜĜĜĜĜĜĜĜĜĜĜĜĜĜĜ"
      ],
      [
        "ě",
        "ğ"
      ],
      [
        "ĜĜĝ",
        "ĜĜĜě"
      ],
      [
        "Ė",
        "Ě"
      ],
      [
        "ĜĜĜ",
        "Ğ"
      ],
      [
        "ĖĜĜĜĜĜĜĜĜĜĜĜĜĜ",
        "!"
      ],
      [
        "ĜĜĜĝ",
        "ě"
      ],
      [
        "ĜĜĜĜĜĜĘĜĜĜĜĜĜ",
        "ė"
      ],
      [
        "Ę",
        "ĜĘ"
      ],
      [
        "Ğ",
        "ĜĜĜĜĜĜĘĜĜĜĜĜĜė"
      ],
      [
        "Ě",
        "ğ"
      ],
      [
        "ĠĜĜĜĜĜĜ",
        "!ĜĜĜĜĜĜ"
      ],
      [
        "Ĝĝ",
        "ĜĜĝ"
      ],
      [
        "Ĝ",
        "ď"
      ],
      [
        "ĕ",
        "ĝ"
      ],
      [
        "Ĝĝ",
        "ĜĜĜĜĜĜĜĜĜĜĜĜĜĜĜĜĜĜĜĜĜĜĜĜĜĜĜĜĜĜĜĜĜĜĜĜĜ"
      ],
      [
        "ĜĜĜĜĜĜĘĜĜĜĜĜĜ",
        "Ě"
      ],
      [
        "Ė",
        "ĜĜĜĜĜĜĘĜĜĜĜĜĜĚ"
      ],
      [
        "Ę",
        "#"
      ],
      [
        "ĜĜĜĜ",
        "ĝě"
      ],
      [
        "Ā",
        "!"
      ],
      [
        "ěĜě",
        "ĜĜĜ"
      ],
      [
        "Ė",
        "Ğ"
      ],
      [
        "ĜĜĜĜĜĜĜĜ",
        "ĜĜĜě"
      ],
      [
        "Ĕ",
        "ě"
      ],
      [
        "Ęě",
        "ĜĀ"
      ],
      [
        "ĝĝ",
        "Ĝě"
      ],
      [
        "ĜĜĝ",
        "ĜĜě"
      ],
      [
        "ĠĜĜĜĜĜĜ",
        "Ğ"
      ],
      [
        "!ĜĜĜĜĜĜ",
        "Ę"
      ],
      [
        "Ĝ",
        "#"
      ],
      [
        "ĜĜĜĜĜĜ#ĜĜĜĜĜĜ",
        "ĖĜĜĜĜĜĜ"
      ],
      [
        "\"",
        "ĜĜĜĜĜĜ"
      ],
      [
        "ĜĜĜĜĜĜĘĜĜĜĜĜĜ",
        "Ğ"
      ],
      [
        "\"",
        "ĜĜĜĜĜĜĘĜĜĜĜĜĜĞ"
      ],
      [
        "ĜĜĜĜĜĜĜĜ",
        "Ĝĝ"
      ],
      [
        "ĜĜĜĜě",
        "ĜĜĜĜĜĜĜĜĜĜĜĜĜĜĜĜĜĜĜĜĜĜĜĜĜĜĜĜĜĜĜĜ"
      ],
      [
        "ė",
        "Ā"
      ],
      [
        "ĠĜĜĜĜĜĜ",
        "!"
      ],
      [
        "ė",
        "ĜĜĜĜĜĜ"
      ],
      [
        "Ġ",
        "Ĝĝ"
      ],
      [
        "ĜĜĜĜĜĜĜĜ",
        "ĜĜě"
      ],
      [
        "ĝě",
        "Ĝě"
      ],
      [
        "ĜĜĜĜĜĜě",
        "ĜĜĜĜĜĜě"
      ],
      [
        "ě",
        "ĜĜĜĜĜ"
      ],
      [
        "ĜĜĜĜĜĜĜĜ",
        "ĜĜ"
      ],
      [
        "ĜĜĜĜĜĜĜĜĜĜĜĜĜ",
        "ĖĜĜĜĜĜĜĜĜĜĜĜĜĜ!"
      ],
      [
        "ĕ",
        "Ě"
      ],
      [
        "Ĕ",
        "ĜĜĜĜĜĜ#ĜĜĜĜĜĜĖĜĜĜĜĜĜ"
      ],
      [
        "ğ",
        "Ĝĝ"
      ],
      [
        "!",
        "ĝ"
      ],
      [
        "ĜĜĜĜĝĜĜĜĜĜĜĜĜĜĜĜĜĜĜĜĜĜĜĜĜĜĜĜĜĜĜĜĜĜĜĜĜ",
        "ĜĜĜĜĜĜĜ"
      ],
      [
        "ĜĜĜĜĝĜĜĜĜĜĜĜĜĜĜĜĜĜĜĜĜĜĜĜĜĜĜĜĜĜĜĜĜĜĜĜĜ",
        "ĜĜ"
      ],
      [
        "ĜĜĜĜĜĜĕĜĜĜĜĜĜ",
        "ĞĜĜĜĜĜĜ"
      ],
      [
        "ėĜĜĜĜĜĜ",
        "Ę"
      ],
      [
        "Ĝ",
        "Ą"
      ],
      [
        "Ā",
        "ĜĜĜĜĜĜĜĜĜĜĜĜĜĜĜĜĜĜĜĜĜĜĜĜĜĜĜĜĜĜĜĜĜĜĜĜĜĜĜĜĜĜĜĜĜĜĜĜĜ"
      ],
      [
        "ğ",
        "ğ"
      ],
      [
        "ĜĞ",
        "Ĝĝ"
      ],
      [
        "Ġ",
        "ė"
      ],
      [
        "ĜĜĜĜ",
        "Ě"
      ],
      [
        "\"",
        "Ĝ"
      ],
      [
        "Ę",
        "ĝě"
      ],
      [
        "Ė",
        "Ĝ"
      ],
      [
        "%",
        "ĜĜĜĜĜĜĜĜĜĜĜĜĜĖĜĜĜĜĜĜĜĜĜĜĜĜĜ!"
      ],
      [
        "ĜĜĜĜĜĜ#ĜĜĜĜĜĜ",
        "ĞĜĜĜĜĜĜĘĜĜĜĜĜĜė"
      ],
      [
        "ė",
        "ė"
      ],
      [
        "ĜĜĜĜĜĜĜĜ",
        "ĜĜĝ"
      ],
      [
        "ğ",
        "Ĝě"
      ],
      [
        "ĝĜĜĜĜĜĜĜĜĜĜĜĜĜĜĜĜĜĜĜĜĜĜĜĜĜĜĜĜĜĜĜĜ",
        "ĜĜĜĜĜĜ"
      ],
      [
        "ĜĜĜĜĜĜĜĜ",
        "ĝ"
      ],
      [
        "Ġ",
        "Ā"
      ],
      [
        "ĜĜĜĜĜĜĘĜĜĜĜĜĜ",
        "!"
      ],
      [
        "Ę",
        "Ĕ"
      ],
      [
        "ğ",
        "ĜĜĜĜĜĜĕĜĜĜĜĜĜĞĜĜĜĜĜĜ"
      ],
      [
        "Ę",
        "ěě"
      ],
      [
        "ĜĜĜĜě",
        "ĜĜĜĜĜĜĜĜĜĜĜĜĜĜĜĜĜĜĜĜĜĜĜĜĜĜĜĜĜĜĜĜĜĜĜĜĜĜĜ"
      ],
      [
        "Ĝĝ",
        "Ğ"
      ],
      [
        "\"ĜĜĜĜĜĜĜĜĜĜĜĜĜ",
        "ė"
      ],
      [
        "Ĝ",
        "&"
      ],
      [
        "ĜĜĜĜĜĝ",
        "ě"
      ],
      [
        "ğ",
        "ę"
      ],
      [
        "Ě",
        "ĜĜĜĜĜĜĘĜĜĜĜĜĜ!"
      ],
      [
        "\"",
        "ĝ"
      ],
      [
        "Ě",
        "Ā"
      ],
      [
        "Ė",
        "ę"
      ],
      [
        "ĜĜĜĜĜĜĕĜĜĜĜĜĜ",
        "ĖĜĜĜĜĜĜĘĜĜĜĜĜĜĚ"
      ],
      [
        "ğ",
        "ĜĜĜĜĜĜ#ĜĜĜĜĜĜĞĜĜĜĜĜĜĘĜĜĜĜĜĜė"
      ],
      [
        "ĜĜĜĝ",
        "ĝ"
      ],
      [
        "Ĕ",
        "ĝ"
      ],
      [
        "ĜĜĜĝ",
        "Ĝě"
      ],
      [
        "Ę",
        "Ĝė"
      ],
      [
        "Ęě",
        "Ĝ"
      ],
      [
        "Ġ",
        "Ĝě"
      ],
      [
        "ěě",
        "Ĝě"
      ],
      [
        "ĜĜĜĜě",
        "Ĝĝ"
      ],
      [
        "ĜĜĜĜĜĜĝ",
        "ĜĜĜĜĜĜĝ"
      ],
      [
        "Ę",
        "$"
      ],
      [
        "ĕ",
        "Ğ"
      ],
      [
        "ě",
        "ĜĚ"
      ],
      [
        "Ė",
        "ğ"
      ],
      [
        "Ĝ",
        "$"
      ],
      [
        "ĜĜĝ",
        "ĜĜĝ"
      ],
      [
        "ė",
        "!"
      ],
      [
        "ė",
        "ĜĚ"
      ],
      [
        "Ĕ",
        "ĜĜĜĜĜĜĕĜĜĜĜĜĜĖĜĜĜĜĜĜĘĜĜĜĜĜĜĚ"
      ],
      [
        "ĜĜĜĝ",
        "Ĝĝ"
      ],
      [
        "ĜĜĜĜĜĜĜĜ",
        "ĜĜĜĜ"
      ],
      [
        "Ė",
        "Ā"
      ],
      [
        "ĜĜě",
        "ĜĜě"
      ],
      [
        "\"",
        "Ě"
      ],
      [
        "Ğ",
        "ĜĞ"
      ],
      [
        "ĜĜĜě",
        "ĜĜĜĜĜĜĜĜĜĜĜĜĜĜĜĜĜĜĜĜĜĜĜĜĜĜĜĜĜĜĜĜĜĜĜĜĜĜĜ"
      ],
      [
        "Ġ",
        "Ę"
      ],
      [
        "ē",
        "ě"
      ],
      [
        "ĕ",
        "ę"
      ],
      [
        "ĜĜĜĜĜĜě",
        "ĜĜĜĜĜĜĜĜĜĜĜĜĜĜĜĜĜĜĜĜĜĜĜĜĜĜĜĜĜĜĜĜĜĜĜĜĜĜĜ"
      ],
      [
        "#",
        "Ě"
      ],
      [
        "ĝĜĝ",
        "ĜĜĜ"
      ],
      [
        "Ĝ",
        ")"
      ],
      [
        "ĘĜě",
        "Ā"
      ],
      [
        "ĜĜĜĜĜě",
        "ĜĜĜĜĜĜĜĜĜĜĜĜĜĜĜĜĜĜĜĜĜĜĜĜĜĜĜĜĜĜĜĜĜ"
      ],
      [
        "ĜĜĜĜĜĜĝĜĜĜĜĜĜĜĜĜĜĜĜĜĜĜĜĜĜĜĜĜĜĜĜĜĜĜĜĜĜĜĜ",
        "ĜĜĜĜĜĜĜ"
      ],
      [
        "ĜĀ",
        "ě"
      ],
      [
        "Ęĝ",
        "Ĝ"
      ],
      [
        "ĜĜĜě",
        "ĝ"
      ],
      [
        "ěĜě",
        "Ĝě"
      ],
      [
        "Ĝĝ",
        "ĜĜĜĜ"
      ],
      [
        "ĜĜĜĜĜĜĝĜĜĜĜĜĜĜĜĜĜĜĜĜĜĜĜĜĜĜĜĜĜĜĜĜĜĜĜĜĜĜĜ",
        "Ĝ"
      ],
      [
        "Ġ",
        "!"
      ],
      [
        "Ġ",
        "Ė"
      ],
      [
        "Ě",
        "ĜĚ"
      ],
      [
        "Ęĝ",
        "ĜĀ"
      ],
      [
        "Ğ",
        "ĝĝ"
      ],
      [
        "ĜĜĜĜĜĜĝ",
        "ĜĜĜĜĜĜĜĜĜĜĜĜĜĜĜĜĜĜĜĜĜĜĜĜĜ"
      ],
      [
        "Ā",
        "ĝě"
      ],
      [
        "ė",
        "Ę"
      ],
      [
        "ĘĚ",
        "ĜĀ"
      ],
      [
        "ĜĜĜĝ",
        "ĜĜĜĜĜĜĜĜĜĜĜĜĜĜĜĜĜĜĜĜĜĜĜĜĜĜĜĜĜĜĜĜĜĜĜĜĜĜĜ"
      ],
      [
        "ĜĜĜĜĜĜě",
        "ĜĜĜĜĜĜĜĜĜĜĜĜĜĜĜĜĜĜĜĜĜĜĜĜĜĜĜĜĜĜĜĜĜ"
      ],
      [
        "ĜĜĜĜĜĜĕĜĜĜĜĜĜ",
        "\"ĜĜĜĜĜĜĘĜĜĜĜĜĜĞ"
      ],
      [
        "ĝĜĜĜĜĜĜĜĜĜĜĜĜĜĜĜĜĜĜĜĜĜĜĜĜĜĜĜĜĜĜĜĜ",
        "ĜĜĜĜĜ"
      ],
      [
        "ĝĜĝ",
        "Ĝĝ"
      ],
      [
        "ĜĜĜĜĜĝ",
        "ĜĜĜĜĜĜĜĜĜĜĜĜĜĜĜĜĜĜĜĜĜĜĜĜĜĜĜĜĜĜĜĜĜ"
      ],
      [
        "%ĜĜĜĜĜĜ",
        "ĔĜĜĜĜĜĜ#ĜĜĜĜĜĜĖĜĜĜĜĜĜ"
      ],
      [
        "Ĝ",
        "."
      ],
      [
        "ĜĜĜě",
        "ĜĜĝ"
      ],
      [
        "Ę",
        "ĜĞ"
      ],
      [
        "Ġ",
        "ĜĞ"
      ],
      [
        "ĝĜě",
        "ě"
      ],
      [
        "Ĝ",
        "Ď"
      ],
      [
        "!",
        "Ğ"
      ],
      [
        "ĝĜĜĜĜĜĜĜĜĜĜĜĜĜĜĜĜĜĜĜĜĜĜĜĜĜĜĜĜĜĜĜĜ",
        "ĜĜĜĜ"
      ],
      [
        "ĜĜĜĜĜĝ",
        "ĝ"
      ],
      [
        "ě",
        "Ĝę"
      ],
      [
        "Ĝě",
        "Ğ"
      ],
      [
        "ĝĜĜĜĜĜĜĜĜĜĜĜĜĜĜĜĜĜĜĜĜĜĜĜĜĜĜĜĜĜĜĜĜ",
        "ĜĜĜĜĜĜĜĜĜĜĜĜĜĜĜĜ"
      ],
      [
        "ĜĜĜĝ",
        "ĜĜě"
      ],
      [
        "#",
        "Ĝ"
      ],
      [
        "ĝĜĜĜĜĜĜĜĜĜĜĜĜĜĜĜĜĜĜĜĜĜĜĜĜĜĜĜĜĜĜĜĜ",
        "Ĝ"
      ],
      [
        "ĜĜĜě",
        "Ĝĝ"
      ],
      [
        "Ē",
        "ě"
      ],
      [
        "ĜĘ",
        "ĝ"
      ],
      [
        "$",
        "ĜĜĜĜĜĜĕĜĜĜĜĜĜ\"ĜĜĜĜĜĜĘĜĜĜĜĜĜĞ"
      ],
      [
        "ĜĜĝ",
        "ĜĜĜĜĜĜĜĜĜĜĜĜĜĜĜĜĜĜĜĜĜĜĜĜĜĜĜĜĜĜĜĜĜĜĜĜĜĜĜĜĜĜĜ"
      ],
      [
        "ė",
        "Ĝę"
      ],
      [
        "Ā",
        "ěě"
      ],
      [
        "ę",
        "Ĝĝ"
      ],
      [
        "ĘĚ",
        "Ĝ"
      ],
      [
        "ĝĜě",
        "Ĝě"
      ],
      [
        "Ĕ",
        "Ğ"
      ],
      [
        "ĝĜĝ",
        "ě"
      ],
      [
        "ĜĜĜ",
        "ē"
      ],
      [
        "8",
        "8"
      ],
      [
        "ĜĜĝ",
        "ĜĜĜĜĜĜĜĜĜĜĜĜĜĜĜĜĜĜĜĜĜĜĜĜĜĜĜĜĜĜĜĜĜĜ"
      ],
      [
        "ĜĜĝ",
        "ĜĜĜĜĜĜĜĜĜĜĜĜĜĜĜĜĜĜĜĜĜĜĜĜĜĜĜĜĜĜĜĜĜĜĜĜĜĜĜĜ"
      ],
      [
        "ĜĜě",
        "ĜĜĜĜĜĜĜĜĜĜĜĜĜĜĜĜĜĜĜĜĜĜĜĜĜĜĜĜĜĜĜĜĜĜĜĜĜĜĜĜĜĜĜ"
      ],
      [
        "ĜĜ",
        "Ğě"
      ],
      [
        "Ĕ",
        "Ě"
      ],
      [
        "Ę",
        "ē"
      ],
      [
        "ĕ",
        "Ĝ"
      ],
      [
        "ĜĜĜĜĜĜĜĜ",
        "ĜĜĜĜě"
      ],
      [
        "ĜĜ",
        "Ěě"
      ],
      [
        "ė",
        "Ė"
      ],
      [
        "$",
        "ě"
      ],
      [
        "Ę",
        "%"
      ],
      [
        "ė",
        "\""
      ],
      [
        "ĜĜĜĜĜĜĝ",
        "ĜĜĜĜĜĜě"
      ],
      [
        "ĜĜĜĜĜĜ#ĜĜĜĜĜĜ",
        "\"ĜĜĜĜĜĜ"
      ],
      [
        "ěĝ",
        "Ĝě"
      ],
      [
        "Ě",
        "Ĝę"
      ],
      [
        "ĜĜě",
        "ĜĜĜĜĜĜĜĜĜĜĜĜĜĜĜĜĜĜĜĜĜĜĜĜĜĜĜĜĜĜĜĜĜĜĜĜĜĜĜĜĜ"
      ],
      [
        "ĜĜĜĜĜě",
        "ĝ"
      ],
      [
        "Ġ",
        "ĕ"
      ],
      [
        "ĜĞ",
        "Ĝě"
      ],
      [
        "ĝ",
        "Ĝğ"
      ],
      [
        "ĜĜĜĜĜĜĝĜĜĜĜĜĜĜĜĜĜĜĜĜĜĜĜĜĜĜĜĜĜĜĜĜĜĜĜĜĜĜĜ",
        "ĜĜĜĜĜ"
      ],
      [
        "Ĕ",
        "ę"
      ],
      [
        "ĜĜě",
        "ĜěĜě"
      ],
      [
        "Ė",
        "Ĝě"
      ],
      [
        "!",
        "ę"
      ],
      [
        "ĜĜě",
        "ĜĜĜĜĜĜĜĜĜĜĜĜĜĜĜĜĜĜĜĜĜĜĜĜĜĜĜĜĜĜĜĜĜĜĜĜĜĜĜĜ"
      ],
      [
        "ĝ",
        "Ę"
      ],
      [
        "ĜĜĜĜĜĜě",
        "ĜĜĜĜĜĜĜĜĜĜĜĜĜĜĜĜĜĜĜĜĜĜĜĜĜĜĜĜĜĜĜĜĜĜĜĜĜ"
      ],
      [
        "#",
        "ĝ"
      ],
      [
        "ĕ",
        "ğ"
      ],
      [
        "ĝĝ",
        "Ĝĝ"
      ],
      [
        "ĜĜ",
        "ē"
      ],
      [
        "Ĕ",
        "Ĝ"
      ],
      [
        "\"ĜĜĜĜĜĜĜĜĜĜĜĜĜĘĜĜĜĜĜĜ",
        "!ĜĜĜĜĜĜĘ"
      ],
      [
        "ę",
        "ĜĚ"
      ],
      [
        "!",
        "ğ"
      ],
      [
        "ĜĜĜĜĜĝ",
        "ĜĜĜĜĜĜĜĜĜĜĜĜĜĜĜĜĜĜĜĜĜĜĜĜĜĜĜĜĜĜĜĜ"
      ],
      [
        "ěě",
        "Ĝĝ"
      ],
      [
        "Ę",
        "ĝĚ"
      ],
      [
        "Ġ",
        "ĜĀ"
      ],
      [
        "ĜĜĜĜ",
        "Ğ"
      ],
      [
        "Ğě",
        "Ĝě"
      ],
      [
        "Ė",
        "ė"
      ],
      [
        "ĜĜĜĜĜĜ#ĜĜĜĜĜĜ",
        "ĚĜĜĜĜĜĜĘĜĜĜĜĜĜ!"
      ],
      [
        "ĜĜĝ",
        "ĜĜĜĜĜĜĜĜĜĜĜĜĜĜĜĜĜĜĜĜĜĜĜĜĜĜĜĜĜĜĜĜĜĜĜĜĜĜĜĜĜ"
      ],
      [
        "ĜĜĜĜĜĜĕĜĜĜĜĜĜ",
        "ĚĜĜĜĜĜĜ"
      ],
      [
        "ė",
        "ĜĘ"
      ],
      [
        "Ė",
        "ĜĜ"
      ],
      [
        "ĜĜĜĜĜĜĜĜ",
        "ĜĜĜĜĝ"
      ],
      [
        "ĜĜĜĜĜĜĝĜĜĜĜĜĜĜĜĜĜĜĜĜĜĜĜĜĜĜĜĜĜĜĜĜĜĜĜĜĜĜĜ",
        "ĜĜ"
      ],
      [
        "ĜĞ",
        "Ğ"
      ],
      [
        "ĝě",
        "Ĝĝ"
      ],
      [
        "#",
        "ę"
      ],
      [
        "$",
        "ĜĜĜĜĜĜ#ĜĜĜĜĜĜ\"ĜĜĜĜĜĜ"
      ],
      [
        "\"ĜĜĜĜĜĜĜĜĜĜĜĜĜĘĜĜĜĜĜĜ",
        "ėĜĜĜĜĜĜĘ"
      ],
      [
        "đ",
        "ě"
      ],
      [
        "ĜĜĜĜĜĜĜĜĜĜĜĜĜ",
        "\"ĜĜĜĜĜĜĜĜĜĜĜĜĜė"
      ],
      [
        "ĜĜĜě",
        "ĜĜĜĜĜĜĜĜĜĜĜĜĜĜĜĜĜĜĜĜĜĜĜĜĜĜĜĜĜĜĜĜĜĜĜĜĜĜĜĜ"
      ],
      [
        "ĜĜĜĜě",
        "ĜĜĜĜĜĜĜĜĜĜĜĜĜĜĜĜĜĜĜĜĜĜĜĜĜĜĜĜĜĜĜĜĜĜ"
      ],
      [
        "Ě",
        "ė"
      ],
      [
        "ĜĘ",
        "Ĝě"
      ],
      [
        "\"",
        "ę"
      ],
      [
        "Ğ",
        "!"
      ],
      [
        "ĜĜĜě",
        "ĜĜĜĜĜĜĜĜĜĜĜĜĜĜĜĜĜĜĜĜĜĜĜĜĜĜĜĜĜĜĜĜĜ"
      ],
      [
        "Ĝğ",
        "ě"
      ],
      [
        "ĘĞ",
        "Ĝ"
      ],
      [
        "Ğ",
        "ė"
      ],
      [
        "Ęę",
        "ĜĀ"
      ],
      [
        "%",
        "ě"
      ],
      [
        "ē",
        "ĝ"
      ],
      [
        ")",
        "ĜĜĜĜĜĜĖĜĜĜĜĜĜĜĜĜĜĜĜĜ"
      ],
      [
        "ĜĜĜĝ",
        "ĜĜĜĜĜĜĜĜĜĜĜĜĜĜĜĜĜĜĜĜĜĜĜĜĜĜĜĜĜĜĜĜĜĜĜĜĜĜĜĜ"
      ],
      [
        "Ĝę",
        "ĝ"
      ],
      [
        "Ğ",
        "Ā"
      ],
      [
        "ę",
        "ė"
      ],
      [
        "Ę",
        "Ğě"
      ],
      [
        "ĝ",
        "!"
      ],
      [
        "ĕ",
        "Ā"
      ],
      [
        "ĝĜĝ",
        "ĝ"
      ],
      [
        "ĕ",
        "ė"
      ],
      [
        "$",
        "Ĝ"
      ],
      [
        "Ē",
        "ĝ"
      ],
      [
        "ěĜĝ",
        "Ĝě"
      ],
      [
        "%ĜĜĜĜĜĜ",
        "ğĜĜĜĜĜĜĕĜĜĜĜĜĜĞĜĜĜĜĜĜ"
      ],
      [
        "Ę",
        "Ěě"
      ],
      [
        "ē",
        "Ě"
      ],
      [
        "ĜĜĜĜĜĝ",
        "ĜĜĜĜĜĜĜĜĜĜĜĜĜĜĜĜĜĜĜĜĜĜĜĜĜĜĜĜĜĜĜĜĜĜĜĜĜ"
      ],
      [
        "ĜĚ",
        "Ğ"
      ],
      [
        "Ę",
        "ĜĀ"
      ],
      [
        "\"",
        "Ğ"
      ],
      [
        "ĜĜĞ",
        "Ĝĝ"
      ],
      [
        "ğ",
        "Ā"
      ],
      [
        "Ĝě",
        "ĜĜĜĜ"
      ],
      [
        "ď",
        "ĜĜĜĜĜĜĖĜĜĜĜĜĜĜĜĜĜĜĜĜ"
      ],
      [
        "ĜĜĜĜĜĜĜĜĜĜĜĜĜĜĜĜ",
        "ĜĜĜĜĜĜ"
      ],
      [
        "ē",
        "ę"
      ],
      [
        "ĜĜ",
        "!"
      ],
      [
        "ĜĜĜĜě",
        "ĜĜĜĜĜĜĜĜĜĜĜĜĜĜĜĜĜĜĜĜĜĜĜĜĜĜĜĜĜĜĜĜĜĜĜĜĜĜĜĜĜ"
      ],
      [
        "ē",
        "Ĝ"
      ],
      [
        "Ĕ",
        "ė"
      ],
      [
        "ĝĚ",
        "ĝ"
      ],
      [
        "ĝĝ",
        "Ğ"
      ],
      [
        "ēĜĜĜĜĜĜ",
        "ğĜĜĜĜĜĜ#ĜĜĜĜĜĜĞĜĜĜĜĜĜĘĜĜĜĜĜĜė"
      ],
      [
        "Ġ",
        "\""
      ],
      [
        "ĜĜĜĜĝ",
        "ĜĜĜĜĜĜĜĜĜĜĜĜĜĜĜĜĜĜĜĜĜĜĜĜĜĜĜĜĜĜĜĜĜĜĜĜĜĜĜĜĜ"
      ],
      [
        "ě",
        "ė"
      ],
      [
        "ĜĜĜĜě",
        "ĝ"
      ],
      [
        "ĜĜĜĜĜĝ",
        "ĜĜĜĜĜĜĜĜĜĜĜĜĜĜĜĜĜĜĜĜĜĜĜĜĜĜĜĜĜĜĜĜĜĜ"
      ],
      [
        "ĜĜĜĜĜĜĝ",
        "ĜĜĜĜĜĜĜĜĜĜĜĜĜĜĜĜĜĜĜĜĜĜĜĜĜĜĜĜĜĜ"
      ],
      [
        "Ĝĝ",
        "Ě"
      ],
      [
        "ĜĜě",
        "ěě"
      ],
      [
        "ě",
        "Ę"
      ],
      [
        "%",
        "ĜĜěĜĜĜ"
      ],
      [
        "ę",
        "ĜĜĜĜĜĜ#ĜĜĜĜĜĜĚĜĜĜĜĜĜĘĜĜĜĜĜĜ!"
      ],
      [
        "ğ",
        "ĜĞ"
      ],
      [
        "ĜĜĝ",
        "ĝĝ"
      ],
      [
        "Ĝ",
        "Ă"
      ],
      [
        "ĜĜĝĜĝ",
        "Ĝĝ"
      ],
      [
        "ĝ",
        "ė"
      ],
      [
        "ę",
        "ĜĜĜĜĜĜĕĜĜĜĜĜĜĚĜĜĜĜĜĜ"
      ],
      [
        "ĜĜĜĝ",
        "ĜĜĜĜĜĜĜĜĜĜĜĜĜĜĜĜĜĜĜĜĜĜĜĜĜĜĜĜĜĜĜĜĜ"
      ],
      [
        "ĝě",
        "Ğ"
      ],
      [
        "ĜĜĚ",
        "Ĝě"
      ],
      [
        "&",
        "ě"
      ],
      [
        "ĕ",
        "ĜĜ"
      ],
      [
        "Ę",
        "Ĝğ"
      ],
      [
        "!",
        "Ā"
      ],
      [
        "\"",
        "Ā"
      ],
      [
        "ĜĜ",
        "Ğĝ"
      ],
      [
        "ĜĜĜĜĝĜĜĜĜĜĜĜĜĜĜĜĜĜĜĜĜĜĜĜĜĜĜĜĜĜĜĜĜĜĜĜĜ",
        "Ĝ"
      ],
      [
        "ěĜĝ",
        "ě"
      ],
      [
        "Ē",
        "ę"
      ],
      [
        "ĜĜĝ",
        "ĜĜĜĜĜĜĜĜĜĜĜĜĜĜĜĜĜĜĜĜĜĜĜĜĜĜĜĜĜĜĜĜĜĜĜĜ"
      ],
      [
        "ĜĚ",
        "Ě"
      ],
      [
        "ĜĜĜĜĜě",
        "ĜĜĜĜĜĜĜĜĜĜĜĜĜĜĜĜĜĜĜĜĜĜĜĜĜĜĜĜĜĜĜĜĜĜĜĜĜĜĜĜ"
      ],
      [
        "\"",
        "ė"
      ],
      [
        "Ē",
        "Ě"
      ],
      [
        "ě",
        "ĜĞ"
      ],
      [
        "ĜĜĜĜĜě",
        "ĜĜĜĜĜĜĜĜĜĜĜĜĜĜĜĜĜĜĜĜĜĜĜĜĜĜĜĜĜĜĜĜĜĜĜĜĜ"
      ],
      [
        "Ĕ",
        "Ā"
      ],
      [
        "ğ",
        "ė"
      ],
      [
        "ĜĀ",
        "Ğ"
      ],
      [
        "ğ",
        "!"
      ],
      [
        "ĜĜě",
        "ĜĜĜĜĜĜĜĜĜĜĜĜĜĜĜĜĜĜĜĜĜĜĜĜĜĜĜĜĜĜĜĜĜĜ"
      ],
      [
        "Ęğ",
        "Ĝ"
      ],
      [
        "ĝ",
        "ĜĜ"
      ],
      [
        "ĜĜĝ",
        "ĜĜĜĜĜĜĜĜĜĜĜĜĜĜĜĜĜĜĜĜĜĜĜĜĜĜĜĜĜĜĜĜĜĜĜĜĜ"
      ],
      [
        "#",
        "ė"
      ],
      [
        "Ē",
        "Ĝ"
      ],
      [
        "ĜĜě",
        "ĜĜĜĜĜĜĜĜĜĜĜĜĜĜĜĜĜĜĜĜĜĜĜĜĜĜĜĜĜĜĜĜĜĜĜĜĜĜĜĜĜĜĜĜĜĜ"
      ],
      [
        "ĞĜĝ",
        "ě"
      ],
      [
        "$",
        "Ě"
      ],
      [
        "!",
        "ė"
      ],
      [
        "Ğ",
        "Ę"
      ],
      [
        "ĜĜě",
        "ĜĜĜĜĜĜĜĜĜĜĜĜĜĜĜĜĜĜĜĜĜĜĜĜĜĜĜĜĜĜĜĜĜĜĜĜĜ"
      ],
      [
        "ĘĜ",
        "Ė"
      ],
      [
        "Ęę",
        "Ĝ"
      ],
      [
        "ğ",
        "Ę"
      ],
      [
        "Ā",
        "ĜĞ"
      ],
      [
        "đ",
        "ę"
      ],
      [
        "Ĝę",
        "Ĝě"
      ],
      [
        "#",
        "Ğ"
      ],
      [
        "Ė",
        "Ė"
      ],
      [
        "ĜĜě",
        "Ě"
      ],
      [
        "ěě",
        "Ě"
      ],
      [
        "ĝě",
        "ĜĜĝ"
      ],
      [
        "ĜĜĜĜĜĜě",
        "ĜĜĜĜĜĜĜĜĜĜĜĜĜĜĜĜĜĜĜĜĜĜĜĜĜĜĜ"
      ],
      [
        "ėě",
        "ĜĀ"
      ],
      [
        "ĜĜĜ",
        "ę"
      ],
      [
        "ĕ",
        "Ĝě"
      ],
      [
        "Ĝğ",
        "ĝ"
      ],
      [
        "ěĜĝ",
        "ĝ"
      ],
      [
        "ĜĜĜĜĜĜĝ",
        "ĜĜĜĜĜĜĜĜĜĜĜĜĜĜĜĜĜĜĜĜĜĜĜĜĜĜĜ"
      ],
      [
        "ĘĜĜĀ",
        "ĜĜĜĜĜĜĜĜĜĜĜĜĜĜĜĜĜĜĜĜĜĜĜĜĜĜĜĜĜĜĜĜĜĜĜĜĜĜĜĜĜĜĜĜĜĜĜĜĜ"
      ],
      [
        "ĜĜ",
        "\""
      ],
      [
        "đ",
        "Ě"
      ],
      [
        "ĜĜĜĜĜĜĜĜ",
        "Ĝ"
      ],
      [
        "Ęě",
        "Ě"
      ],
      [
        "ĜĜĜĜĜě",
        "ĜĜĜĜĜĜĜĜĜĜĜĜĜĜĜĜĜĜĜĜĜĜĜĜĜĜĜĜĜĜĜĜ"
      ],
      [
        "ēĜĜĜĜĜĜ",
        "ĔĜĜĜĜĜĜĕĜĜĜĜĜĜĖĜĜĜĜĜĜĘĜĜĜĜĜĜĚ"
      ],
      [
        "Ġ",
        "Ĕ"
      ],
      [
        "ĜĜĜĜĜĜě",
        "ĜĜĜĜĜĜĜĜĜĜĜĜĜĜĜĜĜĜĜĜĜĜĜĜĜĜĜĜĜĜ"
      ],
      [
        "Ē",
        "Ğ"
      ],
      [
        "ĜĜ",
        "ė"
      ],
      [
        "ĜĀ",
        "ĝ"
      ],
      [
        "ěĝ",
        "Ě"
      ],
      [
        "ę",
        "!"
      ],
      [
        "ĝĜĝ",
        "Ĝě"
      ],
      [
        "Đ",
        "ě"
      ],
      [
        "ē",
        "ė"
      ],
      [
        "ĜĜ",
        "Ę"
      ],
      [
        "Ā",
        "ĜĜĝ"
      ],
      [
        "ĜĜĞ",
        "Ĝě"
      ],
      [
        "đ",
        "ė"
      ],
      [
        "Ė",
        "!"
      ],
      [
        "ĜĜě",
        "ĜĚ"
      ],
      [
        "ĜĜě",
        "ĜĜĜĜĜĜĜĜĜĜĜĜĜĜĜĜĜĜĜĜĜĜĜĜĜĜĜĜĜĜĜĜĜĜĜĜ"
      ],
      [
        "Ā",
        "Ğě"
      ],
      [
        "ě",
        "ĜĘ"
      ],
      [
        "ĜĜĜĜĜĜĜĜĜĜĜĜĜĜĜĜ",
        "ĜĜĜĜĝ"
      ],
      [
        "Ġ",
        "4"
      ],
      [
        "ĜĜĜĜĜĜě",
        "Ĝě"
      ],
      [
        "Đ",
        "ė"
      ],
      [
        "Ę",
        "&"
      ],
      [
        "%",
        "Ĝ"
      ],
      [
        "#",
        "Ė"
      ],
      [
        "ĜĜĜĜĜĜĝ",
        "ĜĜĜĜĜĜĜĜĜĜĜĜĜĜĜĜĜĜĜĜĜĜĜĜĜĜ"
      ],
      [
        "ĜĜĜĜĜĜĜĜ",
        "ĝĜĜĜĜĜĜĜĜĜĜĜĜĜĜĜĜĜĜĜĜĜĜĜĜĜĜĜĜĜĜĜĜ"
      ],
      [
        "ĜĜĜĜĜĜĜĜĜĜĜĜĜĜĜĜ",
        "ĜĜĜĜě"
      ],
      [
        "ě",
        "Ĝė"
      ],
      [
        "ĜĜĜĜě",
        "ĜĜĜĜĜĜĜĜĜĜĜĜĜĜĜĜĜĜĜĜĜĜĜĜĜĜĜĜĜĜĜĜĜĜĜĜĜĜĜĜĜĜĜĜ"
      ],
      [
        "Ěě",
        "Ě"
      ],
      [
        "ē",
        "Ğ"
      ],
      [
        "Ė",
        "ĜĚ"
      ],
      [
        "Ĝę",
        "ě"
      ],
      [
        "Ĝě",
        "Ě"
      ],
      [
        "ĜĚ",
        "Ĝĝ"
      ],
      [
        "ěĜĝ",
        "Ĝĝ"
      ],
      [
        "$",
        "ė"
      ],
      [
        "ĘĞ",
        "ĜĀ"
      ],
      [
        "Ę",
        "ĝĝ"
      ],
      [
        "Ğ",
        "ĝě"
      ],
      [
        "Ě",
        "ĜĘ"
      ],
      [
        "ĜĜĜĜě",
        "ĜĜĜĜĜĜĜĜĜĜĜĜĜĜĜĜĜĜĜĜĜĜĜĜĜĜĜ"
      ],
      [
        "$",
        "ĝ"
      ],
      [
        "đ",
        "Ĝ"
      ],
      [
        "ě",
        "!"
      ],
      [
        "đ",
        "ĝ"
      ],
      [
        "Ğ",
        "ěě"
      ],
      [
        "ĕ",
        "Ė"
      ],
      [
        "ĝĜě",
        "Ĝĝ"
      ],
      [
        "%",
        "ĝ"
      ],
      [
        "\"",
        "ğ"
      ],
      [
        "ĝĜě",
        "ĝ"
      ],
      [
        "ĘĜĚ",
        "Ā"
      ],
      [
        "ĜĘ",
        "ĜĜĀ"
      ],
      [
        "ĜĜĝ",
        "ĜĜĜĜĜĜĜĜĜĜ"
      ],
      [
        "Ĕ",
        "ğ"
      ],
      [
        "ĜĜĜĜĜĜě",
        "ĜĜĜĜĜĜĜĜĜĜĜĜĜĜĜĜĜĜĜĜĜĜĜĜĜĜĜĜĜĜĜĜĜĜ"
      ],
      [
        "ę",
        "ĝě"
      ],
      [
        "Ġ",
        "ěĝ"
      ],
      [
        "ĕ",
        "Ę"
      ],
      [
        "ĜĜĝ",
        "ĝě"
      ],
      [
        "Ġ",
        "#"
      ],
      [
        "ĜĜ",
        "%"
      ],
      [
        "$",
        "ę"
      ],
      [
        "ė",
        "ĝě"
      ],
      [
        "Ğĝ",
        "Ğ"
      ],
      [
        "Ď",
        "ę"
      ],
      [
        "ĝĜĝ",
        "ĜĜĜĜĜĜĜĜĜĜĜĜĜĜĜĜĜĜĜĜĜĜĜĜĜĜĜĜĜĜĜĜĜĜĜĜĜĜĜĜĜĜĜĜĜĜ"
      ],
      [
        "ĜĜĜĜĜě",
        "ĜĜĜĜĜĜĜĜĜĜĜĜĜĜĜĜĜĜĜĜĜĜĜĜĜĜĜĜĜĜĜĜĜĜĜĜĜĜĜ"
      ],
      [
        "ĜĜ",
        "Ěĝ"
      ],
      [
        "Đ",
        "Ě"
      ],
      [
        "Ē",
        "ė"
      ],
      [
        "Ď",
        "Ě"
      ],
      [
        "ę",
        "Ę"
      ],
      [
        "ěĜě",
        "ě"
      ],
      [
        "ĜĘ",
        "ĜĜ"
      ],
      [
        "Ğ",
        "ĜĚ"
      ],
      [
        "Ğě",
        "Ĝĝ"
      ],
      [
        "ĜĜĜĜĝ",
        "ĜĜĜĜĜĜĜĜĜĜĜĜĜĜĜĜĜĜĜĜĜĜĜĜĜĜĜ"
      ],
      [
        "Ĝē",
        "ĜĜĜĜĜĜ"
      ],
      [
        "Ė",
        "ĜĜĀ"
      ],
      [
        "ĜĜĜĜĜĜ",
        "ĝĜĝ"
      ],
      [
        "ĜĜĜĜĜĜě",
        "ĜĜĜĜĜĜĜĜĜĜĜĜĜĜĜĜĜĜĜĜĜĜĜĜĜĜ"
      ],
      [
        "ĜĜĜĜĜĝ",
        "ĜĜĜĜĜĜĜĜĜĜĜĜĜĜĜĜĜĜĜĜĜĜĜĜĜĜĜĜĜĜĜĜĜĜĜĜĜĜĜ"
      ],
      [
        "ĘĜ",
        "ĕ"
      ],
      [
        "ėě",
        "Ĝ"
      ],
      [
        "Ā",
        "ĜĚ"
      ],
      [
        "ĘĘ",
        "ĜĀ"
      ],
      [
        "Ā",
        "ĝĞ"
      ],
      [
        "Đ",
        "ę"
      ],
      [
        "Ě",
        "Ę"
      ],
      [
        "ĜĜĜĝ",
        "ĜĜĜĜĜĜĜĜĜĜĜĜĜĜĜĜĜĜĜĜĜĜĜĜĜĜĜĜĜĜĜĜĜĜĜĜĜ"
      ],
      [
        "ĜĜĜĜĜě",
        "ĜĜĜĜĜĜĜĜĜĜĜĜĜĜĜĜĜĜĜĜĜĜĜĜĜĜĜĜĜĜĜĜĜĜ"
      ],
      [
        "Ė",
        "Ę"
      ],
      [
        "ĜĜĜ",
        "Ą"
      ],
      [
        "ĜĜĜĜĝ",
        "ĜĜĜĜĜĜĜĜĜĜĜĜĜĜĜĜĜĜĜĜĜĜĜĜĜĜĜĜĜĜĜĜĜĜĜĜĜĜĜĜ"
      ],
      [
        "Ĝě",
        "Ĝĝ"
      ],
      [
        "ěě",
        "ĜĜě"
      ],
      [
        "ĝĝ",
        "ĜĜĜĜĜĜĜĜĜĜĜĜĜĜĜĜĜĜĜĜĜĜĜĜĜĜĜĜĜĜĜĜĜĜĜĜĜĜĜ"
      ],
      [
        "Ğ",
        "ěĝ"
      ],
      [
        "%",
        "Ě"
      ],
      [
        "ĜĞ",
        "Ě"
      ],
      [
        "ĜĜĜĜĜĜě",
        "ĜĜĜĜĜĜĝ"
      ],
      [
        "ė",
        "Ĝĝ"
      ],
      [
        "ĜĜĜĜĝ",
        "ĜĜĜĜĜĜĜĜĜĜĜĜĜĜĜĜĜĜĜĜĜĜĜĜĜĜĜĜĜĜĜĜĜĜĜĜĜĜĜĜĜĜĜĜ"
      ],
      [
        "Ġ",
        "Ĝğ"
      ],
      [
        "Ě",
        "Ĝė"
      ],
      [
        "Ĝě",
        "ğ"
      ],
      [
        "ĜĜĜĜě",
        "ĜĜĜĜĜĜĜĜĜĜĜĜĜĜĜĜĜĜĜĜĜĜĜĜĜĜĜĜĜĜĜĜĜ"
      ],
      [
        "ĜĜĜě",
        "ĜĜĜĜĜĜĜĜĜĜĜĜĜĜĜĜĜĜĜĜĜĜĜĜĜĜĜĜĜĜĜĜĜĜĜĜĜ"
      ],
      [
        "ĜĜĜĜĜĝ",
        "ĜĜĜĜĜĜĜĜĜĜĜĜĜĜĜĜĜĜĜĜĜĜĜĜĜĜĜĜĜĜĜĜĜĜĜĜĜĜĜĜ"
      ],
      [
        "Ā",
        "\""
      ],
      [
        "ĝ",
        "\""
      ],
      [
        "ğ",
        "\""
      ],
      [
        "Ġ",
        "5"
      ],
      [
        "ĜĜĜĜĜĜĜĝ",
        "ĜĜĜĜĜĜĜĜĜĜĜĜĜĜĜĜĜĜĜĜĜĜĜĜĜĜĜĜĜĜĜĜ"
      ],
      [
        "Ĕ",
        "Ę"
      ],
      [
        "ę",
        "ĜĘ"
      ],
      [
        "Ġ",
        "ĝĝ"
      ],
      [
        "ĜĀ",
        "Ĝĝ"
      ],
      [
        "Ğ",
        "\""
      ],
      [
        "Ğ",
        "ĜĜě"
      ],
      [
        "ĜĜĜĝ",
        "ĜĜĝ"
      ],
      [
        "ğ",
        "ĝĝ"
      ],
      [
        "ĜĜĞ",
        "ĜĜĜĜĜĜĜĜĜĜĜĜĜĜĜĜĜĜĜĜĜĜĜĜĜĜĜĜĜĜĜĜĜĜĜĜĜĜĜĜĜĜĜĜĜĜ"
      ],
      [
        "ĜĜĜĝ",
        "ĜĜĜĜĜĜĜĜĜĜĜĜĜĜĜĜĜĜĜĜĜĜĜĜĜĜĜĜĜĜĜĜĜĜ"
      ],
      [
        "ď",
        "ė"
      ],
      [
        "ď",
        "ĜĜĜĜĜĜ"
      ],
      [
        "ę",
        "Ĝę"
      ],
      [
        "#",
        "Ā"
      ],
      [
        "ď",
        "ě"
      ],
      [
        "Ġ",
        "ē"
      ],
      [
        "Ď",
        "ė"
      ],
      [
        "ĜĜĝ",
        "ĜĞ"
      ],
      [
        "đ",
        "Ę"
      ],
      [
        "!",
        "Ĝĝ"
      ],
      [
        "ğ",
        "Ė"
      ],
      [
        "ěĝ",
        "ĜĜě"
      ],
      [
        "ĜĜ",
        "Ė"
      ],
      [
        "Đ",
        "Ĝ"
      ],
      [
        "Ĕ",
        "Ė"
      ],
      [
        "Ē",
        "Ę"
      ],
      [
        "&",
        "Ĝ"
      ],
      [
        "'",
        "ė"
      ],
      [
        "ę",
        "Ĝė"
      ],
      [
        "ě",
        "ĜĖ"
      ],
      [
        "ĜĜĜĜěě",
        "ě"
      ],
      [
        "ĝ",
        "Ė"
      ],
      [
        "ĜĜĝ",
        "Ğ"
      ],
      [
        "%",
        "ė"
      ],
      [
        "Ē",
        "ĜĜĜĜĜĜ"
      ],
      [
        "Ğ",
        "Ĝğ"
      ],
      [
        "#",
        "ğ"
      ],
      [
        "Ā",
        "ěĝ"
      ],
      [
        "Ğě",
        "Ğ"
      ],
      [
        "ę",
        "Ė"
      ],
      [
        "Ě",
        "!"
      ],
      [
        "ĜĜĜĜĜ",
        "Ě"
      ],
      [
        "ěě",
        "Ğ"
      ],
      [
        "ĘĚ",
        "Ě"
      ],
      [
        "Ā",
        "ĝĜĝ"
      ],
      [
        "ē",
        "ĜĜĜĜĜĜĜĜĜĜĜĜĜ\"ĜĜĜĜĜĜĜĜĜĜĜĜĜė"
      ],
      [
        "ē",
        "ĜĜěĜĜĜ"
      ],
      [
        "Ę!",
        "Ĝ"
      ],
      [
        "ĜĜĜĜĜĜ",
        "ĝĝ"
      ],
      [
        "ěě",
        "ĜĜĜĜĜĜĜĜĜĜĜĜĜĜĜĜĜĜĜĜĜĜĜĜĜĜĜĜĜĜĜĜĜĜĜĜĜĜĜ"
      ],
      [
        "ĝě",
        "Ě"
      ],
      [
        "ĜĜĜĜĜĜě",
        "ĜĜĜĜĜĜĜĜĜĜĜĜĜĜĜĜĜĜĜĜĜĜĜĜĜĜĜĜĜĜĜĜĜĜĜĜ"
      ],
      [
        "ėĝ",
        "ĜĀ"
      ],
      [
        "ĜĘ",
        "ě"
      ],
      [
        "ĜĜĝ",
        "Ě"
      ],
      [
        "$",
        "Ğ"
      ],
      [
        "ĝ",
        "ĜĜĜĝ"
      ],
      [
        "ĘĜĜĜĜĜĜ",
        "!ĜĜĜĜĜĜĘ"
      ],
      [
        "ē",
        "Ę"
      ],
      [
        "'",
        "ě"
      ],
      [
        "\"",
        "Ė"
      ],
      [
        "ĕ",
        "!"
      ],
      [
        "ĜĜĝĜĝ",
        "ĜĜĜĜĜĜĜĜĜĜĜĜĜĜĜĜĜĜĜĜĜĜĜĜĜĜĜĜĜĜĜĜĜĜĜĜĜĜĜ"
      ],
      [
        "ď",
        "ę"
      ],
      [
        "ĝ",
        "ĜĚ"
      ],
      [
        "ĘĜ",
        "Ĕ"
      ],
      [
        "ē",
        "ğ"
      ],
      [
        "ĜĜĜĜ",
        "ĞĜĝ"
      ],
      [
        "&",
        "Ě"
      ],
      [
        "Ġ",
        "ěě"
      ],
      [
        "Ěě",
        "Ĝě"
      ],
      [
        "Ěě",
        "Ĝĝ"
      ],
      [
        "Ĝ",
        "*"
      ],
      [
        "Ā",
        "Ğĝ"
      ],
      [
        "ĜěĜě",
        "Ĝě"
      ],
      [
        "&",
        "ė"
      ],
      [
        "ĜĜĜě",
        "ĜĜĜĜĜĜĜĜĜĜĜĜĜĜĜĜĜĜĜĜĜĜĜĜĜĜĜĜĜĜĜĜ"
      ],
      [
        "ĜĜĜě",
        "ĜĜě"
      ],
      [
        "ě",
        "Ė"
      ],
      [
        "ĝĚ",
        "Ĝě"
      ],
      [
        "\"",
        "Ę"
      ],
      [
        "đ",
        "Ğ"
      ],
      [
        "#",
        "ĕ"
      ],
      [
        "ę",
        "ĕ"
      ],
      [
        "Ě",
        "ĜĞ"
      ],
      [
        "$",
        "Ė"
      ],
      [
        "ĜĜĚ",
        "Ĝĝ"
      ],
      [
        "Ě",
        "ĜĖ"
      ],
      [
        "ĜĜĜ",
        "%"
      ],
      [
        "Ğ",
        "Ė"
      ],
      [
        "Ęğ",
        "ĜĀ"
      ],
      [
        "ĜĜĜĝ",
        "ĜĜĜĜĜĜĜĜĜĜĜĜĜĜĜĜĜĜĜĜĜĜĜĜĜĜĜĜĜĜĜĜ"
      ],
      [
        "ĜĜĜĜĜĜĝ",
        "ĜĜĜĜ"
      ],
      [
        "ě",
        "ĜĜĜĜĜĜĜĜĜĜĜĜĜĜĜĜĜĜĜĜĜĜĜĜĜĜĜĜĜĜĜĜĜĜĜĜĜĜĜĜĜĜĜĜĜĜĜĜ"
      ],
      [
        "!",
        "Ę"
      ],
      [
        "Ě",
        "Ė"
      ],
      [
        ")",
        "ĜĜĜĜĜĜ"
      ],
      [
        "ĘĜ",
        "ē"
      ],
      [
        "ēĜĜĜĜĜĜ",
        "$ĜĜĜĜĜĜĕĜĜĜĜĜĜ\"ĜĜĜĜĜĜĘĜĜĜĜĜĜĞ"
      ],
      [
        "#",
        "Ę"
      ],
      [
        "Ĕ",
        "ĜĜ"
      ],
      [
        "Ā",
        "ĝĚ"
      ],
      [
        "%",
        "ę"
      ],
      [
        "'",
        "Ĝ"
      ],
      [
        "ě",
        "Ĝğ"
      ],
      [
        "Đ",
        "Ę"
      ],
      [
        "ĜĜĜ",
        "ğ"
      ],
      [
        "%ĜĜĜĜĜĜ",
        "$ĜĜĜĜĜĜ#ĜĜĜĜĜĜ\"ĜĜĜĜĜĜ"
      ],
      [
        "Ġ",
        "ĜĚ"
      ],
      [
        "ĘĜĜĜĜĜĜ",
        "ėĜĜĜĜĜĜĘ"
      ],
      [
        "ĜĜĜĜĝĜĜĜĜĜĜĜĜĜĜĜĜĜĜĜĜĜĜĜĜĜĜĜĜĜĜĜĜĜĜĜĜ",
        "ĜĜĜĜ"
      ],
      [
        "ĘĜ",
        "Ē"
      ],
      [
        "ĜĜĜĜĝĜĝ",
        "ĜĜĜĜĜĜĜĜĜĜĜĜĜĜĜĜĜĜĜĜĜĜĜĜĜĜĜĜĜĜĜĜ"
      ],
      [
        "Ā",
        "ė"
      ],
      [
        "ěĜě",
        "Ĝĝ"
      ],
      [
        "Ęė",
        "ĜĀ"
      ],
      [
        "!",
        "Ė"
      ],
      [
        "ĜĜĜĜĜĜ",
        "Ě"
      ],
      [
        "ĜĜĝĜĝ",
        "ĜĜĜĜĜĜĜĜĜĜĜĜĜĜĜĜĜĜĜĜĜĜĜĜĜĜĜĜĜĜĜĜĜĜĜĜĜĜĜĜĜĜĜĜ"
      ],
      [
        "Ď",
        "ě"
      ],
      [
        "ĜĜĜ",
        "ĘĜĜĀĜĜĜĜĜĜĜĜĜĜĜĜĜĜĜĜĜĜĜĜĜĜĜĜĜĜĜĜĜĜĜĜĜĜĜĜĜĜĜĜĜĜĜĜĜĜĜĜĜ"
      ],
      [
        "Ġ",
        "Ē"
      ],
      [
        "ĕ",
        "ĕ"
      ],
      [
        "\"",
        "Ĝĝ"
      ],
      [
        "Đ",
        "ĝ"
      ],
      [
        "Ęě",
        "ę"
      ],
      [
        "ĜĜĜě",
        "ĜĜĜĜĜĜĜĜĜĜĜĜĜĜĜĜĜĜĜĜĜĜĜĜĜĜĜĜĜĜĜĜĜĜ"
      ],
      [
        "ěĝ",
        "Ğ"
      ],
      [
        "ĜĜĜě",
        "ĜĜĜĜĜĜĜĜĜĜĜĜĜĜĜĜĜĜĜĜĜĜĜĜĜĜĜĜĜĜĜĜĜĜĜĜĜĜĜĜĜĜĜĜ"
      ],
      [
        "ď",
        "Ě"
      ],
      [
        "ĜĜĜĜě",
        "ĜĜĜĜĜĜĜĜĜĜĜĜĜĜĜĜĜĜĜĜĜĜĜĜĜ"
      ],
      [
        "ěĜě",
        "ĝ"
      ],
      [
        "&",
        "ĝ"
      ],
      [
        "ę",
        "ĝĝ"
      ],
      [
        "ĜĜĜě",
        "ĜĜĜĜĜĜĜĜĜĜĜĜĜĜĜĜĜĜĜĜĜĜĜĜĜĜĜĜĜĜĜĜĜĜĜĜĜĜĜĜĜ"
      ],
      [
        ")",
        "ĜĜěĜĜĜ"
      ],
      [
        "ĕ",
        "ĜĚ"
      ],
      [
        "ĝĜĝ",
        "ĜĜĜĜĜĜĜĜĜĜĜĜĜĜĜĜĜĜĜĜĜĜĜĜĜĜĜĜĜĜĜĜĜĜĜĜĜ"
      ],
      [
        "Ē",
        "ğ"
      ],
      [
        "Ě",
        "ĝĝ"
      ],
      [
        "Ĝ",
        "đ"
      ],
      [
        "ĜĜě",
        "ĝě"
      ],
      [
        "Ė",
        "Ĝę"
      ],
      [
        "ĜĜě",
        "ĝĝ"
      ],
      [
        "ĜĜĜĝ",
        "ĜĜĜĜĜĜĜĜĜĜĜĜĜĜĜĜĜĜĜĜĜĜĜĜĜĜĜĜĜĜĜĜĜĜĜĜĜĜĜĜĜĜĜ"
      ],
      [
        "ĜĜĜĝ",
        "ĝě"
      ],
      [
        "ĜĜĜĜĜĜě",
        "ĜĜĜ"
      ],
      [
        "Ā",
        "ĞĜĝ"
      ],
      [
        "ę",
        "ĜĖ"
      ],
      [
        "ğ",
        "ĜĚ"
      ],
      [
        "Ā",
        "Ĝę"
      ],
      [
        "Ā",
        "Ĝğ"
      ],
      [
        "Ĝ",
        "Đ"
      ],
      [
        "ĜĜě",
        "ĜĜĜĜĜĜĜĜĜĜĜĜĜĜĜĜĜĜĜĜĜĜĜĜĜĜĜĜĜĜĜĜĜ"
      ],
      [
        "ĜĜ",
        "ĕ"
      ],
      [
        "ď",
        "Ę"
      ],
      [
        "ĜĜě",
        "ĜĝĜĝ"
      ],
      [
        "ĜĜĜĜĜě",
        "ĜĜĜĜĜĜĜĜĜĜĜĜĜĜĜĜĜĜĜĜĜĜĜĜĜĜ"
      ],
      [
        "%ĜĜĜĜĜĜ",
        "ęĜĜĜĜĜĜĕĜĜĜĜĜĜĚĜĜĜĜĜĜ"
      ],
      [
        "Ğě",
        "Ě"
      ],
      [
        "ğ",
        "ěě"
      ],
      [
        "ĜĜ",
        "ď"
      ],
      [
        "Āĝ",
        "ĜĞ"
      ],
      [
        "ğ",
        "ěĝ"
      ],
      [
        "ĜĜ",
        "&"
      ],
      [
        "ĜĜĜĜĜĜĝĜĜĜĜĜĜĜĜĜĜĜĜĜĜĜĜĜĜĜĜĜĜĜĜĜĜĜĜĜĜĜĜ",
        "ĜĜĜĜ"
      ],
      [
        "ĝĝ",
        "ĜĜĝ"
      ],
      [
        "ė",
        "ĕ"
      ],
      [
        "ĜĜĜĜěĜě",
        "ĜĜĜĜĜĜĜĜĜĜĜĜĜĜĜĜĜĜĜĜĜĜĜĜĜĜĜĜĜĜĜĜ"
      ],
      [
        "đ",
        "Ė"
      ],
      [
        "ĜĜĜĜĜě",
        "ĜĜĜĜĜĜĜĜĜĜĜĜĜĜĜĜĜĜĜĜĜĜĜĜĜĜĜ"
      ],
      [
        "ĜĜĜĜĜĜě",
        "ĜĜĜĜĜĜĜĜĜĜĜĜĜĜĜĜĜĜ"
      ],
      [
        "ĜĜĜĜĜĜĜĜĜĜĜĜĜě",
        "ĜĜĜĜĜĜĜĜĜĜĜĜĜĜĜĜĜĜ"
      ],
      [
        "ė",
        "Ĝė"
      ],
      [
        "Ęĝ",
        "ę"
      ],
      [
        "ē",
        "Ė"
      ],
      [
        "Ę",
        "ĞĚ"
      ],
      [
        "ěě",
        "ĜĜĝ"
      ],
      [
        "Ĝ",
        "/"
      ],
      [
        "ĜĜ",
        "Ē"
      ],
      [
        "ĜĜĜĜĜĜĝ",
        "ĜĜĜĜĜĜĜĜĜĜĜĜĜĜĜĜĜĜĜĜĜĜĜĜĜĜĜĜĜĜĜĜĜĜĜĜĜĜĜĜ"
      ],
      [
        "$",
        "Ā"
      ],
      [
        "ĜĜěĜě",
        "ĜĜĜĜĜĜĜĜĜĜĜĜĜĜĜĜĜĜĜĜĜĜĜĜĜĜĜĜĜĜĜĜĜĜĜĜĜĜĜ"
      ],
      [
        "Ā",
        "ĜĜ"
      ],
      [
        "ě",
        "\""
      ],
      [
        "ěĜĝ",
        "ĜĜĜĜĜĜĜĜĜĜĜĜĜĜĜĜĜĜĜĜĜĜĜĜĜĜĜĜĜĜĜĜĜĜĜĜĜĜĜĜĜĜĜĜĜĜ"
      ],
      [
        "Ě",
        "Ĝĕ"
      ],
      [
        "ĝ",
        "#"
      ],
      [
        "ĜĜĜĜĜĝ",
        "ĜĜĜĜĜĜĜĜĜĜĜĜĜĜĜĜĜĜĜĜĜĜĜĜĜĜ"
      ],
      [
        "Ě",
        "ěě"
      ],
      [
        "\"",
        "ĕ"
      ],
      [
        "ė",
        "ĝĚ"
      ],
      [
        "Ě",
        "ĝě"
      ],
      [
        "$",
        "ĕ"
      ],
      [
        "Ā",
        "ğě"
      ],
      [
        "ę",
        "ĜĞ"
      ],
      [
        "ĜĜĜĜĜĝ",
        "ĝĜĜĜĜĜĜĜĜĜĜĜĜĜĜĜĜĜĜĜĜĜĜĜĜĜĜĜĜĜĜĜĜ"
      ],
      [
        "ĝĝ",
        "ĜĜĜĜ"
      ],
      [
        "ĜĘ",
        "Ğ"
      ],
      [
        "ę",
        "ěě"
      ],
      [
        "%",
        "Ė"
      ],
      [
        "Ĝĝ",
        "ğ"
      ],
      [
        "ĀĞ",
        "Ğ"
      ],
      [
        "&",
        "Ė"
      ],
      [
        "ě",
        "ĜĜ"
      ],
      [
        "ğ",
        "Ĝğ"
      ],
      [
        "ĜĜĝ",
        "ĜĜĜĜĜĜĜĜĜĜĜĜĜĜĜĜĜĜĜĜĜĜĜĜĜĜĜĜĜĜĜĜĜ"
      ],
      [
        "ĕ",
        "ĜĜĀ"
      ],
      [
        "ĜĜěĜě",
        "ĜĜĜĜĜĜĜĜĜĜĜĜĜĜĜĜĜĜĜĜĜĜĜĜĜĜĜĜĜĜĜĜ"
      ],
      [
        "ė",
        "ĝĜ"
      ],
      [
        "Ġ",
        "ĝě"
      ],
      [
        "Ā",
        "ĞĚ"
      ],
      [
        "Ď",
        "ĝ"
      ],
      [
        "Ē",
        "Ė"
      ],
      [
        "Ğ",
        "#"
      ],
      [
        "ĜĜĝ",
        "ěě"
      ],
      [
        "ĜĜĜě",
        "ĜĜĜĜĜĜĜĜĜĜĜĜĜĜĜĜĜĜĜĜĜĜĜĜĜĜĜĜĜĜĜĜĜĜĜĜĜĜĜĜĜĜĜ"
      ],
      [
        "ĜĀ",
        "Ĝě"
      ],
      [
        "ĜĘ",
        "ĜĚ"
      ],
      [
        "Ę",
        "ğě"
      ],
      [
        "ĜĜě",
        "ěĝ"
      ],
      [
        "ěĚ",
        "Ĝě"
      ],
      [
        "ĜĜĜĜĝĜĝ",
        "ĜĜĜĜĜĜĜĜĜĜĜĜĜĜĜĜĜĜĜĜĜĜĜĜĜĜĜĜĜĜĜĜĜĜĜĜĜ"
      ],
      [
        "!",
        "Ĝě"
      ],
      [
        "Ę\"",
        "Ĝ"
      ],
      [
        "ĜĜě",
        "ěĜĝ"
      ],
      [
        "'",
        "Ė"
      ],
      [
        "ĝĝ",
        "Ě"
      ],
      [
        "Đ",
        "Ė"
      ],
      [
        "ĜĜĜĜě",
        "ĜĜĜĜĜĜĜĜĜĜĜĜĜĜĜĜĜĜĜĜĜĜĜĜĜĜĜĜĜĜĜĜĜĜĜĜĜĜĜĜ"
      ],
      [
        "$",
        "ğ"
      ],
      [
        "ĜĚ",
        "ĜĚ"
      ],
      [
        "ĜĜĝĜĝ",
        "ĜĜĜĜĜĜĜĜĜĜĜĜĜĜĜĜĜĜĜĜĜĜĜĜĜĜĜĜĜĜĜĜ"
      ],
      [
        "ď",
        "ĝ"
      ],
      [
        "ĕ",
        "ĜĜěĜĜĜ"
      ],
      [
        "ĜĜĜĜĜĜĜĜĜě",
        "ĜĜĜ"
      ],
      [
        "Ā",
        "ĜĜĞ"
      ],
      [
        "ĜĘ",
        "Ĝę"
      ],
      [
        "ĜĜĜĜĜě",
        "Ĝě"
      ],
      [
        "(",
        "ě"
      ],
      [
        "Ď",
        "Ę"
      ],
      [
        "ĜĜěĜĝ",
        "Ĝě"
      ],
      [
        "!",
        "ĕ"
      ],
      [
        "%",
        "Ğ"
      ],
      [
        "Ĕ",
        "Ĝě"
      ],
      [
        "Ě",
        "\""
      ],
      [
        "ę",
        "\""
      ],
      [
        "Ā",
        "ěĚ"
      ],
      [
        "ĜĜ",
        "$"
      ],
      [
        "ĜĜĜĜěĜě",
        "ĜĜĜĜĜĜĜĜĜĜĜĜĜĜĜĜĜĜĜĜĜĜĜĜĜĜĜĜĜĜĜĜĜĜĜĜĜ"
      ],
      [
        "ĜĜĜĜ",
        "ĝĝě"
      ],
      [
        "!",
        "ĜĞ"
      ],
      [
        "ę",
        "ĜĜ"
      ],
      [
        "Ĝ",
        "("
      ],
      [
        "Ęĝ",
        "Ğ"
      ],
      [
        "Ĝ",
        "-"
      ],
      [
        "Ġ",
        "ĜĜě"
      ],
      [
        "ĜĜĝ",
        "ĜěĜě"
      ],
      [
        "ĕĜĜĜĜĜĜ",
        "ĚĜĜĜĜĜĜ"
      ],
      [
        "ĜĜĜĝ",
        "Ĝĝě"
      ],
      [
        "Ġ",
        "$"
      ],
      [
        "Ěě",
        "ę"
      ],
      [
        "Ĕ",
        "ĕ"
      ],
      [
        "Ęě",
        "ė"
      ],
      [
        "ďĜĜĜĜĜĜ",
        "\"ĜĜĜĜĜĜĜĜĜĜĜĜĜĘĜĜĜĜĜĜ!ĜĜĜĜĜĜĘ"
      ],
      [
        "'",
        "Ě"
      ],
      [
        "ė",
        "ěě"
      ],
      [
        "ĜĜĜĜĝ",
        "ĜĜĜĜĜĜĜĜĜĜĜĜĜĜĜĜĜĜĜĜĜĜĜĜĜ"
      ],
      [
        "ėĚ",
        "ĜĀ"
      ],
      [
        "ğ",
        "ĕ"
      ],
      [
        "$",
        "Ę"
      ],
      [
        "Đ",
        "Ğ"
      ],
      [
        "Ė",
        "ĝě"
      ],
      [
        "ĝĝ",
        "ĝě"
      ],
      [
        "ď",
        "Ĝ"
      ],
      [
        "Ĝěě",
        "ĜĜĜ"
      ],
      [
        "ĜĜĜĝ",
        "ěĜě"
      ],
      [
        "ĜĜěě",
        "ĜĜĜĜĜĜĜĜĜĜĜĜĜĜĜĜĜĜĜĜĜĜĜĜĜĜĜĜĜĜĜĜĜĜĜĜĜĜĜ"
      ],
      [
        "Ę",
        "ěĝ"
      ],
      [
        "ě",
        "ĝě"
      ],
      [
        "ĜĜĜě",
        "ěĜĝ"
      ],
      [
        "ĜĜĜĜĜĜĜĜĜĜĜĝ",
        "ĜĜĜĜĜĜĜĜĜĜĜĜĜĜĜĜĜĜĜĜĜĜĜĜĜĜĜĜĜĜĜĜ"
      ],
      [
        "(",
        "ė"
      ],
      [
        "#ĜĜĜĜĜĜ",
        "ĚĜĜĜĜĜĜĘĜĜĜĜĜĜ!"
      ],
      [
        "*",
        "ė"
      ],
      [
        "Ā",
        "#"
      ],
      [
        "Ĝěě",
        "ĜĜĜĜĜĜĜĜĜĜĜĜĜĜĜĜĜĜĜĜĜĜĜĜĜĜĜĜĜĜĜĜĜĜĜĜĜĜĜĜĜĜĜ"
      ],
      [
        "ĜĜĜĜĜ",
        "Ğ"
      ],
      [
        "ĜĀ",
        "ğ"
      ],
      [
        "ĜĜĜĜĜĝ",
        "ĜĜĜĜĜĜĜĜĜĜĜĜĜĜĜĜĜĜĜĜĜĜĜĜĜĜĜ"
      ],
      [
        "ě",
        "Ĝĕ"
      ],
      [
        "Ĝ",
        "+"
      ],
      [
        "ĜĞ",
        "ĜĜĜĜĜĜĜĜĜĜĜĜĜĜĜĜĜĜĜĜĜĜĜĜĜĜĜĜĜĜĜĜĜĜĜĜĜĜĜĜĜĜĜĜ"
      ],
      [
        "Ĝ",
        ","
      ],
      [
        "Ğ",
        "ĕ"
      ],
      [
        "ĜĜĜĝ",
        "ĜĜĜĜĜĜĜĜĜĜĜĜĜĜĜĜĜĜĜĜĜĜĜĜĜĜĜĜĜĜĜĜĜĜĜĜ"
      ],
      [
        "Ę!",
        "ě"
      ],
      [
        "'",
        "ĝ"
      ],
      [
        "ĜĜĜĜ",
        "ĚĜě"
      ],
      [
        "&",
        "ę"
      ],
      [
        "Ġ",
        "ĝĞ"
      ],
      [
        "ĜĜĜě",
        "ĜĜĜĜĜĜĜĜĜĜĜĜĜĜĜĜĜĜĜĜĜĜĜĜĜĜĜĜĜĜĜĜĜĜĜĜ"
      ],
      [
        "!",
        "!"
      ],
      [
        "ē",
        "ĕ"
      ],
      [
        "ĝĜĝ",
        "ĜĜĜĜĜĜĜĜĜĜĜĜĜĜĜĜĜĜĜĜĜĜĜĜĜĜĜĜĜĜĜĜĜĜĜĜĜĜĜĜĜĜĜĜ"
      ],
      [
        "Ĝěě",
        "ĜĜĜĜĜĜĜĜĜĜĜĜĜĜĜĜĜĜĜĜĜĜĜĜĜĜĜĜĜĜĜĜĜĜĜĜĜĜĜĜ"
      ],
      [
        "ĜĜĜĜĜĜĝ",
        "ĜĜĜĜĜĜĜĜĜĜĜĜĜĜĜĜĜĜĜĜ"
      ],
      [
        "ĞĜĝ",
        "ĝ"
      ],
      [
        "Ęė",
        "Ĝ"
      ],
      [
        "Ė",
        "ĕ"
      ],
      [
        "ě",
        "#"
      ],
      [
        "ĜĜĜ",
        "Ē"
      ],
      [
        "ĝě",
        "ĜĜĜĜĜĜĜĜĜĜĜĜĜĜĜĜĜĜĜĜĜĜĜĜĜĜĜĜĜĜĜĜĜĜĜĜĜĜĜ"
      ],
      [
        "Ěě",
        "Ğ"
      ],
      [
        "ĜĜĜĝ",
        "ĝĜě"
      ],
      [
        "ĜĜĜĜĜĝ",
        "ĜĜĜĜĜĜĜĜĜĜĜĜĜĜĜĜĜĜĜĜĜĜĜĜĜĜĜĜĜĜ"
      ],
      [
        "ĜĜĜĜĜĜĝ",
        "ĜĜĜĜĜĜĜĜĜĜĜĜĜĜĜĜĜĜ"
      ],
      [
        "ď",
        "ĜĜěĜĜĜ"
      ],
      [
        "ě",
        "ĝĝ"
      ],
      [
        "đ",
        "ğ"
      ],
      [
        "Ġ",
        "ěĜě"
      ],
      [
        "%",
        "Ę"
      ],
      [
        ")",
        "ė"
      ],
      [
        "ĜĜĝ",
        "ĜĚ"
      ],
      [
        "ğ",
        "#"
      ],
      [
        "ĜĜĜĜĜĜ",
        "#"
      ],
      [
        "ĝě",
        "ğ"
      ],
      [
        "Ĝĝ",
        "ĝĜě"
      ],
      [
        "ĝĚ",
        "Ğ"
      ],
      [
        "Ęě",
        "Ę"
      ],
      [
        "ēĜĜĜĜĜĜ",
        "ęĜĜĜĜĜĜ#ĜĜĜĜĜĜĚĜĜĜĜĜĜĘĜĜĜĜĜĜ!"
      ],
      [
        "ė",
        "ĜĖ"
      ],
      [
        "ĝĝ",
        "ĜĜě"
      ],
      [
        "'",
        "ę"
      ],
      [
        "ĜĜĜĜĜĜ",
        "Ğ"
      ],
      [
        "ĜĜĝ",
        "ĜĜĜĜĜĜĜĜĜĜĜĜĜĜĜĜĜĜĜĜĜĜĜĜĜĜĜĜĜĜ"
      ],
      [
        "(",
        "Ě"
      ],
      [
        "ę",
        "Ĝĕ"
      ],
      [
        "Ĝĝ",
        "ĜĜĜĜĜĜĜĜĜĜĜĜĜĜĜĜĜĜĜĜĜĜĜĜĜĜĜĜĜĜĜĜĜĜĜĜĜĜĜĜĜĜĜĜ"
      ],
      [
        "ěě",
        "ę"
      ],
      [
        "ĜĜĜĜĜĜĜĜĜĜĜĜĜě",
        "ĜĜĜĜĜĜĜĜĜĜĜĜĜĜĜĜĜĜĜĜĜĜĜĜĜ"
      ],
      [
        "ĜĜěě",
        "ĜĜĜĜĜĜĜĜĜĜĜĜĜĜĜĜĜĜĜĜĜĜĜĜĜĜĜĜĜĜĜĜĜĜĜĜĜĜĜĜ"
      ],
      [
        "Ě",
        "ěĝ"
      ],
      [
        "Ġ",
        "đ"
      ],
      [
        "ĜĜĜĜĜĜě",
        "ĜĜĜĜ"
      ],
      [
        "#ĜĜĜĜĜĜ",
        "\"ĜĜĜĜĜĜ"
      ],
      [
        "ĜĜ",
        "#"
      ],
      [
        "\"",
        "!"
      ],
      [
        "ĕ",
        "Ĝę"
      ],
      [
        "ĜĜĜĜĜĜĜĜĜĜĜĜĜĜĜĜ",
        "ĜĜĝ"
      ],
      [
        "ĜĜĝ",
        "ĝĜě"
      ],
      [
        ")ĜĜĜĜĜĜ",
        "\"ĜĜĜĜĜĜĜĜĜĜĜĜĜĘĜĜĜĜĜĜėĜĜĜĜĜĜĘ"
      ],
      [
        "ĜĜĜĜě",
        "ĜĚ"
      ],
      [
        "Ęğ",
        "Ě"
      ],
      [
        "Ē",
        "ĕ"
      ],
      [
        "ěě",
        "ĜĜĜĜ"
      ],
      [
        "ĜĜĜĝ",
        "ĜĜĜĜĜĜĜĜĜĜĜĜĜĜĜĜĜĜĜĜĜĜĜĜĜĜĜĜĜĜ"
      ],
      [
        "Āě",
        "Ğ"
      ],
      [
        "Ġ",
        "Ĝĝě"
      ],
      [
        "Ĕ",
        "ĜĜĀ"
      ],
      [
        "Ĝĝ",
        "ĝě"
      ],
      [
        "ĜĜě",
        "ĜĜĜĜĜĜĜĜĜĜ"
      ],
      [
        "ĜĜĜĝ",
        "ĝĝ"
      ],
      [
        "ĘĜę",
        "Ā"
      ],
      [
        "Ė",
        "ĜĘ"
      ],
      [
        "ĜĜĜĝ",
        "ĜĜĜĜĜĜĜĜĜĜĜĜĜĜĜĜĜĜĜĜĜĜĜĜĜĜĜĜĜĜĜĜĜĜĜĜĜĜĜĜĜ"
      ],
      [
        "ğě",
        "Ğ"
      ],
      [
        "ę",
        "#"
      ],
      [
        "Ě",
        "Ĝğ"
      ],
      [
        "ėĞ",
        "ĜĀ"
      ],
      [
        "Ę",
        "Ē"
      ],
      [
        "Ġ",
        "Ď"
      ],
      [
        "ĜĜĜ",
        "Ěě"
      ],
      [
        "ĜĞ",
        "ĜĜě"
      ],
      [
        "ĜĜĜĜĜĜě",
        "ĜĜĜĜĜĜĜĜĜĜĜĜĜĜĜĜĜĜĜĜĜĜĜĜĜĜĜĜĜ"
      ],
      [
        "ĘĜ",
        "đ"
      ],
      [
        "Ęę",
        "Ě"
      ],
      [
        "Ęğ",
        "ĝ"
      ],
      [
        "ě",
        "ĕ"
      ],
      [
        "ĜěĜě",
        "ĜĜĜĜĜĜĜĜĜĜĜĜĜĜĜĜĜĜĜĜĜĜĜĜĜĜĜĜĜĜĜĜĜĜĜĜĜ"
      ],
      [
        "ĜĜĜĜĝĜĝ",
        "ĜĜĜĜĜĜĜĜĜĜĜĜĜĜĜĜĜĜĜĜĜĜĜĜĜĜĜĜĜĜĜĜĜĜĜĜĜĜĜ"
      ],
      [
        "Ĝ",
        "'"
      ],
      [
        "ğ",
        "ĝě"
      ],
      [
        "ĜĀ",
        "ĜĜĜĜĜĜĜĜĜĜĜĜĜĜĜĜĜĜĜĜĜĜĜĜĜĜĜĜĜĜĜĜĜĜĜĜĜĜĜĜĜĜĜĜĜĜĜĜĜ"
      ],
      [
        "Ĝę",
        "Ğ"
      ],
      [
        "&",
        "Ğ"
      ],
      [
        "Ė",
        "Ĝĝ"
      ],
      [
        "ė",
        "Ğě"
      ],
      [
        "ĜĜĜĜĜĜĜĜ",
        "ĜĜĜěĜě"
      ],
      [
        "ĜĜĜĜě",
        "ĜĜĜĜĜĜĜĜĜĜĜĜĜĜĜĜĜĜĜĜĜĜĜĜĜĜĜĜĜĜĜĜĜĜĜĜ"
      ],
      [
        "ĕĜĜĜĜĜĜ",
        "\"ĜĜĜĜĜĜĘĜĜĜĜĜĜĞ"
      ],
      [
        "Ė",
        "Ĝė"
      ],
      [
        "ė",
        "ĞĜ"
      ],
      [
        "Ě",
        "ĜĜ"
      ],
      [
        "ĜĜĜ",
        "Ă"
      ],
      [
        "Ą",
        "ĜĜĜĜĜĜ"
      ],
      [
        "ĜĜĜĜĜĜĜĜ",
        "ĜĜĜĜĜĜĜ"
      ],
      [
        ")",
        "ě"
      ],
      [
        "ĜĜĜě",
        "ěě"
      ],
      [
        "Āğ",
        "ĝ"
      ],
      [
        "Ę",
        "ęě"
      ],
      [
        "ĜĜĜĜĜĜĜĜĜĜĜĜĜĜĜĜ",
        "ĜĜě"
      ],
      [
        "ĜĜĜ",
        "ĚĜě"
      ],
      [
        "ĜĜĜĝ",
        "ĜĜĜĜĜĜĜĜĜĜĜĜĜĜĜĜĜĜĜĜĜĜĜĜĜĜĜĜĜĜĜĜĜĜĜĜĜĜĜĜĜĜĜĜ"
      ],
      [
        "ĜĜĜĜĜĜě",
        "ĜĜĜĜĜĜĜĜĜĜĜĜĜĜĜĜĜĜĜĜĜĜĜĜĜĜĜĜĜĜĜĜĜĜĜĜĜĜĜĜ"
      ],
      [
        "ĜĜĝě",
        "ĜĜĜĜĜĜĜĜĜĜĜĜĜĜĜĜĜĜĜĜĜĜĜĜĜĜĜĜĜĜĜĜĜĜĜĜĜĜĜ"
      ],
      [
        "Ġ",
        "%"
      ],
      [
        "ĜĜĜĜěĜě",
        "ĜĜĜĜĜĜĜĜĜĜĜĜĜĜĜĜĜĜĜĜĜĜĜĜĜĜĜĜĜĜĜĜĜĜĜĜĜĜĜ"
      ],
      [
        "ē",
        "Ā"
      ],
      [
        "Ĕ",
        "Ĕ"
      ],
      [
        "ĜĜĝ",
        "ĜĜĜĜĜĜĜĜĜĜĜĜĜĜĜĜĜĜĜĜĜĜĜĜĜĜĜĜĜĜĜĜĜĜĜĜĜĜĜĜĜĜĜĜ"
      ],
      [
        "ė",
        "ĜĞ"
      ],
      [
        "ĝ",
        "Ĝę"
      ],
      [
        "Ĝě",
        "ę"
      ],
      [
        "Ĝĝ",
        "ę"
      ],
      [
        "ĜĜĜě",
        "ěĜě"
      ],
      [
        "ĜĜĜě",
        "ĝĝ"
      ],
      [
        "ĜĜĜěě",
        "ĜĜĜĜĜĜĜĜĜĜĜĜĜĜĜĜĜĜĜĜĜĜĜĜĜĜĜĜĜĜĜĜĜĜĜĜĜĜĜ"
      ],
      [
        "ĜĜĝ",
        "Ĝĝě"
      ],
      [
        "ĜĜĜĜĜĜ",
        "ěě"
      ],
      [
        "ěĝ",
        "ę"
      ],
      [
        "ĜĜĜĜĝ",
        "ĜĜĜĜĜĜĜĜĜĜĜĜĜĜĜĜĜĜĜĜĜĜĜĜĜĜĜĜĜĜĜĜĜĜĜĜĜĜĜĜĜĜĜ"
      ],
      [
        "Ěĝ",
        "Ğ"
      ],
      [
        "Ĝĝĝ",
        "ĜĜĜĜĜĜĜĜĜĜĜĜĜĜĜĜĜĜĜĜĜĜĜĜĜĜĜĜĜĜĜĜĜĜĜĜĜĜĜĜ"
      ],
      [
        "Ġ",
        "&"
      ],
      [
        "ĜĜĜĜĜĜ",
        ")ĜĜĜĜĜĜĖĜĜĜĜĜĜĜĜĜĜĜĜĜ"
      ],
      [
        "ĜĜĝ",
        "ěĜĝ"
      ],
      [
        "ĜĜě",
        "ĜĜĜĜĜĜĜĜĜĜĜĜĜĜĜĜĜĜĜĜĜĜĜĜĜĜĜĜĜĜ"
      ],
      [
        "ĜĜĜĜĜĜĝ",
        "ĜĜĜĜĜĜĜĜĜĜĜ"
      ],
      [
        "\"",
        "Ĕ"
      ],
      [
        ".",
        "ě"
      ],
      [
        "Ā",
        "ĝĜě"
      ],
      [
        "ĜĜĜĜĜě",
        "ĝĜĜĜĜĜĜĜĜĜĜĜĜĜĜĜĜĜĜĜĜĜĜĜĜĜĜĜĜĜĜĜĜ"
      ],
      [
        "ĜĜĜĜĜĝ",
        "Ĝĝ"
      ],
      [
        "Āĝ",
        "Ĝğ"
      ],
      [
        "(",
        "Ė"
      ],
      [
        "ĜĜĜĜĜĜ",
        "ďĜĜĜĜĜĜĖĜĜĜĜĜĜĜĜĜĜĜĜĜ"
      ],
      [
        "ĜĜĝ",
        "ěĝ"
      ],
      [
        "ĜĞ",
        "ğ"
      ],
      [
        "#",
        "Ĕ"
      ],
      [
        "ĜĀ",
        "Ě"
      ],
      [
        "ę",
        "ěĚ"
      ],
      [
        "ĝ",
        "ĕ"
      ],
      [
        "ĜĜĜĜĜě",
        "ĜĜĜĜĜĜĜĜĜĜĜĜĜĜĜĜĜĜĜĜĜĜĜĜĜĜĜĜĜĜĜĜĜĜĜĜĜĜĜĜĜ"
      ],
      [
        "ĜĚ",
        "ğ"
      ],
      [
        "Ĝĝě",
        "ĜĜĜ"
      ],
      [
        "ĜĜĜěĜě",
        "ĜĜĜĜĜĜĜĜĜĜĜĜĜĜĜĜĜĜĜĜĜĜĜĜĜĜĜĜĜĜĜĜĜĜĜĜĜ"
      ],
      [
        "đ",
        "ĕ"
      ],
      [
        "ĜĜě",
        "Ğ"
      ],
      [
        "\"",
        "Ĝě"
      ],
      [
        "$",
        "Ĕ"
      ],
      [
        "*",
        "Ě"
      ],
      [
        "ĜĜĝ",
        "Ĝěě"
      ],
      [
        "ĘĚ",
        "ę"
      ],
      [
        "ėĜě",
        "Ā"
      ],
      [
        "ĜĞ",
        "ĜĞ"
      ],
      [
        "ĜĜĝĜĜĜĝ",
        "ĜĜĜĜĜĜĜĜĜĜĜĜĜĜĜĜĜĜĜĜĜĜĜĜĜĜĜĜĜĜĜĜĜĜĜĜĜ"
      ],
      [
        "*",
        "Ė"
      ],
      [
        "ė",
        "Ĕ"
      ],
      [
        "ĜĜĜĜĜĜĜĜ",
        "ĜĜĜĜĜĜĜě"
      ],
      [
        "ĜĜĜě",
        "ĝĜĝ"
      ],
      [
        "&",
        "ĕ"
      ],
      [
        "ğ",
        "ĝĞ"
      ],
      [
        "Ĝĝ",
        "ĜĜĜĜĜĜĜĜĜĜĜĜĜĜĜĜĜĜĜĜĜĜĜĜĜĜĜĜĜĜĜĜĜĜĜĜĜĜĜĜĜĜĜĜĜĜĜ"
      ],
      [
        "ĜĜĝ",
        "ěĜě"
      ],
      [
        "ęĜ",
        "Ĕ"
      ],
      [
        "%",
        "ĕ"
      ],
      [
        "Ě",
        "ĕ"
      ],
      [
        "Ĝěĝ",
        "ĜĜĜĜĜĜĜĜĜĜĜĜĜĜĜĜĜĜĜĜĜĜĜĜĜĜĜĜĜĜĜĜĜĜĜĜĜĜĜĜĜĜĜ"
      ],
      [
        "!",
        "#"
      ],
      [
        "ĜĜĜě",
        "Ě"
      ],
      [
        "ē",
        "ĜĜ"
      ],
      [
        "Ĝĝ",
        "ĜĜĜĝ"
      ],
      [
        "ĝě",
        "Ā"
      ],
      [
        "ĝĞ",
        "Ğ"
      ],
      [
        "Ġ",
        "ěĜĝ"
      ],
      [
        "ĜĜ",
        "Ĕ"
      ],
      [
        "ĝĝ",
        "ğ"
      ],
      [
        "%",
        "Ā"
      ],
      [
        "Ĝė",
        "ĝ"
      ],
      [
        "Ĝĝĝ",
        "ĜĜĜĜĜĜĜĜĜĜĜĜĜĜĜĜĜĜĜĜĜĜĜĜĜĜĜĜĜĜĜĜĜĜĜĜĜĜĜĜĜĜĜ"
      ],
      [
        "Ē",
        "Ā"
      ],
      [
        "ĜĜĜĜĜĜĜĜĝĜĜĜĜĜĜĜĜĜĜĜĜĜĜĜĜĜĜĜĜĜĜĜĜĜĜĜĜĜĜĜĜ",
        "ĜĜ"
      ],
      [
        "!",
        "\""
      ],
      [
        "Ď",
        "Ė"
      ],
      [
        "Ġě",
        "Ğ"
      ],
      [
        "%",
        "Ĕ"
      ],
      [
        "(",
        "Ĝ"
      ],
      [
        "Ď",
        "Ĝ"
      ],
      [
        "ĜĜĜĜĜĜ",
        "ĝĜě"
      ],
      [
        "ĘĖ",
        "ĜĀ"
      ],
      [
        "ěě",
        "ĜĜĜĜĜĜĜĜĜĜĜĜĜĜĜĜĜĜĜĜĜĜĜĜĜĜĜĜĜĜĜĜĜĜĜĜĜĜĜĜĜĜĜĜ"
      ],
      [
        "(",
        "ę"
      ],
      [
        "Ę",
        "ĜĜĝĜĜĜ"
      ],
      [
        "ĜĜě",
        "ĜĜĜĜĜĜĜĜĜĜĜĜĜĜĜĜĜĜĜĜĜĜĜĜĜĜĜ"
      ],
      [
        "ĜĜĜ",
        "ĞĜĝ"
      ],
      [
        "ĜĜĜĜĜĜĜĜĜĜĜĜĜĝ",
        "ĜĜĜĜĜĜĜĜĜĜĜĜĜĜĜĜĜĜ"
      ],
      [
        "ĜĜĜĜĜĜĜĜĝ",
        "ĜĜĜĜĜĜĜĜĜĜĜĜĜĜĜĜĜĜĜĜĜĜĜĜĜĜĜĜĜĜ"
      ],
      [
        ".",
        "ė"
      ],
      [
        "Ğ",
        "ĜĜ"
      ],
      [
        "ĜĜĜĜĜĜě",
        "ĜĜĜĜĜĜĜĜĜĜĜĜĜĜĜĜĜĜĜĜĜĜĜ"
      ],
      [
        "ĜĜěĜĜĜě",
        "ĜĜĜĜĜĜĜĜĜĜĜĜĜĜĜĜĜĜĜĜĜĜĜĜĜĜĜĜĜĜĜĜĜĜĜĜĜ"
      ],
      [
        "ĜĜĜĜĜĜĜĜĜĜĝ",
        "ĜĜĜĜĜĜĜĜĜĜĜĜĜĜĜĜĜĜĜĜĜĜĜĜĜĜĜĜĜĜĜĜ"
      ],
      [
        "Ęĝ",
        "Ę"
      ],
      [
        "Ĝĝĝ",
        "ĜĜĜĜĜĜĜĜĜĜĜĜĜĜĜĜĜĜĜĜĜĜĜĜĜĜĜĜĜĜĜĜĜĜĜĜĜĜĜĜĜĜĜĜĜĜ"
      ],
      [
        "ĜĜĜĜ",
        "ĝĝĝ"
      ],
      [
        "Ĝğ",
        "Ğ"
      ],
      [
        "ĜĜĜĜĝ",
        "ĜĞ"
      ],
      [
        "ĞĚ",
        "Ĝě"
      ],
      [
        "ĚĜ",
        "Ĕ"
      ],
      [
        "%",
        "ğ"
      ],
      [
        "Ġ",
        "1"
      ],
      [
        "%ĜĜěĜĜĜ",
        "ğĜĜĜĜĜĜĕĜĜĜĜĜĜĞĜĜĜĜĜĜ"
      ],
      [
        "ė",
        "Ĝĕ"
      ],
      [
        "ĝ",
        "$"
      ],
      [
        "ĝ",
        "ěě"
      ],
      [
        "ĜĜĜĜĜĜ",
        "ĝě"
      ],
      [
        "Ġ",
        "ć"
      ],
      [
        "Ĝę",
        "ĜĚ"
      ],
      [
        "ěě",
        "ĜĜĜĜĜĜĜĜĜĜĜĜĜĜĜĜĜĜĜĜĜĜĜĜĜĜĜĜĜĜĜĜĜĜĜĜĜ"
      ],
      [
        "ĜĜĜĝ",
        "ěĜĝ"
      ],
      [
        "ĜĜĜĜĜě",
        "ĜĜĜĜĜĜĜĜĜĜĜĜĜĜĜĜĜĜĜĜĜĜĜĜĜ"
      ],
      [
        "ĜĜĜĜĜĜĜĜĜĜĜĜĜĝ",
        "ĜĜĜĜĜĜĜĜĜĜĜĜĜĜĜĜĜĜĜĜĜĜĜĜĜĜĜĜĜĜĜĜ"
      ],
      [
        "ĜĜĜĜĝĜĜĜĜĜĜĜĜĜĜĜĜĜĜĜĜĜĜĜĜĜĜĜĜĜĜĜĜĜĜĜĜ",
        "ĜĜĜĜĜĜ"
      ],
      [
        "Ĝě",
        "ěĝ"
      ],
      [
        "Ĝė",
        "ĜĜĀ"
      ],
      [
        "ĜĜĝĜě",
        "ĜĜĜĜĜĜĜĜĜĜĜĜĜĜĜĜĜĜĜĜĜĜĜĜĜĜĜĜĜĜĜĜĜĜĜĜĜĜĜĜĜĜĜĜ"
      ],
      [
        "Ĝě",
        "ĝĝ"
      ],
      [
        "ĜĜě",
        "ĝĜě"
      ],
      [
        "ĜĜĜĜĜĜĜĝ",
        "ĜĜĜĜĜĜĜĜĜĜĜĜĜĜĜĜĜĜĜĜĜĜĜĜĜĜĜĜĜĜĜĜĜ"
      ],
      [
        "ĜĜĜě",
        "ĜĜĜĜĜĜĜĜĜĜĜĜĜĜĜĜĜĜĜĜĜĜĜĜĜĜĜĜĜĜ"
      ],
      [
        "ĜĜĜĜĜĜĜĜĜĜĜĜĜ",
        "%ĜĜĜĜĜĜĜĜĜĜĜĜĜĖĜĜĜĜĜĜĜĜĜĜĜĜĜ!"
      ],
      [
        "Ęě",
        "Ğ"
      ],
      [
        "ĜĜĜĜĝĜĝ",
        "ĜĜĜĜĜĜĜĜĜĜĜĜĜĜĜĜĜĜĜĜĜĜĜĜĜĜĜĜĜĜ"
      ],
      [
        "ĜĜĝĝ",
        "ĜĜĜĜĜĜĜĜĜĜĜĜĜĜĜĜĜĜĜĜĜĜĜĜĜĜĜĜĜĜĜĜĜĜĜĜĜĜĜĜ"
      ],
      [
        "ĜĜĜ",
        "%ĜĜĜĜĜĜĜĜĜĜĜĜĜĖĜĜĜĜĜĜĜĜĜĜĜĜĜ!"
      ],
      [
        "ĜĜĜĜĜĜĜĜĜĜĜě",
        "ĜĜĜĜĜĜĜĜĜĜĜĜĜĜĜĜĜĜĜĜĜĜĜĜĜ"
      ],
      [
        "Ė",
        "\""
      ],
      [
        "ė",
        "#"
      ],
      [
        "Ġ",
        "*"
      ],
      [
        "ĜĝĜĜĜĜě",
        "ĜĜĜĜĜĜĜĜĜĜĜĜĜĜĜĜĜĜĜĜĜĜĜĜĜĜĜĜĜĜĜĜĜĜĜĜĜĜĜ"
      ],
      [
        "ē",
        "Ĕ"
      ],
      [
        "ė",
        "ěĚ"
      ],
      [
        "ĜĜě",
        "ĜĞ"
      ],
      [
        "ěě",
        "ĝĜě"
      ],
      [
        "ĜĜĜĜĜĜĝ",
        "ĜĜĜĜĜĜĜĜĜĜĜĜĜĜĜĜĜĜĜĜĜĜĜ"
      ],
      [
        "Āĝ",
        "ę"
      ],
      [
        "ĜĜěĜĜĜ",
        "Ğ"
      ],
      [
        "ėĜ",
        "Ĕ"
      ],
      [
        "Ę",
        "Ěĝ"
      ],
      [
        "ĜĜě",
        "ĜĜĜĜĜĜĜĜĜĜĜĜĜĜĜĜĜĜĜĜĜĜĜĜĜĜĜĜĜĜĜĜĜĜĜĜĜĜĜĜĜĜĜĜ"
      ],
      [
        "ĝě",
        "ĝĝ"
      ],
      [
        "ĜĜĜĜě",
        "ĜĜĜĜĜĜĜĜĜĜĜĜĜĜĜĜĜĜĜĜĜĜĜĜĜĜĜĜĜĜĜĜĜĜĜĜĜĜĜĜĜĜĜ"
      ],
      [
        "ĜĜĜĜĜĜě",
        "ĜĜĜĜĜĜĜĜĜĜĜ"
      ],
      [
        "&",
        "Ę"
      ],
      [
        "Ġ",
        "Đ"
      ],
      [
        "ĜĜĜĜĜĜĜĜ",
        "ĜĜĜĜĜĜĜĝ"
      ],
      [
        "ĜĜěĜĜĜĝ",
        "ĜĜĜĜĜĜĜĜĜĜĜĜĜĜĜĜĜĜĜĜĜĜĜĜĜĜĜĜĜĜĜĜĜĜĜĜĜĜĜ"
      ],
      [
        "Ġ",
        "ĝĚ"
      ],
      [
        "ĜĜě",
        "ěĜě"
      ],
      [
        "ĞĜĝ",
        "Ĝĝ"
      ],
      [
        "Āĝ",
        "ğ"
      ],
      [
        "Ę\"",
        "ě"
      ],
      [
        "ē",
        "!"
      ],
      [
        "Ĕ",
        "!"
      ],
      [
        "ę",
        "ĜĜĀ"
      ],
      [
        "ěě",
        "ĝĝ"
      ],
      [
        "ĜĜĜĜĜĜě",
        "ĝ"
      ],
      [
        "ĜĜĜĜĜě",
        "Ĝĝ"
      ],
      [
        "Ġ",
        "Ğě"
      ],
      [
        "ĜĜĜ",
        "Ğě"
      ],
      [
        "ĜĚ",
        "ĜĜĝ"
      ],
      [
        "Ęĝ",
        "Ė"
      ],
      [
        "ĜĜĜĜĜĜĜĜě",
        "ĜĜĜĜĜĜĜĜĜĜĜĜĜĜĜĜĜĜĜĜĜĜĜĜĜĜĜĜĜĜĜĜ"
      ],
      [
        "Ě",
        "#"
      ],
      [
        "ě",
        "ĜĜĜě"
      ],
      [
        "ĘĜ",
        "!"
      ],
      [
        "ęě",
        "ę"
      ],
      [
        "ėě",
        "ę"
      ],
      [
        "ĜĜĜĜĜĜĜĜě",
        "ĜĜĜĜĜĜĜĜĜĜĜĜĜĜĜĜĜĜĜĜĜĜĜĜĜĜĜĜĜĜ"
      ],
      [
        "'",
        "Ę"
      ],
      [
        "ĝ",
        "ĘĜĜ"
      ],
      [
        "ĜĜĜĝ",
        "ĝĜĜĜĜĜĜĜĜĜĜĜĜĜĜĜĜĜĜĜĜĜĜĜĜĜĜĜĜĜĜĜĜĜĜĜĜĜĜĜ"
      ],
      [
        "ĕĜĜĜĜĜĜ",
        "ĞĜĜĜĜĜĜ"
      ],
      [
        "ĜĜĜĜĜĜĜĜĜĜĜĜĜě",
        "ĜĜĜĜ"
      ],
      [
        "ėę",
        "ĜĀ"
      ],
      [
        "(",
        "ĕ"
      ],
      [
        "Ġ",
        "ď"
      ],
      [
        "ĜĜĜ",
        "Ěĝ"
      ],
      [
        "ĝě",
        "ĜĜĜě"
      ],
      [
        "Ĝěĝ",
        "ĜĜĜě"
      ],
      [
        "Đ",
        "ĕ"
      ],
      [
        "ĜĜĜĝ",
        "Ĝěě"
      ],
      [
        "ĒĜĜĜĜĜĜ",
        "%ĜĜĜĜĜĜĔĜĜĜĜĜĜ#ĜĜĜĜĜĜĖĜĜĜĜĜĜ"
      ],
      [
        "Ġ",
        "ĝĜě"
      ],
      [
        "Ġ",
        "ĜĜĚ"
      ],
      [
        "ĕĜĜĜĜĜĜ",
        "ĖĜĜĜĜĜĜĘĜĜĜĜĜĜĚ"
      ],
      [
        "ĜĜĜĝ",
        "ĜĝĜĜĜĜĜĜĜĜĜĜĜĜĜĜĜĜĜĜĜĜĜĜĜĜĜĜĜĜĜĜĜĜĜĜĜĜĜ"
      ],
      [
        "Ĝğ",
        "Ĝĝ"
      ],
      [
        "ĞĞ",
        "Ĝě"
      ],
      [
        "Ĝē",
        "ĜĜěĜĜĜ"
      ],
      [
        "ėĝ",
        "ę"
      ],
      [
        "Ĝ%",
        "ĜĜěĜĜĜ"
      ],
      [
        "ĘĜĘ",
        "Ā"
      ],
      [
        "Ę#",
        "Ĝ"
      ],
      [
        "Ė",
        "#"
      ],
      [
        "ė",
        "ğĜ"
      ],
      [
        "ĜĜĜĜĜĜě",
        "Ĝĝ"
      ],
      [
        "Ğĝ",
        "ğ"
      ],
      [
        "Ěĝ",
        "ę"
      ],
      [
        "ěĜ",
        "Ĕ"
      ],
      [
        "\"",
        "ĜĞ"
      ],
      [
        "Đ",
        "ğ"
      ],
      [
        "ĜĜĜĜĜĜĜĜĜĜĜĜĜĜĜĜ",
        "Ĝ"
      ],
      [
        "ěě",
        "ěĝ"
      ],
      [
        "ĜĜĜĝ",
        "ĜĜĜĜĜĜĜĜĜĜĜĜĜĜĜĜĜĜĜĜĜĜĜĜĜĜĜĜĜĜĜĜĜĜĜĜĜĜĜĜĜĜĜĜĜ"
      ],
      [
        "ĜĜĜĜĜě",
        "ĜĜĜĜĜĜĜĜĜĜĜĜĜĜĜĜĜĜĜĜĜĜĜĜĜĜĜĜĜĜ"
      ],
      [
        "(",
        "ĝ"
      ],
      [
        "ĜĜĜĜĜĜě",
        "ĜĜĜĜĜĜěĜĜĜĜĜĜĜĜĜĜĜĜĜĜĜĜĜĜĜĜĜĜĜĜĜ"
      ],
      [
        "ĜĘ",
        "Ě"
      ],
      [
        "$",
        "!"
      ],
      [
        "'",
        "ĕ"
      ],
      [
        "*",
        "ě"
      ],
      [
        "Ġ",
        "3"
      ],
      [
        "ĘĞ",
        "ę"
      ],
      [
        "&",
        "Ā"
      ],
      [
        "ĜĜĜĜĜĜĝ",
        "ĜĜĜĜĜĜĜĜĜĜĜĜĜĜĜĜĜĜĜĜĜĜĜĜĜĜĜĜĜĜĜĜĜĜĜĜĜĜĜĜĜ"
      ],
      [
        "Ĝė",
        "Ĝě"
      ],
      [
        "ĘĜ",
        "Đ"
      ],
      [
        "ĜĜěĜĜĜě",
        "ĜĜĜĜĜĜĜĜĜĜĜĜĜĜĜĜĜĜĜĜĜĜĜĜĜĜĜĜĜĜĜĜĜĜĜĜĜĜĜ"
      ],
      [
        "/",
        "ė"
      ],
      [
        "Ę",
        "Ğĝ"
      ],
      [
        "ĜĜĜĜě",
        "ĜĜĜĜĜĜĜĜĜĜĜĜĜĜĜĜĜĜĜĜĜĜĜĜĜĜĜĜĜĜĜĜĜĜĜĜĜĜ"
      ],
      [
        "ĜĜĜĜĜĝ",
        "Ĝě"
      ],
      [
        "Ĝğ",
        "Ě"
      ],
      [
        "ĜĜĜĜĜěě",
        "ĜĜĜĜĜĜĜĜĜĜĜĜĜĜĜĜĜĜĜĜĜĜĜĜĜĜĜĜĜĜĜĜĜĜĜĜĜĜĜ"
      ],
      [
        "ē",
        "Ĝě"
      ],
      [
        "ĜĜĜĜĜĜĜĜĜĜě",
        "ĜĜĜĜĜĜĜĜĜĜĜĜĜĜĜĜĜĜĜĜĜĜĜĜĜĜĜĜĜĜĜĜ"
      ],
      [
        "7",
        "8"
      ],
      [
        "ĜĜ",
        "."
      ],
      [
        "ĜĞ",
        "ĝĝ"
      ],
      [
        "Ĝěĝ",
        "ĜĜĜĜĜĜĜĜĜĜĜĜĜĜĜĜĜĜĜĜĜĜĜĜĜĜĜĜĜĜĜĜĜĜĜĜĜĜĜĜ"
      ],
      [
        "Ĝĝĝ",
        "ĜĜĜ"
      ],
      [
        "ĜĜĝĜě",
        "Ĝĝ"
      ],
      [
        "ď",
        "Ė"
      ],
      [
        "ď",
        "Ğ"
      ],
      [
        "ĝě",
        "ĜĜě"
      ],
      [
        "ęě",
        "Ĝ"
      ],
      [
        "ć",
        "ę"
      ],
      [
        "&",
        "Ĕ"
      ],
      [
        "ĜĜĜĜĜě",
        "ĜĜĜĜĜĜĜĜĜĜĜĜĜĜĜĜĜĜĜĜĜĜĜĜĜĜĜĜĜĜĜĜĜĜĜĜĜĜ"
      ],
      [
        ")",
        "Ė"
      ],
      [
        ")",
        "Ě"
      ],
      [
        "ĜĚ",
        "ěě"
      ],
      [
        "ĝě",
        "ĜĜĜĜĜĜĜĜĜĜĜĜĜĜĜĜĜĜĜĜĜĜĜĜĜĜĜĜĜĜĜĜĜĜĜĜĜ"
      ],
      [
        "Āğ",
        "Ğ"
      ],
      [
        "ĜĝĜĝ",
        "ĜĜĜĜĜĜĜĜĜĜĜĜĜĜĜĜĜĜĜĜĜĜĜĜĜĜĜĜĜĜĜĜĜĜĜĜĜ"
      ],
      [
        "+",
        "ė"
      ],
      [
        "ĜĚ",
        "ę"
      ],
      [
        "ĜĝĜĜĜĜě",
        "ĜĜĜĜĜĜĜĜĜĜĜĜĜĜĜĜĜĜĜĜĜĜĜĜĜĜĜĜĜĜĜĜ"
      ],
      [
        "!",
        "ĘĜĜ"
      ],
      [
        "Ě",
        "$"
      ],
      [
        "Ĝěĝ",
        "ĜĜĜĜĜĜĜĜĜĜĜĜĜĜĜĜĜĜĜĜĜĜĜĜĜĜĜĜĜĜĜĜĜĜĜĜĜĜĜĜĜĜĜĜĜĜ"
      ],
      [
        "*",
        "ĕ"
      ],
      [
        "Ď",
        "Ğ"
      ],
      [
        "Ē",
        "ĜĜ"
      ],
      [
        "ĜĜĜě",
        "ĜĜĜĜĜĜĜĜĜĜĜĜĜĜĜĜĜĜĜĜĜĜĜĜĜĜĜĜĜĜĜĜĜĜĜĜĜĜĜĜĜĜĜĜĜ"
      ],
      [
        "ĜĜĜĜĝ",
        "ěě"
      ],
      [
        "Ĝěĝ",
        "ĜĜĜĝ"
      ],
      [
        "\"",
        "#"
      ],
      [
        "\"",
        "ē"
      ],
      [
        "ė",
        "ĝĝ"
      ],
      [
        "ğ",
        "Ĕ"
      ],
      [
        "ĜĜĜĜĜĜĜĜĜĜĜĜĜĜĜĜ",
        "Ĝě"
      ],
      [
        "Ĝĝ",
        "ěĜě"
      ],
      [
        "ĜĝĜĝ",
        "ĜĜĜĜĜĜĜĜĜĜĜĜĜĜĜĜĜĜĜĜĜĜĜĜĜĜĜĜĜĜĜĜĜĜĜĜĜĜĜ"
      ],
      [
        ",",
        "Ė"
      ],
      [
        "ğ",
        "ĘĜĜ"
      ],
      [
        "ěě",
        "ğ"
      ],
      [
        "ĜĀ",
        "ĝĝ"
      ],
      [
        "ěĜĝ",
        "ĜĜĜĜĜĜĜĜĜĜĜĜĜĜĜĜĜĜĜĜĜĜĜĜĜĜĜĜĜĜĜĜĜĜĜĜĜĜĜĜĜ"
      ],
      [
        "ĜĜĝĜĜĜĝ",
        "ĜĜĜĜĜĜĜĜĜĜĜĜĜĜĜĜĜĜĜĜĜĜĜĜĜĜĜĜĜĜ"
      ],
      [
        "'",
        "Ğ"
      ],
      [
        "ę",
        "$"
      ],
      [
        "Ġ",
        "ĘĜĜ"
      ],
      [
        "ĜĜĜĜĜĜě",
        "ĜĜĜĜĜĜĜĜĜĜĜĜĜĜĜĜĜĜĜĜ"
      ],
      [
        "ĜĜĜĜěě",
        "ĝ"
      ],
      [
        "ć",
        "Ě"
      ],
      [
        "Ġ",
        "ěĚ"
      ],
      [
        "ĝĜě",
        "ĜĜĜ"
      ],
      [
        "Ęě",
        "ĚĀ"
      ],
      [
        "ĝĜ",
        "!"
      ],
      [
        "Āğ",
        "Ě"
      ],
      [
        "Ā",
        "ĚĚ"
      ],
      [
        "Ę",
        "*"
      ],
      [
        "ě",
        "$"
      ],
      [
        "ĝě",
        "ĜĜĜĜĜĜĜĜĜĜĜĜĜĜĜĜĜĜĜĜĜĜĜĜĜĜĜĜĜĜĜĜĜĜĜĜĜĜĜĜĜĜĜĜ"
      ],
      [
        "ĜĜĜĜĜĜě",
        "ĜĜĜĜĜĜĜĜĜĜĜĜĜĜĜĜĜĜĜĜĜĜĜĜĜĜĜĜĜĜĜĜĜĜĜĜĜĜĜĜĜ"
      ],
      [
        "Ęě",
        "Ė"
      ],
      [
        "ĜĜĜĜĝĝ",
        "ĜĜĜĜĜĜĜĜĜĜĜĜĜĜĜĜĜĜĜĜĜĜĜĜĜĜĜĜĜĜĜĜĜ"
      ],
      [
        "ĝ",
        "%"
      ],
      [
        "Ġ",
        "Ěĝ"
      ],
      [
        "ĜĜĜě",
        "ĝĜě"
      ],
      [
        "Ğĝ",
        "ěě"
      ],
      [
        "ĝĞ",
        "Ĝě"
      ],
      [
        "ĜĜěĜĜĜ",
        "Ě"
      ],
      [
        "#",
        "!"
      ],
      [
        "ę",
        "ĝĚ"
      ],
      [
        "ĜĜĜě",
        "ĝĜĜĜĜĜĜĜĜĜĜĜĜĜĜĜĜĜĜĜĜĜĜĜĜĜĜĜĜĜĜĜĜĜĜĜĜĜĜĜ"
      ],
      [
        "Ĝę",
        "Ě"
      ],
      [
        "ĜĘ",
        "ğ"
      ],
      [
        "ĞĜĝ",
        "ĜĜĜĜĜĜĜĜĜĜĜĜĜĜĜĜĜĜĜĜĜĜĜĜĜĜĜĜĜĜĜĜĜĜĜĜĜĜĜĜĜĜĜĜ"
      ],
      [
        "ĜĜĜĜĜĜĜě",
        "ĜĜĜĜĜĜĜĜĜĜĜĜĜĜĜĜĜĜĜĜĜĜĜĜĜĜĜĜĜĜĜĜĜ"
      ],
      [
        "Ā",
        "Ę"
      ],
      [
        "Ē",
        "Ĕ"
      ],
      [
        "ĝ",
        "Ĕ"
      ],
      [
        "Ĝğ",
        "ğ"
      ],
      [
        "#ĜĜĜĜĜĜ",
        "ĖĜĜĜĜĜĜ"
      ],
      [
        "ĀĞ",
        "Ĝě"
      ],
      [
        "Ě",
        "Ĝē"
      ],
      [
        "Ġ",
        "'"
      ],
      [
        "ĝĜĝ",
        "ĜĜě"
      ],
      [
        "-",
        "ė"
      ],
      [
        "Ĝ",
        "ć"
      ],
      [
        "ĜĜě",
        "ĜĜěě"
      ],
      [
        "ĜĜĝĜĜĜ",
        "Ğ"
      ],
      [
        "Ā",
        "Ěě"
      ],
      [
        "Ġ",
        "ĜĜĝ"
      ],
      [
        "/",
        "Ė"
      ],
      [
        "ěĝ",
        "ĜĜĜĜĜĜĜĜĜĜĜĜĜĜĜĜĜĜĜĜĜĜĜĜĜĜĜĜĜĜĜĜĜĜĜĜĜĜĜĜĜĜĜĜ"
      ],
      [
        "ĜĜěĜĝ",
        "ĜĜĜĜĜĜĜĜĜĜĜĜĜĜĜĜĜĜĜĜĜĜĜĜĜĜĜĜĜĜĜĜĜĜĜĜĜĜĜĜĜ"
      ],
      [
        "(",
        "Ĕ"
      ],
      [
        "-",
        "Ė"
      ],
      [
        "Ğ",
        "ĘĜĜ"
      ],
      [
        "ĜĚ",
        "ĜĜĜĜĜĜĜĜĜĜĜĜĜĜĜĜĜĜĜĜĜĜĜĜĜĜĜĜĜĜĜĜĜĜĜĜĜĜĜĜĜĜĜĜ"
      ],
      [
        "ĜĜĜĜĜĝ",
        "ĜĜĜĜĜĜĜĜĜĜĜĜĜĜĜĜĜĜĜĜĜĜĜĜĜĜĜĜĜĜĜĜĜĜĜĜĜĜ"
      ],
      [
        "ĜĜĜĜěě",
        "ĜĜĜĜĜĜĜĜĜĜĜĜĜĜĜĜĜĜĜĜĜĜĜĜĜĜĜĜĜĜĜĜĜĜĜĜĜĜĜĜ"
      ],
      [
        ",",
        "ė"
      ],
      [
        "Ā",
        "Ĝ"
      ],
      [
        "Ğ",
        "$"
      ],
      [
        "Ĝě",
        "ĜĜĜĜĜĜĜĜĜĜĜĜĜĜĜĜĜĜĜĜĜĜĜĜĜĜĜĜĜĜĜĜĜĜĜĜĜĜĜĜĜĜĜĜĜĜĜ"
      ],
      [
        "ĝĝ",
        "ĜĜĜĜĜĜĜĜĜĜĜĜĜĜĜĜĜĜĜĜĜĜĜĜĜĜĜĜĜĜĜĜĜĜĜĜĜ"
      ],
      [
        "ĜĞ",
        "ę"
      ],
      [
        "ĜĜĜĜě",
        "ĝě"
      ],
      [
        "ĜĜĜĜĜě",
        "ĜĜĜĜĜĜĜĜĜĜĜĜĜĜĜĜĜĜĜĜĜĜĜĜĜĜĜĜĜĜĜĜĜĜĜĜĜĜĜĜĜĜĜ"
      ],
      [
        "ĜĜę",
        "Ĝě"
      ],
      [
        "đ",
        "Ā"
      ],
      [
        "ĜĜĜĜĜĜĜě",
        "ĜĜĜĜĜĜĜĜĜĜĜĜĜĜĜĜĜĜĜĜĜĜĜĜĜĜĜĜĜĜĜĜ"
      ],
      [
        "Ĕ",
        "ĜĚ"
      ],
      [
        "ĕ",
        "Ĝĝ"
      ],
      [
        "ę",
        "ěĝ"
      ],
      [
        "Ġ",
        "Ěě"
      ],
      [
        "ěĜě",
        "ĜĜĝ"
      ],
      [
        "ć",
        "ě"
      ],
      [
        "Ē",
        "!"
      ],
      [
        "ĜĜĜě",
        "ěĝ"
      ],
      [
        "ĝĜĝ",
        "ĜĜĜĝ"
      ],
      [
        "ěĚ",
        "Ğ"
      ],
      [
        "Ĝĝě",
        "ĜĜĜĜĜĜĜĜĜĜĜĜĜĜĜĜĜĜĜĜĜĜĜĜĜĜĜĜĜĜĜĜĜĜĜĜĜĜĜĜĜĜĜ"
      ],
      [
        "ĜĜĜĜĜĜĜě",
        "ĜĜĜĜĜĜĜĜĜĜĜĜĜĜĜĜĜĜĜĜĜĜĜĜĜ"
      ],
      [
        "\"",
        "\""
      ],
      [
        "Ā",
        "ĜĜĝĜĜĜĜĜĜĜĜĜĜĜĜĜĜĜĜĜĜĜĜĜĜĜĜĜĜĜĜĜĜĜĜĜĜĜĜĜĜĜĜĜĜĜĜĜĜ"
      ],
      [
        "ğ",
        "$"
      ],
      [
        "ĜĞ",
        "ĜĜĝ"
      ],
      [
        "ĝĚ",
        "Ě"
      ],
      [
        "Āĝ",
        "Ĝ"
      ],
      [
        "ĀĞ",
        "ĝĝ"
      ],
      [
        "ĘĖ",
        "Ĝ"
      ],
      [
        "*",
        "ę"
      ],
      [
        "Ā",
        "Ė"
      ],
      [
        "ğ",
        "ē"
      ],
      [
        "ĜĜĜĜĜĜĜĜĜĜĜĜĜĜĜĜ",
        "Ĝĝ"
      ],
      [
        "ĝě",
        "Ĝ"
      ],
      [
        "ĜĜĚ",
        "ĜĜĜ"
      ],
      [
        "ĜĜĝĜĝ",
        "Ĝě"
      ],
      [
        "Ėě",
        "ĜĀ"
      ],
      [
        "ĝĝĝ",
        "ĜĜĜ"
      ],
      [
        "ĜĒ",
        "ĜĜĜĜĜĜ"
      ],
      [
        "+",
        "Ė"
      ],
      [
        "ĜĘ",
        "ę"
      ],
      [
        "ĜĄ",
        "ĜĜĜĜĜĜ"
      ],
      [
        "ĜĜĞĜĝ",
        "ĜĜĜĜĜĜĜĜĜĜĜĜĜĜĜĜĜĜĜĜĜĜĜĜĜĜĜĜĜĜĜĜĜĜĜĜĜĜĜĜĜĜĜĜ"
      ],
      [
        "Ā",
        "ěĜĝ"
      ],
      [
        "ĜĜě",
        "ĜĜĜĜĜĜĜĜ"
      ],
      [
        "ĜĜĜĜĜĜě",
        "ĜĜĜĜĜĜĜĜĜĜĜĜĜĜĜĜĜĜĜ"
      ],
      [
        "ĜĘ",
        "ěĜ"
      ],
      [
        "ĜĜĜĜĜĜĝ",
        "ĜĜĜĜĜĜĜĜĜĜĜĜĜĜĜĜĜĜĜĜĜĜĜĜĜĜĜĜĜ"
      ],
      [
        "Ęĝ",
        "ęĀ"
      ],
      [
        "Ęĕ",
        "ĜĀ"
      ],
      [
        ")",
        "ĕ"
      ],
      [
        "Ĉ",
        "ė"
      ],
      [
        "Ę",
        "đ"
      ],
      [
        "ęĜ",
        "Ē"
      ],
      [
        "ěěě",
        "ĜĜĜ"
      ],
      [
        "Ā",
        "ĜĜğ"
      ],
      [
        "ĝĝ",
        "ěě"
      ],
      [
        "ĜĜĜĝ",
        "Ğ"
      ],
      [
        "ĜĜĜĜĜĜě",
        "ĜĜĜĜĜĜĜĜĜĜĜĜĜĝ"
      ],
      [
        "Āě",
        "ğ"
      ],
      [
        "ĚĜĝ",
        "Ĝě"
      ],
      [
        "ĜĜĜē",
        "ĜĜĜĜĜĜĜĜĜĜĜĜĜ\"ĜĜĜĜĜĜĜĜĜĜĜĜĜė"
      ],
      [
        "Āě",
        "ę"
      ],
      [
        "!",
        "Ĕ"
      ],
      [
        "ě",
        "Ĕ"
      ],
      [
        "Ġ",
        "ęĀ"
      ],
      [
        "ĜĜĜĜĜĜĜĜĜĜĜĜĜĜĜĜ",
        "ĜĜĜě"
      ],
      [
        "ĝĚ",
        "Ĝĝ"
      ],
      [
        "ĜěĜě",
        "ĜĜĜĜĜĜĜĜĜĜĜĜĜĜĜĜĜĜĜĜĜĜĜĜĜĜĜĜĜĜĜĜĜĜĜĜĜĜĜ"
      ],
      [
        "ĜĜĝĜĝ",
        "ĜĝĜĜĜĜĜĜĜĜĜĜĜĜĜĜĜĜĜĜĜĜĜĜĜĜĜĜĜĜĜĜĜĜĜĜĜĜĜ"
      ],
      [
        ",",
        "ĕ"
      ],
      [
        "Ā",
        "ĝĜĜĜĜĜĜĜĜĜĜĜĜĜĜĜĜĜĜĜĜĜĜĜĜĜĜĜĜĜĜĜĜĜĜĜĜĜĜĜĜĜĜĜĜĜĜĜĜ"
      ],
      [
        "Ğ",
        "Ĕ"
      ],
      [
        "Ġ",
        "ĜĜĜĜĜĜĜĜĜĜĜĜĜĜĜĜĜĜĜĜĜĜĜĜĜĜĜĜĜĜĜĜĜĜĜĜĜĜĜĜĜĜĜĜĜĜ"
      ],
      [
        "ĜĜĜĜě",
        "ĜĝĜĜĜĜĜĜĜĜĜĜĜĜĜĜĜĜĜĜĜĜĜĜĜĜĜĜĜĜĜĜĜĜĜĜĜĜĜ"
      ],
      [
        "ěĝ",
        "ĜĜĝ"
      ],
      [
        "ĜĜĜĜĜĜĝ",
        "ĜĜĜĜĜĜĜĜĜĜĜĜĜĜĜĜĜĜĜ"
      ],
      [
        "#",
        "Ĝĝ"
      ],
      [
        "$",
        "ē"
      ],
      [
        "ę",
        "Ĕ"
      ],
      [
        "ĜĜ",
        "Ď"
      ],
      [
        "ĜĜĜĜĜĜĜĜĜĜĜĜĜĜĜĜ",
        "ĜĜĜĝ"
      ],
      [
        "ĜĜĝĜĜĜě",
        "ĜĜĜĜĜĜĜĜĜĜĜĜĜĜĜĜĜĜĜĜĜĜĜĜĜĜĜĜĜĜĜĜĜĜĜĜĜĜĜ"
      ],
      [
        "#",
        "ē"
      ],
      [
        "ĝĜĝ",
        "ĜĜĜĜĜĜĜĜĜĜĜĜĜĜĜĜĜĜĜĜĜĜĜĜĜĜĜĜĜĜĜĜĜĜĜĜĜĜĜĜĜ"
      ],
      [
        "ęĝ",
        "ę"
      ],
      [
        "ĀĞ",
        "ĜĞ"
      ],
      [
        "Ęğ",
        "ę"
      ],
      [
        "ė",
        "ĜĀ"
      ],
      [
        "ė",
        "Ĝē"
      ],
      [
        "ĝ",
        "Ğĝ"
      ],
      [
        "ĜĚ",
        "ĝě"
      ],
      [
        "ěĜě",
        "ĜĜĜĜĜĜĜĜĜĜĜĜĜĜĜĜĜĜĜĜĜĜĜĜĜĜĜĜĜĜĜĜĜĜĜĜĜĜĜĜĜĜĜĜĜĜ"
      ],
      [
        "ĜĜěĜĜĜĝ",
        "ĜĜěĜĜĜĝ"
      ],
      [
        "ĜĜĜĜĜĜĜĜĜĝ",
        "ĜĜĜĜĜĜĜĜĜĜĜĜĜĜĜĜĜĜĜĜĜĜĜĜĜĜĜ"
      ],
      [
        ".",
        "ĕ"
      ],
      [
        "ė",
        "ē"
      ],
      [
        "ĜĜĜĜ",
        "ĝěĝ"
      ],
      [
        "&",
        "ğ"
      ],
      [
        "+",
        "ĕ"
      ],
      [
        "ĜĜĝ",
        "ĜĜĜĜĜĜĜĜ"
      ],
      [
        "ĜĜě",
        "ĜĜĝě"
      ],
      [
        "ĘĚ",
        "ė"
      ],
      [
        "ęĝ",
        "Ĝ"
      ],
      [
        "ĘĞ",
        "Ğ"
      ],
      [
        "*",
        "ĝ"
      ],
      [
        "ĜĜĝ",
        "ĜĜěĝ"
      ],
      [
        "ĜĚ",
        "ĜĜě"
      ],
      [
        "ĜĀ",
        "ĜĞ"
      ],
      [
        "ĜĜĜĜĜĜĜĜĜĜĜĝ",
        "ĜĜĜĜĜĜĜĜĜĜĜĜĜĜĜĜĜĜĜĜĜĜĜĜĜĜĜ"
      ],
      [
        "ĝ",
        "&"
      ],
      [
        "ĜĜĜĜě",
        "Ĝ"
      ],
      [
        "ĜĘ",
        "ĚĜ"
      ],
      [
        "ď",
        "ğ"
      ],
      [
        "ĜĜ",
        ")"
      ],
      [
        "ĜĜě",
        "ĝĜĝ"
      ],
      [
        "ĜĀ",
        "ę"
      ],
      [
        "Ęĝ",
        "ė"
      ],
      [
        "ĝĜĞ",
        "Ĝĝ"
      ],
      [
        "Ęěě",
        "Ā"
      ],
      [
        "ě",
        "Ĝ!"
      ],
      [
        "ĜĜ",
        "ğě"
      ],
      [
        "Ğě",
        "ğ"
      ],
      [
        "ĝĜě",
        "ĜĜĜĜĜĜĜĜĜĜĜĜĜĜĜĜĜĜĜĜĜĜĜĜĜĜĜĜĜĜĜĜĜĜĜĜĜĜĜĜĜĜĜ"
      ],
      [
        "Ĝğ",
        "Ĝě"
      ],
      [
        "Ęě",
        "ĕ"
      ],
      [
        "ęě",
        "Ğ"
      ],
      [
        "ĜĜěĜĝ",
        "ĜĜĜĜĜĜĜĜĜĜĜĜĜĜĜĜĜĜĜĜĜĜĜĜĜĜĜĜĜĜĜĜĜĜĜĜĜĜĜ"
      ],
      [
        "đ",
        "Ĕ"
      ],
      [
        "ěě",
        "ěĜě"
      ],
      [
        "ėĝ",
        "Ę"
      ],
      [
        "ĜĜĝě",
        "ĜĜĜĜĜĜĜĜĜĜĜĜĜĜĜĜĜĜĜĜĜĜĜĜĜĜĜĜĜĜĜĜĜĜĜĜĜĜĜĜĜĜĜĜĜ"
      ],
      [
        "!",
        "Ĝğ"
      ],
      [
        "Ď",
        "ĕ"
      ],
      [
        "ĜĜĜě",
        "ĝě"
      ],
      [
        "ĜĜĜě",
        "ĝĜĜĜĜĜĜĜĜĜĜĜĜĜĜĜĜĜĜĜĜĜĜĜĜĜĜĜĜĜĜĜĜ"
      ],
      [
        "Ĝę",
        "Ĝĝ"
      ],
      [
        "Ęĝ",
        "ğ"
      ],
      [
        "ĜĜĜĜěĜě",
        "ĜĜĜĜĜĜĜĜĜĜĜĜĜĜĜĜĜĜĜĜĜĜĜĜĜĜĜĜĜĜ"
      ],
      [
        "ĜĜĜĜĜĜĜĜĜě",
        "ĜĜĜĜĜĜĜĜĜĜĜĜĜĜĜĜĜĜĜĜĜĜĜĜĜĜĜ"
      ],
      [
        "ĜĜĜē",
        "ĜĜěĜĜĜ"
      ],
      [
        "Ğ",
        "Ĝ!"
      ],
      [
        "ĜĘ",
        "Ĝĝ"
      ],
      [
        "ĜĜĜĜĝ",
        "Ĝ"
      ],
      [
        "ĝĚ",
        "ğ"
      ],
      [
        "ĘĜĜĜĜĜĜ",
        "!"
      ],
      [
        "ĜĜĚ",
        "Ě"
      ],
      [
        "#",
        "Ĝě"
      ],
      [
        "ĜĜ",
        "Ą"
      ],
      [
        "ĝĝ",
        "ĜĜĜĝ"
      ],
      [
        "(",
        "Ğ"
      ],
      [
        "Ā",
        "ĜĜě"
      ],
      [
        "Ę",
        "'"
      ],
      [
        "ę",
        "Ĝē"
      ],
      [
        "ě",
        "%"
      ],
      [
        "Ġ",
        "Ĉ"
      ],
      [
        "ĜĜĜ",
        "&"
      ],
      [
        "ĜĚ",
        "Ĝ"
      ],
      [
        "ĜĚ",
        "ěĜĝ"
      ],
      [
        "ĜĜĜĜĜĜě",
        "ĜĜĜĜĜĜĝĜĜĜĜĜĜĜĜĜĜĜĜĜĜĜĜĜĜĜĜĜĜĜĜĜĜĜĜĜĜĜĜ"
      ],
      [
        "ĜĜĞ",
        "ĜĞ"
      ],
      [
        "#ĜĜĜĜĜĜ",
        "ĞĜĜĜĜĜĜĘĜĜĜĜĜĜė"
      ],
      [
        "ĜĜĝĝ",
        "ĜĜĜĜĜĜĜĜĜĜĜĜĜĜĜĜĜĜĜĜĜĜĜĜĜĜĜĜĜĜĜĜĜĜĜĜĜĜĜĜĜĜĜĜĜ"
      ],
      [
        "ć",
        "ė"
      ],
      [
        "Ė",
        "ĝĜ"
      ],
      [
        "Ę",
        ")"
      ],
      [
        "Ę",
        "ĘĜ"
      ],
      [
        "ĜĜĝ",
        "ĝĜĜĜĜĜĜĜĜĜĜĜĜĜĜĜĜĜĜĜĜĜĜĜĜĜĜĜĜĜĜĜĜĜĜĜĜĜĜĜ"
      ],
      [
        "ĞĚ",
        "Ğ"
      ],
      [
        "Ęę",
        "ę"
      ],
      [
        "ĜĜěĜě",
        "ĜĜĜĜĜĜĜĜĜĜĜĜĜĜĜĜĜĜĜĜĜĜĜĜĜĜĜĜĜĜĜĜĜĜĜĜĜĜĜĜĜĜĜĜ"
      ],
      [
        "ĞĜě",
        "Ĝĝ"
      ],
      [
        "ėğ",
        "ĜĀ"
      ],
      [
        "ć",
        "ĝ"
      ],
      [
        "ĜĜ",
        "ęĝ"
      ],
      [
        "ĜĜĝ",
        "ĜĜĜĜĜĜěĜĜĜ"
      ],
      [
        "ĜĘ",
        "ĜĘ"
      ],
      [
        "ěĝ",
        "ğ"
      ],
      [
        "ĜĜĞ",
        "ĝĝ"
      ],
      [
        "ĀĚ",
        "Ğ"
      ],
      [
        ")ĜĜěĜĜĜ",
        "ĖĜĜĜĜĜĜĜĜĜĜĜĜĜ"
      ],
      [
        "#",
        "\""
      ],
      [
        "Ĕ",
        "Ĝę"
      ],
      [
        "ĕ",
        "\""
      ],
      [
        "Ė",
        "ĜĀ"
      ],
      [
        "Ěě",
        "ĜĜě"
      ],
      [
        "ĜĜĜĜĜĜĝĜĜĜĜĜĜĜĜĜĜĜĜĜĜĜĜĜĜĜĜĜĜĜĜĜĜĜĜĜĜĜĜ",
        "ĜĜĜĜĜĜ"
      ],
      [
        "ĘĚ",
        "Ę"
      ],
      [
        "ĘĜĝ",
        "Ā"
      ],
      [
        "ĜĜĜĝě",
        "ĜĜĜĜĜĜĜĜĜĜĜĜĜĜĜĜĜĜĜĜĜĜĜĜĜĜĜĜĜĜĜĜĜĜĜĜĜĜĜ"
      ],
      [
        "(",
        "ē"
      ],
      [
        "Ď",
        "ğ"
      ],
      [
        "Ė",
        "ĝĚ"
      ],
      [
        "ę",
        "Ĝğ"
      ],
      [
        "ĜĚ",
        "ĝĜě"
      ],
      [
        "Ĝĝě",
        "ĜĜĝ"
      ],
      [
        "ĜĜěĜě",
        "Ĝĝ"
      ],
      [
        "Ē",
        "ē"
      ],
      [
        "ĜĜĜĜě",
        "ĜěĜě"
      ],
      [
        "ĝĜĝ",
        "ĜĜĜĜĜĜĜĜĜĜ"
      ],
      [
        "Ā",
        "Ěĝ"
      ],
      [
        "đ",
        "ē"
      ],
      [
        "ĝĝ",
        "ěĜĝ"
      ],
      [
        "ĜĜĜě",
        "Ĝĝĝ"
      ],
      [
        "Ěě",
        "ė"
      ],
      [
        "ĞĚ",
        "Ě"
      ],
      [
        "Ę",
        "Đ"
      ],
      [
        "Ĝ",
        "Ĉ"
      ],
      [
        "ĜĜĜĝ",
        "ěě"
      ],
      [
        "Ĝė",
        "ě"
      ],
      [
        "Ĝė",
        "Ğ"
      ],
      [
        "Ē",
        "ĘĜĜĀ"
      ],
      [
        "Ę",
        "Ęě"
      ],
      [
        "ĜĜĜĝ",
        "ĜĜ"
      ],
      [
        "ĘĜ",
        "\""
      ],
      [
        "ĝĞ",
        "Ĝĝ"
      ],
      [
        "%",
        "ē"
      ],
      [
        "*",
        "Ĕ"
      ],
      [
        "Ĕ",
        "ĜĜĝĜĜĜ"
      ],
      [
        "Ė",
        "Ĕ"
      ],
      [
        "Ě",
        "Ĕ"
      ],
      [
        "ĜĜĜ",
        "."
      ],
      [
        "Ęĕ",
        "Ĝ"
      ],
      [
        "\"",
        "ĘĜĜ"
      ],
      [
        "ď",
        "ĕ"
      ],
      [
        "ĜĜě",
        "ĜĚĜě"
      ],
      [
        "ĜĜĜ",
        "ĘĜěĀ"
      ],
      [
        "ĝĝ",
        "ĜĜĜĜě"
      ],
      [
        "Ęě",
        "ē"
      ],
      [
        "ĝĝě",
        "ĜĜĜĜĜĜĜĜĜĜĜĜĜĜĜĜĜĜĜĜĜĜĜĜĜĜĜĜĜĜĜĜĜĜĜĜĜĜ"
      ],
      [
        "ĜĜĜĜĜĜĜĝ",
        "ĜĜĜĜĜĜĜĜĜĜĜĜĜĜĜĜĜĜĜĜĜĜĜĜĜ"
      ],
      [
        "!",
        "ěĝ"
      ],
      [
        "#",
        "#"
      ],
      [
        "+",
        "ę"
      ],
      [
        "ĜĘ",
        "Ĝė"
      ],
      [
        "ęě",
        "Ė"
      ],
      [
        "ĀĞ",
        "ěĝ"
      ],
      [
        "ĝĜ",
        "\""
      ],
      [
        "Ėĝ",
        "ĜĀ"
      ],
      [
        "ĜĜěĜěĜě",
        "ĜĜĜĜĜĜĜĜĜĜĜĜĜĜĜĜĜĜĜĜĜĜĜĜĜĜĜĜĜĜĜĜĜĜĜĜĜ"
      ],
      [
        "!",
        "$"
      ],
      [
        ")",
        "ē"
      ],
      [
        "Ę",
        "ĜĜěĜĜĜ"
      ],
      [
        "ĜĜĜĜ",
        "ę"
      ],
      [
        "ĜĜĝ",
        "ĜĜĜĜĜĜĜĜĜĜĜĜĜĜĜĜĜĜĜĜĜĜĜĜĜĜĜ"
      ],
      [
        "ěě",
        "Ę"
      ],
      [
        "Ę!",
        "ĜĀ"
      ],
      [
        "ĜĜěĜĜĜě",
        "ĜĜĜĜĜĜĜĜĜĜĜĜĜĜĜĜĜĜĜĜĜĜĜĜĜĜĜĜĜĜĜĜĜĜĜĜ"
      ],
      [
        ")",
        "ĝ"
      ],
      [
        "Ė",
        "ĜĖ"
      ],
      [
        "ğ",
        "ěĜě"
      ],
      [
        "Ġ",
        "-"
      ],
      [
        "Ġ",
        "Ĝę"
      ],
      [
        "Ġ",
        "Ĝ!"
      ],
      [
        "ĜĜĝ",
        "ĜĜěě"
      ],
      [
        "Ěě",
        "Ĝ"
      ],
      [
        "ĜĜĜĜĜĜĝ",
        "ĜĜĜĜĜĜěĜĜĜĜĜĜĜĜĜĜĜĜĜĜĜĜĜĜĜĜĜĜĜĜĜ"
      ],
      [
        "ĜĜĜĜĝ",
        "ĜĜĜĜĜĜĝĜĜĜĜĜĜĜĜĜĜĜĜĜĜĜĜĜĜĜĜĜĜĜĜĜĜĜĜĜĜĜĜ"
      ],
      [
        "ĀĞ",
        "ę"
      ],
      [
        "ĜĜĝĜě",
        "ĜĜĜĜĜĜĜĜĜĜĜĜĜĜĜĜĜĜĜĜĜĜĜĜĜĜĜĜĜĜĜĜĜĜĜĜĜĜĜ"
      ],
      [
        "ĜĜĜĜĜĜĜĜĜĜĜĜĜĝ",
        "ĜĜĜĜĜĜĜĜĜĜĜĜĜĜĜĜĜĜĜĜ"
      ],
      [
        ")",
        "Ĕ"
      ],
      [
        ")",
        "ę"
      ],
      [
        "/",
        "ĕ"
      ],
      [
        "Ĝě",
        "Ĝ"
      ],
      [
        "ĜĜě",
        "Ĝĝĝ"
      ],
      [
        "Ğě",
        "ĝĝ"
      ],
      [
        "Ęě",
        "ğ"
      ],
      [
        "ĜĜĝě",
        "ĜĜĜĜĜĜĜĜĜĜĜĜĜĜĜĜĜĜĜĜĜĜĜĜĜĜĜĜĜĜĜĜĜĜĜĜĜĜĜĜ"
      ],
      [
        "ĜĜĜĜĜĜĜĜĜĜĜě",
        "ĜĜĜĜĜĜĜĜĜĜĜĜĜĜĜĜĜĜĜĜĜĜĜĜĜĜĜĜĜĜĜĜ"
      ],
      [
        "&",
        "ē"
      ],
      [
        "+",
        "Ě"
      ],
      [
        "Ā",
        "$"
      ],
      [
        "ĕ",
        "#"
      ],
      [
        "Ė",
        "ěě"
      ],
      [
        "Ġ",
        "6"
      ],
      [
        "Ğě",
        "Ā"
      ],
      [
        "ĜĜĞ",
        "Ğ"
      ],
      [
        "ĜĝĜĜĝ",
        "ĜĜĜĜĜĜĜĜĜĜĜĜĜĜĜĜĜĜĜĜĜĜĜĜĜĜĜĜĜĜĜĜĜĜ"
      ],
      [
        "'",
        "Ĕ"
      ],
      [
        ".",
        "Ě"
      ],
      [
        "Đ",
        "ĘĜĜĀ"
      ],
      [
        "Ġ",
        "("
      ],
      [
        "ĜĜĜ",
        "Ğĝ"
      ],
      [
        "ĚĚ",
        "Ě"
      ],
      [
        "ĀĜĝ",
        "ĜĜĜĜĜĜĜĜĜĜĜĜĜĜĜĜĜĜĜĜĜĜĜĜĜĜĜĜĜĜĜĜĜĜĜĜĜĜĜĜĜĜĜĜĜĜĜ"
      ],
      [
        "&",
        "Ē"
      ],
      [
        "ė",
        "$"
      ],
      [
        "ė",
        "ğě"
      ],
      [
        "ĝĝ",
        "ĝĜĝ"
      ],
      [
        "ĜĞ",
        "ěĜě"
      ],
      [
        "ĜĜĜĜĜĜĝ",
        "ĜĜĜĜĜĜĝĜĜĜĜĜĜĜĜĜĜĜĜĜĜĜĜĜĜĜĜĜĜĜĜĜĜĜĜĜĜĜĜ"
      ],
      [
        "Ĝĝě",
        "ĜĜĜě"
      ],
      [
        "ĜĝĜĝ",
        "Ĝĝ"
      ],
      [
        "ĚĜ",
        "Ē"
      ],
      [
        "Ę$",
        "Ĝ"
      ],
      [
        "ėĘ",
        "ĜĀ"
      ],
      [
        "Ġ",
        "Āğ"
      ],
      [
        "ĜĜĜĜĜĜ",
        "ĕĜĜěĜĜĜ"
      ],
      [
        "ĜĞ",
        "ĝĜě"
      ],
      [
        "ĜĜĜĜĜĝ",
        "ĜĜĜĜĜĜĜĜĜĜĜĜĜĜĜĜĜĜĜĜĜĜĜĜĜĜĜĜĜĜĜĜĜĜĜĜĜĜĜĜĜĜĜ"
      ],
      [
        "ĝĜě",
        "ĜĜĜĜĜĜĜĜĜĜĜĜĜĜĜĜĜĜĜĜĜĜĜĜĜĜĜĜĜĜĜĜĜĜĜĜĜĜĜĜĜĜĜĜĜĜ"
      ],
      [
        "*",
        "Ğ"
      ],
      [
        "ě",
        "Ĝē"
      ],
      [
        "ĜĚ",
        "ĜĜĜě"
      ],
      [
        "ĝě",
        "ĝĜĝ"
      ],
      [
        "ěĝ",
        "ĜĜĜĜ"
      ],
      [
        "ěĚ",
        "Ě"
      ],
      [
        "Āĝ",
        "ĜĚ"
      ],
      [
        "ĜĜĝĜě",
        "ĜĜĜĜĜĜĜĜĜĜĜĜĜĜĜĜĜĜĜĜĜĜĜĜĜĜĜĜĜĜĜĜĜĜĜĜĜĜĜĜĜ"
      ],
      [
        "%",
        "Ē"
      ],
      [
        "Ę",
        "ėě"
      ],
      [
        "Ġ",
        "ğě"
      ],
      [
        "Ĝĝ",
        "!"
      ],
      [
        "Ĝĝ",
        "Ĝ"
      ],
      [
        "ĜĜĜ",
        "ĞĜě"
      ],
      [
        "ĝĞ",
        "Ě"
      ],
      [
        "Ĝěĝ",
        "ĜĜě"
      ],
      [
        ".",
        "ĝ"
      ],
      [
        "ĕ",
        "Ĕ"
      ],
      [
        "ğ",
        "%"
      ],
      [
        "ĜĜĜĝ",
        "ĝĜĜĜĜĜĜĜĜĜĜĜĜĜĜĜĜĜĜĜĜĜĜĜĜĜĜĜĜĜĜĜĜ"
      ],
      [
        "ĜĜĜĜĜĝ",
        "ĜĜĜĜĜĜĜĜĜĜĜĜĜĜĜĜĜĜĜĜĜĜĜĜĜĜĜĜĜĜĜĜĜĜĜĜĜĜĜĜĜ"
      ],
      [
        "ĜĜĞ",
        "ĜĜĜĝ"
      ],
      [
        "ĘĞ",
        "Ę"
      ],
      [
        "ėĜ",
        "Ē"
      ],
      [
        "(",
        "Ā"
      ],
      [
        "đ",
        "ĘĜĜĀ"
      ],
      [
        "Ě",
        "ĜĜĀ"
      ],
      [
        "Ġ",
        "ĞĚ"
      ],
      [
        "ĜĜĜĝ",
        "Ě"
      ],
      [
        "Ěě",
        "Ę"
      ],
      [
        "ėĝ",
        "ė"
      ],
      [
        "Ĉ",
        "ę"
      ],
      [
        "ĜĞ",
        "ĝě"
      ],
      [
        "ĜĜĞ",
        "ĜĝĜĝ"
      ],
      [
        "ĘĞ",
        "ė"
      ],
      [
        "ĜĜĝĜě",
        "ĜĜĜĜĜĜĜĜĜĜĜĜĜĜĜĜĜĜĜĜĜĜĜĜĜĜĜĜĜĜĜĜĜĜĜĜĜĜ"
      ],
      [
        "'",
        "Ā"
      ],
      [
        "Đ",
        "Ĕ"
      ],
      [
        "Ē",
        "ĜĀ"
      ],
      [
        "Ę",
        "ęĝ"
      ],
      [
        "Ğ",
        "&"
      ],
      [
        "ğ",
        "Ĝ!"
      ],
      [
        "ĜĜĜ",
        "ď"
      ],
      [
        "ěě",
        "ĜĜĜĜě"
      ],
      [
        "ĜĜĜĜĜě",
        "ĝĜĜĜĜĜĜĜĜĜĜĜĜĜĜĜĜĜĜĜĜĜĜĜĜĜĜĜĜĜĜĜĜĜĜĜĜĜĜĜ"
      ],
      [
        "ĜĜĜĜĜĝ",
        "ĝĜĜĜĜĜĜĜĜĜĜĜĜĜĜĜĜĜĜĜĜĜĜĜĜĜĜĜĜĜĜĜĜĜĜĜĜĜĜĜ"
      ],
      [
        "Āĝ",
        "ěě"
      ],
      [
        "ĀĞ",
        "ğ"
      ],
      [
        "ĜĜĜĜĜĜĜĜĜĝ",
        "ĜĜĜĜĜĜĜĜĜĜĜĜĜĜĜĜĜĜĜĜĜĜĜĜĜĜĜĜĜĜĜĜĜĜ"
      ],
      [
        "ĒĜĜĜĜĜĜ",
        "ēĜĜĜĜĜĜĔĜĜĜĜĜĜĕĜĜĜĜĜĜĖĜĜĜĜĜĜĘĜĜĜĜĜĜĚ"
      ],
      [
        "+",
        "ě"
      ],
      [
        ".",
        "Ė"
      ],
      [
        "ĕ",
        "ĜĘ"
      ],
      [
        "ė",
        "!Ĝ"
      ],
      [
        "ĜĜĜĜĜĜĜĜĜĜĜĜĜĜĜĜ",
        "ĝ"
      ],
      [
        "ĜĜě",
        "Ĝĝě"
      ],
      [
        "ěě",
        "ė"
      ],
      [
        "ĜĞ",
        "ěĜĝ"
      ],
      [
        "ĜĜĜĜĜĜě",
        "ĜĜĜĜĜĜĜĜĜĜĜĜĜĜĜĜĜĜĜĜĜĜĜĜĜĜĜĜĜĜĜĜĜĜĜĜĜĜ"
      ],
      [
        "ĜĜĜĜĜĜĝ",
        "ĜĜĜĜĜĜĜĜĜĜĜĜĜě"
      ],
      [
        "đ",
        "!"
      ],
      [
        "ĜĚ",
        "Ā"
      ],
      [
        "Ĝę",
        "ğ"
      ],
      [
        "Ęę",
        "Ę"
      ],
      [
        "ĝĜ",
        "#"
      ],
      [
        "ėĞ",
        "ę"
      ],
      [
        ",",
        "Ē"
      ],
      [
        "-",
        "Ĕ"
      ],
      [
        "Ġ",
        "ĜĜ"
      ],
      [
        "ĜĜĜĜĝĜě",
        "ĜĜĜĜĜĜĜĜĜĜĜĜĜĜĜĜĜĜĜĜĜĜĜĜĜĜĜĜĜĜĜĜĜĜĜĜĜ"
      ],
      [
        "ĜĜĜĜĜĜĝĜĜĜĜĜĜě",
        "ĜĜĜĜĜĜĜĜĜĜĜĜĜĜĜĜĜĜ"
      ],
      [
        "'",
        "ğ"
      ],
      [
        ")",
        "Ğ"
      ],
      [
        "Đ",
        "!"
      ],
      [
        "Ġ",
        "2"
      ],
      [
        "Ġ",
        "Ĝěě"
      ],
      [
        "ĜĜĜĜĜĜ",
        "ĕ"
      ],
      [
        "Ęě",
        "Ĕ"
      ],
      [
        "ĞĞ",
        "Ğ"
      ],
      [
        ")",
        "Ĝ"
      ],
      [
        "Ġ",
        "ą"
      ],
      [
        "Ġ",
        "ĀĞ"
      ],
      [
        "ĜĜĜĜě",
        "ĜĜĜĜĜĜěĜĜĜĜĜĜĜĜĜĜĜĜĜĜĜĜĜĜĜĜĜĜĜĜĜ"
      ],
      [
        "ĜĘ",
        "ĝě"
      ],
      [
        "ĜĜĜĜĝ",
        "ĜĜĜĜĜĜĜĜĜĜĜĜĜĜĜĜĜĜĜĜĜĜĜĜĜĜĜĜĜ"
      ],
      [
        "!",
        "ěě"
      ],
      [
        "'",
        "ē"
      ],
      [
        "Ě",
        "ē"
      ],
      [
        "Ě",
        "ĝĚ"
      ],
      [
        "Ĝĝ",
        "Ā"
      ],
      [
        "Ğĝ",
        "ĜĜĝ"
      ],
      [
        "ĘĚ",
        "Ė"
      ],
      [
        "Ę!",
        "Ě"
      ],
      [
        "ĜĜĜĜĜĜĝĜĜĜĜĜĜĝ",
        "ĜĜĜĜ"
      ],
      [
        "#",
        "Ē"
      ],
      [
        ",",
        "ę"
      ],
      [
        "ć",
        "Ğ"
      ],
      [
        "Ď",
        "ĘĜĜĀ"
      ],
      [
        "ĕ",
        "ĝĚ"
      ],
      [
        "Ė",
        "ĜĔ"
      ],
      [
        "ė",
        "Ěě"
      ],
      [
        "Ĝě",
        "!"
      ],
      [
        "ĜĜě",
        "Ĝěě"
      ],
      [
        "ĜĜĜ",
        "ĘěĜĀ"
      ],
      [
        "ĝĜě",
        "ĜĜĜĜĜĜĜĜĜĜĜĜĜĜĜĜĜĜĜĜĜĜĜĜĜĜĜĜĜĜĜĜĜĜĜĜĜĜĜĜĜĜĜĜ"
      ],
      [
        "ĜĜĝĜĜĜĝ",
        "ĜĜĜĜĜĜĜĜĜĜĜĜĜĜĜĜĜĜĜĜĜĜĜĜĜĜĜĜĜĜĜĜĜĜĜĜ"
      ],
      [
        ",",
        "ě"
      ],
      [
        "ĝ",
        "ĜĜĜě"
      ],
      [
        "ĜĜĝ",
        "ĜĜĜĜĜĜĜĜĜĜĜĜĜĜĜĜĜĜĜĜĜĜĜĜĜĜĜĜĜĜĜĜĜĜĜĜĜĜ"
      ],
      [
        "ěě",
        "ĝě"
      ],
      [
        "ĝĜĝ",
        "ĜĞ"
      ],
      [
        "ĝĞ",
        "ğ"
      ],
      [
        "ĜĜĜĜĝĝ",
        "ĜĜĜĜĜĜĜĜĜĜĜĜĜĜĜĜĜĜĜĜĜĜĜĜĜĜĜĜĜĜĜĜĜĜĜĜĜĜĜĜ"
      ],
      [
        "Ęĝě",
        "Ā"
      ],
      [
        "'",
        "Ē"
      ],
      [
        "(",
        "Ę"
      ],
      [
        "+",
        "Ĕ"
      ],
      [
        "ē",
        "ěĜěĜĜĜ"
      ],
      [
        "Ğ",
        "%"
      ],
      [
        "Ġ",
        "ĜĞě"
      ],
      [
        "ĜĜĜ",
        ")"
      ],
      [
        "ĜĜĜĜĜĜĜĜĜĜĜĜĜĜĜĜĜĜĜĜĜĜĜĜ",
        "ĜĜĜě"
      ],
      [
        "Ğě",
        "ĜĜĜĜĜĜĜĜĜĜĜĜĜĜĜĜĜĜĜĜĜĜĜĜĜĜĜĜĜĜĜĜĜĜĜĜĜĜĜĜĜĜĜĜĜ"
      ],
      [
        "ęě",
        "ė"
      ],
      [
        "Ęę",
        "ė"
      ],
      [
        "Ęğ",
        "Ğ"
      ],
      [
        "Āğ",
        "Ĝĝ"
      ],
      [
        "ėĝ",
        "Ė"
      ],
      [
        "ĜĜĜĝĜĝ",
        "ĜĜĜĜĜĜĜĜĜĜĜĜĜĜĜĜĜĜĜĜĜĜĜĜĜĜĜĜĜĜĜĜĜĜĜĜĜĜĜ"
      ],
      [
        "ĝ",
        "Ē"
      ],
      [
        "ĝ",
        "ē"
      ],
      [
        "ĜĜ",
        "ęě"
      ],
      [
        "Ĝě",
        "ĜĜĜě"
      ],
      [
        "ĜĜĝ",
        "ĝĜĝ"
      ],
      [
        "ĜĜĝ",
        "ĜĜĝě"
      ],
      [
        "ĜĜě",
        "Ĝěĝ"
      ],
      [
        "ĝĝ",
        "ĜĜĜĜĜĜĜĜĜĜĜĜĜĜĜĜĜĜĜĜĜĜĜĜĜĜĜĜĜĜĜĜ"
      ],
      [
        "ĜĜĜĜĜĜě",
        "ĜĜĜĜĜĜĜĜĜĜĜĜĜĜĜĜĜĜĜĜĜĜĜĜĜĜĜĜĜĜĜ"
      ],
      [
        "ĜĜĜĜĜĝ",
        "ĜĜĜĜĜĜĜĜĜĜĜĜĜĜĜĜĜĜĜĜĜĜĜĜĜĜĜĜĜĜĜ"
      ],
      [
        "ĘĜ",
        "ĖĀ"
      ],
      [
        "ĜĜĜĜĜĜěĜĜĜĜĜĜě",
        "ĜĜĜĜ"
      ],
      [
        "ě",
        "-"
      ],
      [
        "ĜĜĜĜ",
        "Ğě"
      ],
      [
        "ĜĜĜĜ",
        "ĚĜĝ"
      ],
      [
        "ěě",
        "ĜĜĜĜĜĜĜĜĜĜĜĜĜĜĜĜĜĜĜĜĜĜĜĜĜĜĜĜĜĜĜĜĜĜĜĜĜĜĜĜĜĜĜ"
      ],
      [
        "ĜĜěĜĜĜě",
        "ĜĜĜĜĜĜĜĜĜĜĜĜĜĜĜĜĜĜĜĜĜĜĜĜĜĜĜĜĜĜ"
      ],
      [
        "ĜĜĜĜĜĜĜĜĜě",
        "ĜĜĜĜĜĜĜĜĜĜĜĜĜĜĜĜĜĜĜĜĜĜĜĜĜĜĜĜĜĜĜĜĜ"
      ],
      [
        "Ę%",
        "Ĝ"
      ],
      [
        "*",
        "ē"
      ],
      [
        "ĕ",
        "ĝě"
      ],
      [
        "Ğ",
        "Ĝę"
      ],
      [
        "Ġ",
        "Ć"
      ],
      [
        "ĜĜĜĜĜĜĜĜĜĜĜĜĜĜĜĜ",
        "ě"
      ],
      [
        "ĜĜĜĝ",
        "ĝĜĝ"
      ],
      [
        "Ĝę",
        "Ā"
      ],
      [
        "ĜĜĜĜĜĝ",
        "ĜĜĜĜĜĜĜĜĜĜĜĜĜĜĜĜĜĜĜĜĜĜĜĜĜ"
      ],
      [
        "ĝĜě",
        "ĜĜĜĜĜĜĜĜĜĜĜĜĜĜĜĜĜĜĜĜĜĜĜĜĜĜĜĜĜĜĜĜĜĜĜĜĜĜĜĜĜ"
      ],
      [
        "ĜĜğ",
        "Ĝĝ"
      ],
      [
        "ĜĜĝĜĜĜĝ",
        "ĜĜĜĜĜĜĜĜĜĜĜĜĜĜĜĜĜĜĜĜĜĜĜĜĜĜĜĜĜĜĜĜĜĜĜĜĜĜĜ"
      ],
      [
        "ĜĜěĜĜĝ",
        "ĜĜĜĜĜĜĜĜĜĜĜĜĜĜĜĜĜĜĜĜĜĜĜĜĜĜĜĜĜĜĜĜĜĜĜĜĜĜĜĜ"
      ],
      [
        "ĜĜĜĜĜĜĜĜĜĜĜě",
        "ĜĜĜĜĜĜĜĜĜĜĜĜĜĜĜĜĜĜĜĜĜĜĜĜĜĜĜ"
      ],
      [
        "\"",
        "$"
      ],
      [
        "ď",
        "Ĕ"
      ],
      [
        "ĝ",
        "ĜĖ"
      ],
      [
        "Ġ",
        "ĝĜĝ"
      ],
      [
        "ĜĜĜě",
        "ĜĚ"
      ],
      [
        "ĜĜĜĜě",
        "ĜĜĜĜĜĜĝĜĜĜĜĜĜĜĜĜĜĜĜĜĜĜĜĜĜĜĜĜĜĜĜĜĜĜĜĜĜĜĜ"
      ],
      [
        "Ęğ",
        "Ę"
      ],
      [
        "ĜĜĜĜĝĜĝ",
        "ĜĜĜĜĝĜĝ"
      ],
      [
        "ĜĜěĝ",
        "ĜĜĜĜĜĜĜĜĜĜĜĜĜĜĜĜĜĜĜĜĜĜĜĜĜĜĜĜĜĜĜĜĜĜĜĜĜĜĜĜ"
      ],
      [
        "!",
        "ē"
      ],
      [
        ".",
        "ę"
      ],
      [
        "Đ",
        "Ā"
      ],
      [
        "Ġ",
        "Ą"
      ],
      [
        "ĜĜĝ",
        "ĜĜĝĝ"
      ],
      [
        "ĜĜĜě",
        "Ĝěě"
      ],
      [
        "ĜĜĜĜĜĜĜĜĜĜĜĜĜĜĜĜĜĜĜĜĜĜĜĜ",
        "ĜĜĜĝ"
      ],
      [
        "Ěě",
        "ğ"
      ],
      [
        "ĞĚ",
        "Ĝĝ"
      ],
      [
        "ĜĜěĜĜĜ",
        "Ę"
      ],
      [
        "Āě",
        "ĜĚ"
      ],
      [
        "ĝĜĝĜĝ",
        "ĜĜĜĜĜĜĜĜĜĜĜĜĜĜĜĜĜĜĜĜĜĜĜĜĜĜĜĜĜĜĜĜĜĜĜĜĜĜĜĜĜĜĜĜ"
      ],
      [
        "\"",
        "ĜĜĜĜĜĜĜĜĜěĜĜĜ"
      ],
      [
        ",",
        "Ě"
      ],
      [
        "/",
        "ě"
      ],
      [
        "ĝ",
        "ĜĘ"
      ],
      [
        "Ğ",
        "ē"
      ],
      [
        "Ġ",
        "ĜĘ"
      ],
      [
        "ĜĀ",
        "ĝě"
      ],
      [
        "ĜĜĜĜĜĜě",
        "ĜĜĜĜĜĜĝĜĜĜĜĜĜĜĜĜĜĜĜĜĜĜĜĜĜĜĜĜĜĜĜĜ"
      ],
      [
        "Ĝę",
        "ĝě"
      ],
      [
        "ĜĜĜĜĜě",
        "ĜĜĜĜĜĜĜĜĜĜĜĜĜĜĜĜĜĜĜĜĜĜĜĜĜĜĜĜĜĜĜ"
      ],
      [
        "ĘĚ",
        "Ğ"
      ],
      [
        "ĜĜěĜĜĜě",
        "ĜĜĜĜĜĜĜĜĜĜĜĜĜĜĜĜĜĜĜĜĜĜĜĜĜĜĜĜĜĜĜĜĜ"
      ]
    ]
  }
}